{
  "version": "1.0",
  "truncation": null,
  "padding": null,
  "added_tokens": [
    {
      "id": 0,
      "special": true,
      "content": "[UNK]",
      "single_word": false,
      "lstrip": false,
      "rstrip": false,
      "normalized": false
    },
    {
      "id": 1,
      "special": true,
      "content": "[PAD]",
      "single_word": false,
      "lstrip": false,
      "rstrip": false,
      "normalized": false
    },
    {
      "id": 2,
      "special": true,
      "content": "[CLS]",
      "single_word": false,
      "lstrip": false,
      "rstrip": false,
      "normalized": false
    },
    {
      "id": 3,
      "special": true,
      "content": "[SEP]",
      "single_word": false,
      "lstrip": false,
      "rstrip": false,
      "normalized": false
    },
    {
      "id": 4,
      "special": true,
      "content": "[MASK]",
      "single_word": false,
      "lstrip": false,
      "rstrip": false,
      "normalized": false
    }
  ],
  "normalizer": {
    "type": "Sequence",
    "normalizers": [
      {
        "type": "NFD"
      },
      {
        "type": "Lowercase"
      },
      {
        "type": "StripAccents"
      }
    ]
  },
  "pre_tokenizer": {
    "type": "Sequence",
    "pretokenizers": [
      {
        "type": "Punctuation",
        "behavior": "Isolated"
      },
      {
        "type": "Whitespace"
      }
    ]
  },
  "post_processor": {
    "type": "TemplateProcessing",
    "single": [
      {
        "SpecialToken": {
          "id": "[CLS]",
          "type_id": 0
        }
      },
      {
        "Sequence": {
          "id": "A",
          "type_id": 0
        }
      },
      {
        "SpecialToken": {
          "id": "[SEP]",
          "type_id": 0
        }
      }
    ],
    "pair": [
      {
        "SpecialToken": {
          "id": "[CLS]",
          "type_id": 0
        }
      },
      {
        "Sequence": {
          "id": "A",
          "type_id": 0
        }
      },
      {
        "SpecialToken": {
          "id": "[SEP]",
          "type_id": 0
        }
      },
      {
        "Sequence": {
          "id": "B",
          "type_id": 1
        }
      },
      {
        "SpecialToken": {
          "id": "[SEP]",
          "type_id": 1
        }
      }
    ],
    "special_tokens": {
      "[CLS]": {
        "id": "[CLS]",
        "ids": [
          2
        ],
        "tokens": [
          "[CLS]"
        ]
      },
      "[SEP]": {
        "id": "[SEP]",
        "ids": [
          3
        ],
        "tokens": [
          "[SEP]"
        ]
      }
    }
  },
  "decoder": {
    "type": "WordPiece",
    "prefix": "##",
    "cleanup": true
  },
  "model": {
    "type": "WordPiece",
    "unk_token": "[UNK]",
    "continuing_subword_prefix": "##",
    "max_input_chars_per_word": 100,
    "vocab": {
      "[UNK]": 0,
      "[PAD]": 1,
      "[CLS]": 2,
      "[SEP]": 3,
      "[MASK]": 4,
      "!": 5,
      "\"": 6,
      "#": 7,
      "$": 8,
      "%": 9,
      "&": 10,
      "'": 11,
      "(": 12,
      ")": 13,
      "*": 14,
      "+": 15,
      ",": 16,
      "-": 17,
      ".": 18,
      "/": 19,
      "0": 20,
      "1": 21,
      "2": 22,
      "3": 23,
      "4": 24,
      "5": 25,
      "6": 26,
      "7": 27,
      "8": 28,
      "9": 29,
      ":": 30,
      ";": 31,
      "<": 32,
      "=": 33,
      ">": 34,
      "?": 35,
      "@": 36,
      "[": 37,
      "\\": 38,
      "]": 39,
      "^": 40,
      "_": 41,
      "`": 42,
      "a": 43,
      "b": 44,
      "c": 45,
      "d": 46,
      "e": 47,
      "f": 48,
      "g": 49,
      "h": 50,
      "i": 51,
      "j": 52,
      "k": 53,
      "l": 54,
      "m": 55,
      "n": 56,
      "o": 57,
      "p": 58,
      "q": 59,
      "r": 60,
      "s": 61,
      "t": 62,
      "u": 63,
      "v": 64,
      "w": 65,
      "x": 66,
      "y": 67,
      "z": 68,
      "{": 69,
      "|": 70,
      "}": 71,
      "~": 72,
      "": 73,
      "##w": 74,
      "##a": 75,
      "##c": 76,
      "##q": 77,
      "##r": 78,
      "##o": 79,
      "##d": 80,
      "##i": 81,
      "##g": 82,
      "##u": 83,
      "##s": 84,
      "##l": 85,
      "##y": 86,
      "##n": 87,
      "##p": 88,
      "##e": 89,
      "##t": 90,
      "##m": 91,
      "##k": 92,
      "##2": 93,
      "##9": 94,
      "##3": 95,
      "##7": 96,
      "##1": 97,
      "##5": 98,
      "##0": 99,
      "##8": 100,
      "##4": 101,
      "##6": 102,
      "##b": 103,
      "##f": 104,
      "##h": 105,
      "##z": 106,
      "##v": 107,
      "##j": 108,
      "##x": 109,
      "##er": 110,
      "th": 111,
      "##in": 112,
      "the": 113,
      "##on": 114,
      "##es": 115,
      "##or": 116,
      "##en": 117,
      "##an": 118,
      "##ar": 119,
      "##ed": 120,
      "in": 121,
      "##at": 122,
      "##ing": 123,
      "##al": 124,
      "to": 125,
      "##it": 126,
      "an": 127,
      "##om": 128,
      "of": 129,
      "##st": 130,
      "##ou": 131,
      "##ent": 132,
      "##ic": 133,
      "##ion": 134,
      "##il": 135,
      "re": 136,
      "and": 137,
      "##re": 138,
      "##id": 139,
      "##as": 140,
      "##is": 141,
      "##ut": 142,
      "##ro": 143,
      "##et": 144,
      "##ec": 145,
      "##el": 146,
      "##ers": 147,
      "st": 148,
      "it": 149,
      "sa": 150,
      "on": 151,
      "for": 152,
      "##ill": 153,
      "##ur": 154,
      "##le": 155,
      "##ve": 156,
      "com": 157,
      "##ad": 158,
      "##ay": 159,
      "said": 160,
      "##ld": 161,
      "##ow": 162,
      "##th": 163,
      "##ig": 164,
      "##ac": 165,
      "##est": 166,
      "that": 167,
      "by": 168,
      "wh": 169,
      "##ly": 170,
      "##ment": 171,
      "be": 172,
      "##ir": 173,
      "as": 174,
      "20": 175,
      "is": 176,
      "##ver": 177,
      "##ter": 178,
      "per": 179,
      "sh": 180,
      "##os": 181,
      "fr": 182,
      "ex": 183,
      "##ot": 184,
      "##ch": 185,
      "de": 186,
      "##us": 187,
      "con": 188,
      "##ol": 189,
      "ch": 190,
      "ne": 191,
      "##cent": 192,
      "##ce": 193,
      "##ation": 194,
      "##ort": 195,
      "pro": 196,
      "at": 197,
      "##ith": 198,
      "percent": 199,
      "##nd": 200,
      "##im": 201,
      "##ess": 202,
      "##ear": 203,
      "##ul": 204,
      "##ak": 205,
      "##illion": 206,
      "##ank": 207,
      "##ge": 208,
      "with": 209,
      "##ate": 210,
      "##ect": 211,
      "its": 212,
      "al": 213,
      "mar": 214,
      "##am": 215,
      "pr": 216,
      "##ould": 217,
      "we": 218,
      "comp": 219,
      "bank": 220,
      "##ies": 221,
      "su": 222,
      "##ain": 223,
      "##port": 224,
      "was": 225,
      "##ial": 226,
      "##uters": 227,
      "tr": 228,
      "reuters": 229,
      "from": 230,
      "##ust": 231,
      "year": 232,
      "##ore": 233,
      "##ap": 234,
      "##ct": 235,
      "##iv": 236,
      "##ast": 237,
      "go": 238,
      "##igh": 239,
      "he": 240,
      "##ere": 241,
      "ha": 242,
      "mark": 243,
      "has": 244,
      "un": 245,
      "##oc": 246,
      "new": 247,
      "mon": 248,
      "are": 249,
      "##and": 250,
      "not": 251,
      "##um": 252,
      "will": 253,
      "##ich": 254,
      "200": 255,
      "market": 256,
      "have": 257,
      "##ive": 258,
      "exp": 259,
      "inc": 260,
      "se": 261,
      "201": 262,
      "##ist": 263,
      "##all": 264,
      "billion": 265,
      "ec": 266,
      "eu": 267,
      "sp": 268,
      "##ity": 269,
      "inv": 270,
      "shar": 271,
      "##ell": 272,
      "##pp": 273,
      "##em": 274,
      "##00": 275,
      "ar": 276,
      "##ost": 277,
      "ad": 278,
      "us": 279,
      "##art": 280,
      "##ob": 281,
      "le": 282,
      "##ie": 283,
      "##ding": 284,
      "ab": 285,
      "##any": 286,
      "but": 287,
      "fin": 288,
      "##onom": 289,
      "##out": 290,
      "report": 291,
      "##ab": 292,
      "econom": 293,
      "ed": 294,
      "euro": 295,
      "cr": 296,
      "##ue": 297,
      "or": 298,
      "would": 299,
      "invest": 300,
      "##anc": 301,
      "##un": 302,
      "pl": 303,
      "##day": 304,
      "##ors": 305,
      "##ome": 306,
      "res": 307,
      "qu": 308,
      "##oun": 309,
      "##ant": 310,
      "##our": 311,
      "##age": 312,
      "which": 313,
      "##ork": 314,
      "off": 315,
      "more": 316,
      "this": 317,
      "up": 318,
      "##od": 319,
      "##ff": 320,
      "##ard": 321,
      "ac": 322,
      "ag": 323,
      "ind": 324,
      "##ag": 325,
      "##ong": 326,
      "cl": 327,
      "##ack": 328,
      "##ok": 329,
      "##op": 330,
      "##gh": 331,
      "##act": 332,
      "##ond": 333,
      "str": 334,
      "##ber": 335,
      "##qu": 336,
      "##pt": 337,
      "##ther": 338,
      "##ose": 339,
      "##man": 340,
      "##so": 341,
      "out": 342,
      "##rou": 343,
      "##mer": 344,
      "##ail": 345,
      "dec": 346,
      "bu": 347,
      "bo": 348,
      "##row": 349,
      "##ia": 350,
      "##ek": 351,
      "##ans": 352,
      "expect": 353,
      "company": 354,
      "##ock": 355,
      "af": 356,
      "##own": 357,
      "im": 358,
      "than": 359,
      "##ions": 360,
      "##se": 361,
      "id": 362,
      "fir": 363,
      "##ight": 364,
      "##end": 365,
      "about": 366,
      "##ry": 367,
      "##yst": 368,
      "they": 369,
      "en": 370,
      "over": 371,
      "##tic": 372,
      "financ": 373,
      "after": 374,
      "li": 375,
      "##tt": 376,
      "##ary": 377,
      "##ure": 378,
      "had": 379,
      "cont": 380,
      "##ates": 381,
      "##uct": 382,
      "##ine": 383,
      "##ake": 384,
      "million": 385,
      "ear": 386,
      "inter": 387,
      "sec": 388,
      "also": 389,
      "sal": 390,
      "##ely": 391,
      "pric": 392,
      "##ount": 393,
      "were": 394,
      "##iting": 395,
      "so": 396,
      "fu": 397,
      "##oll": 398,
      "artic": 399,
      "article": 400,
      "##ww": 401,
      "www": 402,
      "##ance": 403,
      "##ttp": 404,
      "http": 405,
      "br": 406,
      "cons": 407,
      "me": 408,
      "##ud": 409,
      "trad": 410,
      "##20": 411,
      "rec": 412,
      "acc": 413,
      "financial": 414,
      "##arter": 415,
      "month": 416,
      "##one": 417,
      "high": 418,
      "##ip": 419,
      "their": 420,
      "##vern": 421,
      "govern": 422,
      "man": 423,
      "##arg": 424,
      "last": 425,
      "no": 426,
      "##ations": 427,
      "quarter": 428,
      "wor": 429,
      "could": 430,
      "app": 431,
      "co": 432,
      "anal": 433,
      "##ign": 434,
      "##lo": 435,
      "##ile": 436,
      "##ings": 437,
      "##pe": 438,
      "##ven": 439,
      "grow": 440,
      "##if": 441,
      "ris": 442,
      "##ated": 443,
      "op": 444,
      "been": 445,
      "##iz": 446,
      "##pr": 447,
      "##ey": 448,
      "some": 449,
      "int": 450,
      "##ous": 451,
      "stock": 452,
      "##ition": 453,
      "fed": 454,
      "part": 455,
      "tim": 456,
      "##ult": 457,
      "fund": 458,
      "government": 459,
      "down": 460,
      "##ire": 461,
      "share": 462,
      "dis": 463,
      "analyst": 464,
      "lo": 465,
      "sales": 466,
      "week": 467,
      "##ase": 468,
      "shares": 469,
      "bus": 470,
      "##ib": 471,
      "##aw": 472,
      "reporting": 473,
      "##int": 474,
      "##old": 475,
      "##ep": 476,
      "europe": 477,
      "york": 478,
      "##bl": 479,
      "may": 480,
      "cent": 481,
      "cor": 482,
      "deal": 483,
      "all": 484,
      "ass": 485,
      "10": 486,
      "chin": 487,
      "editing": 488,
      "##pm": 489,
      "##iness": 490,
      "est": 491,
      "add": 492,
      "##ound": 493,
      "comm": 494,
      "##bt": 495,
      "##ally": 496,
      "business": 497,
      "##oss": 498,
      "##gr": 499,
      "sl": 500,
      "##roup": 501,
      "who": 502,
      "economy": 503,
      "one": 504,
      "cap": 505,
      "##ree": 506,
      "pre": 507,
      "banks": 508,
      "reg": 509,
      "##erm": 510,
      "##for": 511,
      "##esday": 512,
      "##eral": 513,
      "##ities": 514,
      "##ft": 515,
      "there": 516,
      "##fit": 517,
      "##ens": 518,
      "do": 519,
      "other": 520,
      "if": 521,
      "gl": 522,
      "low": 523,
      "##ief": 524,
      "gre": 525,
      "##ence": 526,
      "##li": 527,
      "edt": 528,
      "tw": 529,
      "##ide": 530,
      "growth": 531,
      "##enc": 532,
      "##ough": 533,
      "can": 534,
      "fe": 535,
      "und": 536,
      "unit": 537,
      "am": 538,
      "##ital": 539,
      "##av": 540,
      "##erv": 541,
      "markets": 542,
      "##able": 543,
      "##ecut": 544,
      "cut": 545,
      "pol": 546,
      "##oint": 547,
      "debt": 548,
      "##ke": 549,
      "car": 550,
      "prod": 551,
      "##ish": 552,
      "##ments": 553,
      "##ru": 554,
      "ret": 555,
      "corp": 556,
      "investors": 557,
      "say": 558,
      "expected": 559,
      "offic": 560,
      "##ince": 561,
      "##ased": 562,
      "big": 563,
      "##ace": 564,
      "hel": 565,
      "##ating": 566,
      "buy": 567,
      "##ks": 568,
      "##201": 569,
      "##ach": 570,
      "##ange": 571,
      "first": 572,
      "##ern": 573,
      "his": 574,
      "##ets": 575,
      "imp": 576,
      "two": 577,
      "end": 578,
      "cred": 579,
      "##ert": 580,
      "incl": 581,
      "china": 582,
      "##ms": 583,
      "economic": 584,
      "##urr": 585,
      "2008": 586,
      "since": 587,
      "bec": 588,
      "chief": 589,
      "group": 590,
      "##lin": 591,
      "glob": 592,
      "##vel": 593,
      "while": 594,
      "##ex": 595,
      "into": 596,
      "##uc": 597,
      "##ang": 598,
      "cost": 599,
      "under": 600,
      "##her": 601,
      "credit": 602,
      "min": 603,
      "execut": 604,
      "##ian": 605,
      "count": 606,
      "capital": 607,
      "aut": 608,
      "work": 609,
      "mo": 610,
      "world": 611,
      "##hn": 612,
      "##ax": 613,
      "time": 614,
      "wed": 615,
      "prices": 616,
      "pay": 617,
      "##itt": 618,
      "years": 619,
      "when": 620,
      "##aus": 621,
      "global": 622,
      "idus": 623,
      "11": 624,
      "##fl": 625,
      "indust": 626,
      "profit": 627,
      "##ember": 628,
      "state": 629,
      "##ite": 630,
      "act": 631,
      "back": 632,
      "plan": 633,
      "##ick": 634,
      "##iss": 635,
      "12": 636,
      "##ett": 637,
      "incre": 638,
      "em": 639,
      "dem": 640,
      "##ident": 641,
      "2012": 642,
      "ann": 643,
      "pres": 644,
      "curr": 645,
      "##ending": 646,
      "2009": 647,
      "##urn": 648,
      "compan": 649,
      "companies": 650,
      "##gan": 651,
      "##ubl": 652,
      "analysts": 653,
      "oil": 654,
      "##ug": 655,
      "##uring": 656,
      "dr": 657,
      "air": 658,
      "##ational": 659,
      "job": 660,
      "bet": 661,
      "how": 662,
      "product": 663,
      "pe": 664,
      "##gy": 665,
      "amer": 666,
      "def": 667,
      "##ility": 668,
      "##ures": 669,
      "law": 670,
      "now": 671,
      "##ink": 672,
      "americ": 673,
      "any": 674,
      "cris": 675,
      "2011": 676,
      "investment": 677,
      "idust": 678,
      "consum": 679,
      "bar": 680,
      "##iday": 681,
      "##air": 682,
      "##ade": 683,
      "000": 684,
      "##ice": 685,
      "##ash": 686,
      "need": 687,
      "idustre": 688,
      "larg": 689,
      "mak": 690,
      "crisis": 691,
      "rose": 692,
      "forec": 693,
      "conf": 694,
      "el": 695,
      "accor": 696,
      "european": 697,
      "##loy": 698,
      "oper": 699,
      "dep": 700,
      "19": 701,
      "regul": 702,
      "##wn": 703,
      "ra": 704,
      "still": 705,
      "loss": 706,
      "help": 707,
      "##xt": 708,
      "sign": 709,
      "long": 710,
      "told": 711,
      "fell": 712,
      "day": 713,
      "##ral": 714,
      "bl": 715,
      "##ory": 716,
      "ma": 717,
      "rem": 718,
      "2010": 719,
      "according": 720,
      "##ata": 721,
      "##over": 722,
      "show": 723,
      "again": 724,
      "##gest": 725,
      "##urs": 726,
      "term": 727,
      "##ious": 728,
      "tax": 729,
      "gen": 730,
      "##200": 731,
      "bond": 732,
      "##iew": 733,
      "##bs": 734,
      "##ency": 735,
      "rate": 736,
      "earn": 737,
      "##uding": 738,
      "2007": 739,
      "next": 740,
      "bro": 741,
      "sc": 742,
      "take": 743,
      "##ause": 744,
      "##uch": 745,
      "point": 746,
      "##ploy": 747,
      "sur": 748,
      "such": 749,
      "##ord": 750,
      "polic": 751,
      "own": 752,
      "bel": 753,
      "equ": 754,
      "mer": 755,
      "sell": 756,
      "##ublic": 757,
      "##ass": 758,
      "what": 759,
      "intern": 760,
      "sup": 761,
      "##hing": 762,
      "price": 763,
      "well": 764,
      "##cl": 765,
      "serv": 766,
      "trading": 767,
      "call": 768,
      "forecast": 769,
      "executive": 770,
      "most": 771,
      "##lier": 772,
      "prob": 773,
      "interest": 774,
      "contin": 775,
      "##ton": 776,
      "##io": 777,
      "ins": 778,
      "15": 779,
      "data": 780,
      "second": 781,
      "##rough": 782,
      "##ric": 783,
      "##ual": 784,
      "##line": 785,
      "val": 786,
      "friday": 787,
      "secur": 788,
      "states": 789,
      "lead": 790,
      "offer": 791,
      "##fore": 792,
      "##ra": 793,
      "sour": 794,
      "sw": 795,
      "fl": 796,
      "united": 797,
      "news": 798,
      "index": 799,
      "sm": 800,
      "just": 801,
      "addition": 802,
      "##ise": 803,
      "##ollar": 804,
      "##ives": 805,
      "##ical": 806,
      "##hold": 807,
      "president": 808,
      "federal": 809,
      "jan": 810,
      "hold": 811,
      "result": 812,
      "2013": 813,
      "meet": 814,
      "earlier": 815,
      "exch": 816,
      "##ater": 817,
      "because": 818,
      "dollar": 819,
      "prop": 820,
      "jun": 821,
      "ver": 822,
      "##su": 823,
      "industry": 824,
      "thurs": 825,
      "before": 826,
      "thursday": 827,
      "ben": 828,
      "tu": 829,
      "##son": 830,
      "##ied": 831,
      "months": 832,
      "three": 833,
      "del": 834,
      "##ession": 835,
      "ke": 836,
      "four": 837,
      "##form": 838,
      "tre": 839,
      "sen": 840,
      "infl": 841,
      "gm": 842,
      "much": 843,
      "demand": 844,
      "##vis": 845,
      "reven": 846,
      "earnings": 847,
      "##apan": 848,
      "tuesday": 849,
      "japan": 850,
      "policy": 851,
      "rel": 852,
      "largest": 853,
      "##nesday": 854,
      "wednesday": 855,
      "jo": 856,
      "ste": 857,
      "rep": 858,
      "monday": 859,
      "eff": 860,
      "gain": 861,
      "based": 862,
      "net": 863,
      "look": 864,
      "##uss": 865,
      "##ury": 866,
      "fall": 867,
      "strong": 868,
      "including": 869,
      "##ries": 870,
      "##ull": 871,
      "##verage": 872,
      "##kely": 873,
      "conc": 874,
      "##ee": 875,
      "##ople": 876,
      "##ative": 877,
      "you": 878,
      "should": 879,
      "##isc": 880,
      "people": 881,
      "against": 882,
      "##ior": 883,
      "##ady": 884,
      "manage": 885,
      "see": 886,
      "contr": 887,
      "stre": 888,
      "##ix": 889,
      "central": 890,
      "mort": 891,
      "exchange": 892,
      "weak": 893,
      "rates": 894,
      "remain": 895,
      "our": 896,
      "##osed": 897,
      "top": 898,
      "money": 899,
      "ph": 900,
      "through": 901,
      "par": 902,
      "##irect": 903,
      "cour": 904,
      "##ject": 905,
      "near": 906,
      "mortg": 907,
      "##og": 908,
      "many": 909,
      "firm": 910,
      "##we": 911,
      "even": 912,
      "additional": 913,
      "inst": 914,
      "recent": 915,
      "##ward": 916,
      "official": 917,
      "25": 918,
      "30": 919,
      "head": 920,
      "rest": 921,
      "progr": 922,
      "risk": 923,
      "sect": 924,
      "##are": 925,
      "only": 926,
      "direct": 927,
      "##10": 928,
      "sch": 929,
      "att": 930,
      "##ced": 931,
      "##ird": 932,
      "higher": 933,
      "maj": 934,
      "like": 935,
      "make": 936,
      "13": 937,
      "##iff": 938,
      "disc": 939,
      "des": 940,
      "think": 941,
      "##ved": 942,
      "##me": 943,
      "cents": 944,
      "##organ": 945,
      "going": 946,
      "level": 947,
      "##ger": 948,
      "third": 949,
      "zone": 950,
      "start": 951,
      "priv": 952,
      "regulat": 953,
      "major": 954,
      "##ner": 955,
      "##gin": 956,
      "did": 957,
      "det": 958,
      "oct": 959,
      "gr": 960,
      "##als": 961,
      "##bre": 962,
      "red": 963,
      "##ged": 964,
      "##ind": 965,
      "##ices": 966,
      "##ame": 967,
      "gold": 968,
      "ro": 969,
      "funds": 970,
      "management": 971,
      "revenue": 972,
      "##ude": 973,
      "##ider": 974,
      "home": 975,
      "##ler": 976,
      "wall": 977,
      "assets": 978,
      "mat": 979,
      "##ific": 980,
      "##ents": 981,
      "##ese": 982,
      "##vers": 983,
      "stocks": 984,
      "##cess": 985,
      "average": 986,
      "estim": 987,
      "tal": 988,
      "costs": 989,
      "war": 990,
      "##orn": 991,
      "14": 992,
      "manag": 993,
      "appro": 994,
      "concern": 995,
      "sub": 996,
      "very": 997,
      "public": 998,
      "retail": 999,
      "made": 1000,
      "##ether": 1001,
      "cit": 1002,
      "minist": 1003,
      "securities": 1004,
      "declin": 1005,
      "##lear": 1006,
      "ob": 1007,
      "nor": 1008,
      "kn": 1009,
      "idusbre": 1010,
      "good": 1011,
      "tak": 1012,
      "pa": 1013,
      "them": 1014,
      "slow": 1015,
      "biggest": 1016,
      "##iel": 1017,
      "apr": 1018,
      "likely": 1019,
      "recover": 1020,
      "ve": 1021,
      "reported": 1022,
      "##ystem": 1023,
      "current": 1024,
      "##ays": 1025,
      "prev": 1026,
      "inflation": 1027,
      "dro": 1028,
      "press": 1029,
      "##rol": 1030,
      "employ": 1031,
      "street": 1032,
      "##he": 1033,
      "##ving": 1034,
      "gu": 1035,
      "pos": 1036,
      "lower": 1037,
      "trade": 1038,
      "far": 1039,
      "system": 1040,
      "trans": 1041,
      "consumer": 1042,
      "court": 1043,
      "##ential": 1044,
      "sector": 1045,
      "treas": 1046,
      "international": 1047,
      "##rupt": 1048,
      "##ah": 1049,
      "washing": 1050,
      "those": 1051,
      "support": 1052,
      "prov": 1053,
      "num": 1054,
      "ev": 1055,
      "plans": 1056,
      "around": 1057,
      "washington": 1058,
      "##app": 1059,
      "ord": 1060,
      "17": 1061,
      "spending": 1062,
      "elect": 1063,
      "16": 1064,
      "hal": 1065,
      "##ision": 1066,
      "vol": 1067,
      "##ces": 1068,
      "##ible": 1069,
      "announ": 1070,
      "##ph": 1071,
      "private": 1072,
      "fact": 1073,
      "##les": 1074,
      "country": 1075,
      "board": 1076,
      "economist": 1077,
      "18": 1078,
      "march": 1079,
      "get": 1080,
      "wr": 1081,
      "rat": 1082,
      "euros": 1083,
      "##30": 1084,
      "fut": 1085,
      "##aint": 1086,
      "where": 1087,
      "##alth": 1088,
      "##ouse": 1089,
      "##ween": 1090,
      "between": 1091,
      "##ump": 1092,
      "fur": 1093,
      "##earch": 1094,
      "ext": 1095,
      "jobs": 1096,
      "stand": 1097,
      "want": 1098,
      "med": 1099,
      "##ark": 1100,
      "##ss": 1101,
      "bid": 1102,
      "results": 1103,
      "program": 1104,
      "tec": 1105,
      "requ": 1106,
      "cash": 1107,
      "chair": 1108,
      "short": 1109,
      "##ece": 1110,
      "she": 1111,
      "strate": 1112,
      "##ict": 1113,
      "##eign": 1114,
      "av": 1115,
      "##ruct": 1116,
      "both": 1117,
      "losses": 1118,
      "further": 1119,
      "pot": 1120,
      "sharehold": 1121,
      "mortgage": 1122,
      "##pped": 1123,
      "##led": 1124,
      "##land": 1125,
      "opt": 1126,
      "ce": 1127,
      "##ama": 1128,
      "put": 1129,
      "record": 1130,
      "due": 1131,
      "post": 1132,
      "feb": 1133,
      "spok": 1134,
      "comment": 1135,
      "rise": 1136,
      "spec": 1137,
      "aug": 1138,
      "ge": 1139,
      "resp": 1140,
      "##erve": 1141,
      "targ": 1142,
      "equity": 1143,
      "set": 1144,
      "##ason": 1145,
      "banking": 1146,
      "##arge": 1147,
      "50": 1148,
      "##ging": 1149,
      "impro": 1150,
      "added": 1151,
      "##med": 1152,
      "##view": 1153,
      "compet": 1154,
      "##velop": 1155,
      "bail": 1156,
      "ever": 1157,
      "ju": 1158,
      "account": 1159,
      "##ared": 1160,
      "supp": 1161,
      "mod": 1162,
      "hit": 1163,
      "la": 1164,
      "##ollow": 1165,
      "countries": 1166,
      "##ik": 1167,
      "##ood": 1168,
      "follow": 1169,
      "develop": 1170,
      "greece": 1171,
      "cust": 1172,
      "##itions": 1173,
      "##other": 1174,
      "hous": 1175,
      "statement": 1176,
      "these": 1177,
      "treasury": 1178,
      "meeting": 1179,
      "sept": 1180,
      "june": 1181,
      "less": 1182,
      "##ready": 1183,
      "already": 1184,
      "during": 1185,
      "##ley": 1186,
      "##ized": 1187,
      "another": 1188,
      "finance": 1189,
      "move": 1190,
      "run": 1191,
      "fil": 1192,
      "##80": 1193,
      "##ases": 1194,
      "500": 1195,
      "america": 1196,
      "agree": 1197,
      "house": 1198,
      "##da": 1199,
      "sett": 1200,
      "mot": 1201,
      "chairman": 1202,
      "##ning": 1203,
      "##ron": 1204,
      "clear": 1205,
      "custom": 1206,
      "increase": 1207,
      "div": 1208,
      "case": 1209,
      "former": 1210,
      "##mak": 1211,
      "##asing": 1212,
      "close": 1213,
      "small": 1214,
      "diff": 1215,
      "september": 1216,
      "##11": 1217,
      "rais": 1218,
      "proble": 1219,
      "cond": 1220,
      "##ission": 1221,
      "poss": 1222,
      "general": 1223,
      "##amp": 1224,
      "ref": 1225,
      "##ier": 1226,
      "spokes": 1227,
      "fac": 1228,
      "brit": 1229,
      "contract": 1230,
      "port": 1231,
      "##ime": 1232,
      "being": 1233,
      "##ily": 1234,
      "whether": 1235,
      "mid": 1236,
      "loans": 1237,
      "don": 1238,
      "meas": 1239,
      "housing": 1240,
      "early": 1241,
      "##iven": 1242,
      "##aim": 1243,
      "##ondon": 1244,
      "fisc": 1245,
      "london": 1246,
      "value": 1247,
      "##ages": 1248,
      "keep": 1249,
      "fiscal": 1250,
      "points": 1251,
      "buil": 1252,
      "##ield": 1253,
      "rul": 1254,
      "##ones": 1255,
      "emer": 1256,
      "##90": 1257,
      "recovery": 1258,
      "##ize": 1259,
      "##its": 1260,
      "janu": 1261,
      "july": 1262,
      "##istr": 1263,
      "fail": 1264,
      "same": 1265,
      "january": 1266,
      "##ately": 1267,
      "insur": 1268,
      "ener": 1269,
      "techn": 1270,
      "##ath": 1271,
      "depart": 1272,
      "##ross": 1273,
      "pur": 1274,
      "john": 1275,
      "neg": 1276,
      "december": 1277,
      "bas": 1278,
      "fam": 1279,
      "##ned": 1280,
      "##aper": 1281,
      "fri": 1282,
      "##erence": 1283,
      "potential": 1284,
      "##ai": 1285,
      "riv": 1286,
      "half": 1287,
      "##ution": 1288,
      "energy": 1289,
      "##cy": 1290,
      "way": 1291,
      "chang": 1292,
      "reserve": 1293,
      "autom": 1294,
      "24": 1295,
      "sever": 1296,
      "firms": 1297,
      "april": 1298,
      "issu": 1299,
      "boost": 1300,
      "##ober": 1301,
      "##ush": 1302,
      "##bers": 1303,
      "step": 1304,
      "##ling": 1305,
      "seen": 1306,
      "mc": 1307,
      "open": 1308,
      "##az": 1309,
      "bankrupt": 1310,
      "services": 1311,
      "recession": 1312,
      "##uf": 1313,
      "october": 1314,
      "##ker": 1315,
      "cre": 1316,
      "##ever": 1317,
      "pow": 1318,
      "import": 1319,
      "##sp": 1320,
      "real": 1321,
      "apple": 1322,
      "##idence": 1323,
      "cuts": 1324,
      "previous": 1325,
      "bonds": 1326,
      "##ful": 1327,
      "obama": 1328,
      "stor": 1329,
      "declined": 1330,
      "po": 1331,
      "thu": 1332,
      "tot": 1333,
      "dom": 1334,
      "ceo": 1335,
      "does": 1336,
      "dav": 1337,
      "##mber": 1338,
      "##erson": 1339,
      "showed": 1340,
      "better": 1341,
      "bud": 1342,
      "nove": 1343,
      "november": 1344,
      "##eng": 1345,
      "22": 1346,
      "##ting": 1347,
      "##hip": 1348,
      "compl": 1349,
      "21": 1350,
      "##ub": 1351,
      "consider": 1352,
      "##els": 1353,
      "##look": 1354,
      "##ave": 1355,
      "expectations": 1356,
      "union": 1357,
      "23": 1358,
      "return": 1359,
      "talks": 1360,
      "bill": 1361,
      "27": 1362,
      "bre": 1363,
      "lab": 1364,
      "##ought": 1365,
      "##ics": 1366,
      "bailout": 1367,
      "##ability": 1368,
      "acqu": 1369,
      "american": 1370,
      "research": 1371,
      "key": 1372,
      "##ocus": 1373,
      "come": 1374,
      "says": 1375,
      "past": 1376,
      "outlook": 1377,
      "number": 1378,
      "commission": 1379,
      "goldman": 1380,
      "right": 1381,
      "##unch": 1382,
      "clos": 1383,
      "reach": 1384,
      "target": 1385,
      "leg": 1386,
      "##ons": 1387,
      "production": 1388,
      "##bo": 1389,
      "continu": 1390,
      "focus": 1391,
      "hop": 1392,
      "among": 1393,
      "stake": 1394,
      "boe": 1395,
      "##til": 1396,
      "dou": 1397,
      "sep": 1398,
      "turn": 1399,
      "26": 1400,
      "##etary": 1401,
      "##ants": 1402,
      "tue": 1403,
      "gas": 1404,
      "sources": 1405,
      "fourth": 1406,
      "nas": 1407,
      "total": 1408,
      "officials": 1409,
      "##ands": 1410,
      "too": 1411,
      "budg": 1412,
      "ago": 1413,
      "##reed": 1414,
      "purch": 1415,
      "prot": 1416,
      "prom": 1417,
      "committ": 1418,
      "sim": 1419,
      "##ott": 1420,
      "source": 1421,
      "however": 1422,
      "continue": 1423,
      "nearly": 1424,
      "annual": 1425,
      "minister": 1426,
      "face": 1427,
      "##yn": 1428,
      "##enn": 1429,
      "yen": 1430,
      "view": 1431,
      "##ky": 1432,
      "28": 1433,
      "##daq": 1434,
      "09": 1435,
      "control": 1436,
      "claim": 1437,
      "found": 1438,
      "sou": 1439,
      "wal": 1440,
      "vot": 1441,
      "coll": 1442,
      "allow": 1443,
      "##erman": 1444,
      "bankruptcy": 1445,
      "department": 1446,
      "##itive": 1447,
      "ital": 1448,
      "##gress": 1449,
      "national": 1450,
      "nasdaq": 1451,
      "bern": 1452,
      "lend": 1453,
      "activ": 1454,
      "##ili": 1455,
      "belie": 1456,
      "aff": 1457,
      "##co": 1458,
      "##less": 1459,
      "five": 1460,
      "##ufact": 1461,
      "manufact": 1462,
      "##hic": 1463,
      "##head": 1464,
      "##ular": 1465,
      "polit": 1466,
      "##pres": 1467,
      "currency": 1468,
      "ask": 1469,
      "below": 1470,
      "adv": 1471,
      "products": 1472,
      "late": 1473,
      "##ves": 1474,
      "##min": 1475,
      "senior": 1476,
      "standard": 1477,
      "corpor": 1478,
      "##70": 1479,
      "sol": 1480,
      "monetary": 1481,
      "foreign": 1482,
      "##ugh": 1483,
      "##ium": 1484,
      "saying": 1485,
      "power": 1486,
      "agreed": 1487,
      "bene": 1488,
      "large": 1489,
      "advis": 1490,
      "aust": 1491,
      "broad": 1492,
      "repres": 1493,
      "##ees": 1494,
      "##50": 1495,
      "every": 1496,
      "rece": 1497,
      "07": 1498,
      "quest": 1499,
      "##ew": 1500,
      "chinese": 1501,
      "##att": 1502,
      "seek": 1503,
      "shareholders": 1504,
      "##ening": 1505,
      "germ": 1506,
      "technol": 1507,
      "until": 1508,
      "germany": 1509,
      "jpm": 1510,
      "cal": 1511,
      "decision": 1512,
      "few": 1513,
      "called": 1514,
      "##ruary": 1515,
      "february": 1516,
      "full": 1517,
      "bp": 1518,
      "august": 1519,
      "##oo": 1520,
      "29": 1521,
      "pressure": 1522,
      "##lement": 1523,
      "investig": 1524,
      "conference": 1525,
      "budget": 1526,
      "40": 1527,
      "##orrow": 1528,
      "mic": 1529,
      "labor": 1530,
      "david": 1531,
      "litt": 1532,
      "##hor": 1533,
      "least": 1534,
      "lat": 1535,
      "05": 1536,
      "might": 1537,
      "times": 1538,
      "##err": 1539,
      "03": 1540,
      "german": 1541,
      "met": 1542,
      "little": 1543,
      "##ove": 1544,
      "sale": 1545,
      "north": 1546,
      "partic": 1547,
      "ecb": 1548,
      "06": 1549,
      "asset": 1550,
      "boeing": 1551,
      "31": 1552,
      "health": 1553,
      "making": 1554,
      "##ners": 1555,
      "mem": 1556,
      "##ively": 1557,
      "##put": 1558,
      "customers": 1559,
      "ahead": 1560,
      "workers": 1561,
      "sat": 1562,
      "income": 1563,
      "maker": 1564,
      "export": 1565,
      "sug": 1566,
      "line": 1567,
      "rele": 1568,
      "##rys": 1569,
      "dow": 1570,
      "future": 1571,
      "usa": 1572,
      "sum": 1573,
      "mich": 1574,
      "drop": 1575,
      "vehic": 1576,
      "##iver": 1577,
      "commer": 1578,
      "micro": 1579,
      "discuss": 1580,
      "impact": 1581,
      "cli": 1582,
      "04": 1583,
      "lim": 1584,
      "##rysler": 1585,
      "tel": 1586,
      "gener": 1587,
      "effect": 1588,
      "announced": 1589,
      "08": 1590,
      "goog": 1591,
      "##ogy": 1592,
      "instit": 1593,
      "spe": 1594,
      "hard": 1595,
      "hed": 1596,
      "morgan": 1597,
      "then": 1598,
      "01": 1599,
      "##ys": 1600,
      "author": 1601,
      "strateg": 1602,
      "##work": 1603,
      "bal": 1604,
      "ber": 1605,
      "unc": 1606,
      "several": 1607,
      "expects": 1608,
      "regulators": 1609,
      "stan": 1610,
      "concerns": 1611,
      "consumers": 1612,
      "##ress": 1613,
      "sing": 1614,
      "overs": 1615,
      "##ined": 1616,
      "##ying": 1617,
      "02": 1618,
      "ford": 1619,
      "idusbre8": 1620,
      "##ann": 1621,
      "project": 1622,
      "hu": 1623,
      "borrow": 1624,
      "rich": 1625,
      "compared": 1626,
      "decline": 1627,
      "##rel": 1628,
      "sent": 1629,
      "##ually": 1630,
      "##ault": 1631,
      "##iod": 1632,
      "mac": 1633,
      "suggest": 1634,
      "##ited": 1635,
      "buying": 1636,
      "test": 1637,
      "##makers": 1638,
      "##aff": 1639,
      "##ble": 1640,
      "chrysler": 1641,
      "use": 1642,
      "pack": 1643,
      "iss": 1644,
      "period": 1645,
      "##igroup": 1646,
      "##ugg": 1647,
      "benefit": 1648,
      "mart": 1649,
      "##ames": 1650,
      "effort": 1651,
      "citigroup": 1652,
      "thom": 1653,
      "##fe": 1654,
      "leaders": 1655,
      "operating": 1656,
      "spokesman": 1657,
      "operations": 1658,
      "google": 1659,
      "##atch": 1660,
      "##ened": 1661,
      "##uce": 1662,
      "play": 1663,
      "##ended": 1664,
      "init": 1665,
      "100": 1666,
      "looking": 1667,
      "##iving": 1668,
      "above": 1669,
      "rob": 1670,
      "automak": 1671,
      "inform": 1672,
      "desp": 1673,
      "selling": 1674,
      "##ected": 1675,
      "##12": 1676,
      "quarterly": 1677,
      "weeks": 1678,
      "##ike": 1679,
      "possible": 1680,
      "rising": 1681,
      "process": 1682,
      "imf": 1683,
      "measures": 1684,
      "ubs": 1685,
      "auto": 1686,
      "order": 1687,
      "raise": 1688,
      "##urt": 1689,
      "officer": 1690,
      "partners": 1691,
      "stores": 1692,
      "given": 1693,
      "agreement": 1694,
      "sharp": 1695,
      "issue": 1696,
      "##ization": 1697,
      "days": 1698,
      "2006": 1699,
      "pet": 1700,
      "##ially": 1701,
      "six": 1702,
      "##ably": 1703,
      "main": 1704,
      "aw": 1705,
      "signific": 1706,
      "##off": 1707,
      "eng": 1708,
      "##te": 1709,
      "##atives": 1710,
      "committee": 1711,
      "##thing": 1712,
      "##ale": 1713,
      "##thers": 1714,
      "soft": 1715,
      "corporate": 1716,
      "##ired": 1717,
      "##quid": 1718,
      "##soft": 1719,
      "margin": 1720,
      "jpmorgan": 1721,
      "microsoft": 1722,
      "san": 1723,
      "##side": 1724,
      "deep": 1725,
      "suc": 1726,
      "businesses": 1727,
      "significant": 1728,
      "pat": 1729,
      "executives": 1730,
      "director": 1731,
      "trillion": 1732,
      "estimates": 1733,
      "idusn": 1734,
      "launch": 1735,
      "##rial": 1736,
      "without": 1737,
      "charg": 1738,
      "##oci": 1739,
      "best": 1740,
      "##uation": 1741,
      "hedge": 1742,
      "led": 1743,
      "later": 1744,
      "##ically": 1745,
      "sit": 1746,
      "propos": 1747,
      "yet": 1748,
      "claims": 1749,
      "technology": 1750,
      "gains": 1751,
      "##cept": 1752,
      "industrial": 1753,
      "##ines": 1754,
      "confidence": 1755,
      "canad": 1756,
      "defic": 1757,
      "represent": 1758,
      "following": 1759,
      "despite": 1760,
      "idustre7": 1761,
      "crit": 1762,
      "used": 1763,
      "problems": 1764,
      "fear": 1765,
      "##che": 1766,
      "unem": 1767,
      "##ided": 1768,
      "unemploy": 1769,
      "improve": 1770,
      "lot": 1771,
      "push": 1772,
      "though": 1773,
      "ser": 1774,
      "non": 1775,
      "lost": 1776,
      "coun": 1777,
      "loan": 1778,
      "change": 1779,
      "liquid": 1780,
      "growing": 1781,
      "##ont": 1782,
      "commod": 1783,
      "investor": 1784,
      "sold": 1785,
      "must": 1786,
      "admin": 1787,
      "##pl": 1788,
      "service": 1789,
      "##elf": 1790,
      "crude": 1791,
      "##ri": 1792,
      "##medi": 1793,
      "taking": 1794,
      "list": 1795,
      "closed": 1796,
      "##rat": 1797,
      "spain": 1798,
      "person": 1799,
      "black": 1800,
      "##ota": 1801,
      "##ody": 1802,
      "##down": 1803,
      "poor": 1804,
      "franc": 1805,
      "raised": 1806,
      "##ret": 1807,
      "surve": 1808,
      "##ony": 1809,
      "##ived": 1810,
      "give": 1811,
      "##ertain": 1812,
      "##up": 1813,
      "helped": 1814,
      "win": 1815,
      "fuel": 1816,
      "##sh": 1817,
      "domest": 1818,
      "action": 1819,
      "toy": 1820,
      "##ov": 1821,
      "chr": 1822,
      "south": 1823,
      "administr": 1824,
      "includ": 1825,
      "barrel": 1826,
      "yield": 1827,
      "##ense": 1828,
      "mob": 1829,
      "restruct": 1830,
      "35": 1831,
      "rules": 1832,
      "paul": 1833,
      "##vert": 1834,
      "know": 1835,
      "loc": 1836,
      "excl": 1837,
      "unemployment": 1838,
      "region": 1839,
      "##ism": 1840,
      "immedi": 1841,
      "alth": 1842,
      "latest": 1843,
      "idusbre9": 1844,
      "although": 1845,
      "##bc": 1846,
      "domestic": 1847,
      "economists": 1848,
      "agency": 1849,
      "##ator": 1850,
      "jud": 1851,
      "hand": 1852,
      "##ici": 1853,
      "##ues": 1854,
      "te": 1855,
      "##pping": 1856,
      "leh": 1857,
      "ll": 1858,
      "information": 1859,
      "ip": 1860,
      "held": 1861,
      "##rict": 1862,
      "##ness": 1863,
      "invol": 1864,
      "france": 1865,
      "##oti": 1866,
      "che": 1867,
      "took": 1868,
      "motor": 1869,
      "asia": 1870,
      "##ung": 1871,
      "greek": 1872,
      "##ising": 1873,
      "##xic": 1874,
      "60": 1875,
      "poll": 1876,
      "ended": 1877,
      "hear": 1878,
      "##ength": 1879,
      "acquis": 1880,
      "##imin": 1881,
      "terms": 1882,
      "food": 1883,
      "democ": 1884,
      "protect": 1885,
      "indic": 1886,
      "review": 1887,
      "const": 1888,
      "##20120": 1889,
      "pass": 1890,
      "##encies": 1891,
      "worth": 1892,
      "aig": 1893,
      "overall": 1894,
      "supply": 1895,
      "increased": 1896,
      "office": 1897,
      "idustre6": 1898,
      "lending": 1899,
      "jump": 1900,
      "asked": 1901,
      "basis": 1902,
      "levels": 1903,
      "##rug": 1904,
      "coming": 1905,
      "conditions": 1906,
      "britain": 1907,
      "him": 1908,
      "her": 1909,
      "hol": 1910,
      "dist": 1911,
      "orders": 1912,
      "har": 1913,
      "enough": 1914,
      "nov": 1915,
      "employees": 1916,
      "network": 1917,
      "##lex": 1918,
      "##ems": 1919,
      "become": 1920,
      "ent": 1921,
      "fast": 1922,
      "strugg": 1923,
      "sun": 1924,
      "yah": 1925,
      "include": 1926,
      "yahoo": 1927,
      "detail": 1928,
      "##ends": 1929,
      "##ention": 1930,
      "came": 1931,
      "##action": 1932,
      "rival": 1933,
      "ir": 1934,
      "##20130": 1935,
      "##ered": 1936,
      "##bled": 1937,
      "members": 1938,
      "democrat": 1939,
      "##etting": 1940,
      "adding": 1941,
      "pan": 1942,
      "##wh": 1943,
      "##reat": 1944,
      "needed": 1945,
      "believe": 1946,
      "##emp": 1947,
      "appear": 1948,
      "lehman": 1949,
      "alm": 1950,
      "##ij": 1951,
      "negoti": 1952,
      "##mark": 1953,
      "comb": 1954,
      "idustre5": 1955,
      "expand": 1956,
      "##ained": 1957,
      "chall": 1958,
      "arg": 1959,
      "congress": 1960,
      "media": 1961,
      "##20080": 1962,
      "republic": 1963,
      "deliver": 1964,
      "##icult": 1965,
      "rating": 1966,
      "russ": 1967,
      "difficult": 1968,
      "insurance": 1969,
      "col": 1970,
      "aim": 1971,
      "##ins": 1972,
      "##ified": 1973,
      "let": 1974,
      "important": 1975,
      "andre": 1976,
      "italy": 1977,
      "mean": 1978,
      "posted": 1979,
      "##osure": 1980,
      "##ift": 1981,
      "stanley": 1982,
      "reb": 1983,
      "##iliar": 1984,
      "##ibility": 1985,
      "jul": 1986,
      "resc": 1987,
      "institut": 1988,
      "position": 1989,
      "clients": 1990,
      "jones": 1991,
      "##aps": 1992,
      "default": 1993,
      "familiar": 1994,
      "interview": 1995,
      "aid": 1996,
      "drug": 1997,
      "frank": 1998,
      "je": 1999,
      "bad": 2000,
      "produc": 2001,
      "##ume": 2002,
      "administration": 2003,
      "amount": 2004,
      "almost": 2005,
      "##ech": 2006,
      "political": 2007,
      "provide": 2008,
      "place": 2009,
      "##fol": 2010,
      "pace": 2011,
      "##lines": 2012,
      "options": 2013,
      "associ": 2014,
      "stim": 2015,
      "##ago": 2016,
      "beh": 2017,
      "stimul": 2018,
      "risks": 2019,
      "note": 2020,
      "related": 2021,
      "deals": 2022,
      "deficit": 2023,
      "##raft": 2024,
      "##ural": 2025,
      "lawsu": 2026,
      "ang": 2027,
      "opp": 2028,
      "form": 2029,
      "begin": 2030,
      "manager": 2031,
      "activity": 2032,
      "##itch": 2033,
      "toyota": 2034,
      "emerging": 2035,
      "strength": 2036,
      "matter": 2037,
      "##ina": 2038,
      "##ators": 2039,
      "##20110": 2040,
      "each": 2041,
      "##20090": 2042,
      "portfol": 2043,
      "##ench": 2044,
      "manufacturing": 2045,
      "india": 2046,
      "certain": 2047,
      "ca": 2048,
      "##aud": 2049,
      "##ceed": 2050,
      "45": 2051,
      "##berg": 2052,
      "futures": 2053,
      "chic": 2054,
      "##anke": 2055,
      "enter": 2056,
      "ty": 2057,
      "##ows": 2058,
      "bernanke": 2059,
      "threat": 2060,
      "##uction": 2061,
      "break": 2062,
      "store": 2063,
      "broker": 2064,
      "question": 2065,
      "survey": 2066,
      "increasing": 2067,
      "dan": 2068,
      "##ware": 2069,
      "profits": 2070,
      "needs": 2071,
      "##ering": 2072,
      "som": 2073,
      "fig": 2074,
      "chicago": 2075,
      "mad": 2076,
      "merr": 2077,
      "known": 2078,
      "quick": 2079,
      "##nal": 2080,
      "##ael": 2081,
      "situation": 2082,
      "final": 2083,
      "##ued": 2084,
      "sund": 2085,
      "##vir": 2086,
      "32": 2087,
      "##ne": 2088,
      "##ivers": 2089,
      "whose": 2090,
      "mass": 2091,
      "my": 2092,
      "range": 2093,
      "##itz": 2094,
      "happ": 2095,
      "##uan": 2096,
      "highest": 2097,
      "commun": 2098,
      "holdings": 2099,
      "vehicles": 2100,
      "won": 2101,
      "hour": 2102,
      "##omes": 2103,
      "##ished": 2104,
      "##ds": 2105,
      "soc": 2106,
      "investments": 2107,
      "##ides": 2108,
      "surpr": 2109,
      "regulatory": 2110,
      "longer": 2111,
      "complet": 2112,
      "strategy": 2113,
      "output": 2114,
      "##omm": 2115,
      "sunday": 2116,
      "once": 2117,
      "##amed": 2118,
      "subs": 2119,
      "mobile": 2120,
      "japanese": 2121,
      "issues": 2122,
      "success": 2123,
      "##isco": 2124,
      "particular": 2125,
      "avail": 2126,
      "##ured": 2127,
      "forecasts": 2128,
      "taken": 2129,
      "sho": 2130,
      "##ty": 2131,
      "tough": 2132,
      "working": 2133,
      "soon": 2134,
      "positive": 2135,
      "left": 2136,
      "dev": 2137,
      "##urd": 2138,
      "##mit": 2139,
      "restructuring": 2140,
      "british": 2141,
      "city": 2142,
      "newsp": 2143,
      "cy": 2144,
      "mil": 2145,
      "trou": 2146,
      "paid": 2147,
      "across": 2148,
      "##wide": 2149,
      "funding": 2150,
      "balance": 2151,
      "season": 2152,
      "really": 2153,
      "michael": 2154,
      "able": 2155,
      "alle": 2156,
      "##21": 2157,
      "##ading": 2158,
      "propert": 2159,
      "remains": 2160,
      "package": 2161,
      "los": 2162,
      "bring": 2163,
      "within": 2164,
      "swiss": 2165,
      "##ibut": 2166,
      "avo": 2167,
      "##cial": 2168,
      "heav": 2169,
      "ul": 2170,
      "fix": 2171,
      "##just": 2172,
      "##ety": 2173,
      "ur": 2174,
      "book": 2175,
      "reason": 2176,
      "french": 2177,
      "depos": 2178,
      "watch": 2179,
      "##ications": 2180,
      "##chs": 2181,
      "here": 2182,
      "lt": 2183,
      "##au": 2184,
      "slight": 2185,
      "dropped": 2186,
      "separ": 2187,
      "pound": 2188,
      "##ories": 2189,
      "liquidity": 2190,
      "suff": 2191,
      "old": 2192,
      "writing": 2193,
      "member": 2194,
      "expl": 2195,
      "lawy": 2196,
      "##ulation": 2197,
      "jon": 2198,
      "changes": 2199,
      "fraud": 2200,
      "efforts": 2201,
      "free": 2202,
      "reached": 2203,
      "reports": 2204,
      "trust": 2205,
      "beij": 2206,
      "commercial": 2207,
      "beijing": 2208,
      "tight": 2209,
      "##dp": 2210,
      "merrill": 2211,
      "##aged": 2212,
      "announce": 2213,
      "##ney": 2214,
      "##ension": 2215,
      "toward": 2216,
      "lenders": 2217,
      "filed": 2218,
      "paper": 2219,
      "80": 2220,
      "staff": 2221,
      "der": 2222,
      "vi": 2223,
      "sachs": 2224,
      "previously": 2225,
      "airlines": 2226,
      "economies": 2227,
      "senate": 2228,
      "local": 2229,
      "70": 2230,
      "rescue": 2231,
      "75": 2232,
      "perfor": 2233,
      "estimated": 2234,
      "reform": 2235,
      "prep": 2236,
      "require": 2237,
      "ltd": 2238,
      "build": 2239,
      "richard": 2240,
      "stimulus": 2241,
      "legal": 2242,
      "char": 2243,
      "owned": 2244,
      "##uts": 2245,
      "ru": 2246,
      "available": 2247,
      "secret": 2248,
      "reduce": 2249,
      "##mance": 2250,
      "##phone": 2251,
      "charges": 2252,
      "differ": 2253,
      "36": 2254,
      "##20100": 2255,
      "##book": 2256,
      "dam": 2257,
      "##ilar": 2258,
      "##ecess": 2259,
      "signs": 2260,
      "adjust": 2261,
      "##ather": 2262,
      "bear": 2263,
      "refl": 2264,
      "portfolio": 2265,
      "deb": 2266,
      "vote": 2267,
      "force": 2268,
      "immediately": 2269,
      "##abil": 2270,
      "wealth": 2271,
      "refin": 2272,
      "invent": 2273,
      "west": 2274,
      "199": 2275,
      "merger": 2276,
      "bench": 2277,
      "core": 2278,
      "role": 2279,
      "33": 2280,
      "barcl": 2281,
      "stud": 2282,
      "development": 2283,
      "problem": 2284,
      "austral": 2285,
      "thomson": 2286,
      "##be": 2287,
      "financing": 2288,
      "failed": 2289,
      "##ford": 2290,
      "judge": 2291,
      "automaker": 2292,
      "probably": 2293,
      "dollars": 2294,
      "ba": 2295,
      "prem": 2296,
      "prof": 2297,
      "having": 2298,
      "##cr": 2299,
      "similar": 2300,
      "##und": 2301,
      "barclays": 2302,
      "il": 2303,
      "34": 2304,
      "##ract": 2305,
      "##22": 2306,
      "##inc": 2307,
      "special": 2308,
      "away": 2309,
      "##oming": 2310,
      "event": 2311,
      "james": 2312,
      "##ways": 2313,
      "##back": 2314,
      "performance": 2315,
      "others": 2316,
      "ren": 2317,
      "pick": 2318,
      "filing": 2319,
      "##kyo": 2320,
      "white": 2321,
      "brand": 2322,
      "tokyo": 2323,
      "ny": 2324,
      "online": 2325,
      "##ances": 2326,
      "jour": 2327,
      "bought": 2328,
      "hist": 2329,
      "##onment": 2330,
      "yuan": 2331,
      "##br": 2332,
      "somet": 2333,
      "##uck": 2334,
      "rather": 2335,
      "envir": 2336,
      "percentage": 2337,
      "##ised": 2338,
      "cutting": 2339,
      "card": 2340,
      "vers": 2341,
      "electron": 2342,
      "exist": 2343,
      "strategist": 2344,
      "avoid": 2345,
      "gdp": 2346,
      "##round": 2347,
      "planned": 2348,
      "struct": 2349,
      "christ": 2350,
      "plant": 2351,
      "recently": 2352,
      "today": 2353,
      "reporters": 2354,
      "settlement": 2355,
      "request": 2356,
      "prosp": 2357,
      "##val": 2358,
      "environment": 2359,
      "##by": 2360,
      "rivals": 2361,
      "backed": 2362,
      "##20070": 2363,
      "trying": 2364,
      "sover": 2365,
      "sovereign": 2366,
      "competition": 2367,
      "details": 2368,
      "offering": 2369,
      "software": 2370,
      "prior": 2371,
      "dail": 2372,
      "proposed": 2373,
      "78": 2374,
      "received": 2375,
      "##sc": 2376,
      "prime": 2377,
      "worst": 2378,
      "##ki": 2379,
      "comments": 2380,
      "reduc": 2381,
      "##itor": 2382,
      "##ects": 2383,
      "##empt": 2384,
      "ic": 2385,
      "proposal": 2386,
      "journal": 2387,
      "##ertaint": 2388,
      "ratings": 2389,
      "investigation": 2390,
      "holiday": 2391,
      "smaller": 2392,
      "##iam": 2393,
      "inf": 2394,
      "##vision": 2395,
      "volat": 2396,
      "east": 2397,
      "saf": 2398,
      "talk": 2399,
      "daily": 2400,
      "ant": 2401,
      "joint": 2402,
      "forward": 2403,
      "district": 2404,
      "access": 2405,
      "tur": 2406,
      "phil": 2407,
      "##ads": 2408,
      "chain": 2409,
      "37": 2410,
      "traders": 2411,
      "exports": 2412,
      "citing": 2413,
      "benchmark": 2414,
      "vent": 2415,
      "bon": 2416,
      "single": 2417,
      "newspaper": 2418,
      "saw": 2419,
      "lu": 2420,
      "pop": 2421,
      "uk": 2422,
      "##oman": 2423,
      "cars": 2424,
      "##bus": 2425,
      "##forms": 2426,
      "outside": 2427,
      "holding": 2428,
      "qual": 2429,
      "shareholder": 2430,
      "lowest": 2431,
      "##portun": 2432,
      "55": 2433,
      "falling": 2434,
      "leading": 2435,
      "makes": 2436,
      "opportun": 2437,
      "den": 2438,
      "44": 2439,
      "discl": 2440,
      "arr": 2441,
      "38": 2442,
      "track": 2443,
      "##ipped": 2444,
      "comes": 2445,
      "nat": 2446,
      "divid": 2447,
      "slightly": 2448,
      "univers": 2449,
      "##ips": 2450,
      "disapp": 2451,
      "pred": 2452,
      "repl": 2453,
      "vice": 2454,
      "payments": 2455,
      "initial": 2456,
      "##red": 2457,
      "fred": 2458,
      "design": 2459,
      "##acity": 2460,
      "compens": 2461,
      "getting": 2462,
      "canada": 2463,
      "##ify": 2464,
      "sus": 2465,
      "mult": 2466,
      "calif": 2467,
      "bit": 2468,
      "##arters": 2469,
      "gross": 2470,
      "miss": 2471,
      "deuts": 2472,
      "released": 2473,
      "continued": 2474,
      "##prime": 2475,
      "##vin": 2476,
      "##bank": 2477,
      "##epend": 2478,
      "stability": 2479,
      "##31": 2480,
      "resol": 2481,
      "subprime": 2482,
      "party": 2483,
      "seeking": 2484,
      "warned": 2485,
      "##turn": 2486,
      "##rote": 2487,
      "challen": 2488,
      "californ": 2489,
      "maint": 2490,
      "publ": 2491,
      "independ": 2492,
      "light": 2493,
      "##athan": 2494,
      "mortgages": 2495,
      "lawsuit": 2496,
      "##ck": 2497,
      "advert": 2498,
      "fav": 2499,
      "dig": 2500,
      "robert": 2501,
      "goods": 2502,
      "kore": 2503,
      "governments": 2504,
      "clim": 2505,
      "california": 2506,
      "things": 2507,
      "uncertaint": 2508,
      "wrote": 2509,
      "done": 2510,
      "rev": 2511,
      "negative": 2512,
      "takeover": 2513,
      "excluding": 2514,
      "care": 2515,
      "##erate": 2516,
      "guar": 2517,
      "##kel": 2518,
      "47": 2519,
      "star": 2520,
      "along": 2521,
      "lack": 2522,
      "##ba": 2523,
      "began": 2524,
      "52": 2525,
      "lawmakers": 2526,
      "39": 2527,
      "got": 2528,
      "purchase": 2529,
      "building": 2530,
      "traded": 2531,
      "##cc": 2532,
      "46": 2533,
      "capacity": 2534,
      "mexic": 2535,
      "units": 2536,
      "##stand": 2537,
      "rough": 2538,
      "er": 2539,
      "find": 2540,
      "guarant": 2541,
      "##abl": 2542,
      "stronger": 2543,
      "hurt": 2544,
      "wid": 2545,
      "electric": 2546,
      "##oline": 2547,
      "airbus": 2548,
      "drag": 2549,
      "deutsche": 2550,
      "angel": 2551,
      "##eth": 2552,
      "great": 2553,
      "unli": 2554,
      "phone": 2555,
      "partner": 2556,
      "##ensive": 2557,
      "volume": 2558,
      "necess": 2559,
      "gained": 2560,
      "benefits": 2561,
      "##iring": 2562,
      "employment": 2563,
      "hong": 2564,
      "##que": 2565,
      "esp": 2566,
      "currently": 2567,
      "##lia": 2568,
      "##iment": 2569,
      "wors": 2570,
      "borrowing": 2571,
      "pull": 2572,
      "speak": 2573,
      "authorities": 2574,
      "##per": 2575,
      "##ades": 2576,
      "amid": 2577,
      "##thern": 2578,
      "institutions": 2579,
      "acquisition": 2580,
      "nom": 2581,
      "##ison": 2582,
      "48": 2583,
      "49": 2584,
      "spr": 2585,
      "bankers": 2586,
      "easing": 2587,
      "eas": 2588,
      "block": 2589,
      "##fs": 2590,
      "##craft": 2591,
      "42": 2592,
      "steps": 2593,
      "bonus": 2594,
      "delay": 2595,
      "enc": 2596,
      "discount": 2597,
      "respon": 2598,
      "##cor": 2599,
      "fears": 2600,
      "pounds": 2601,
      "expert": 2602,
      "distr": 2603,
      "purchases": 2604,
      "90": 2605,
      "team": 2606,
      "behind": 2607,
      "disappoint": 2608,
      "ap": 2609,
      "wants": 2610,
      "internet": 2611,
      "##dle": 2612,
      "aircraft": 2613,
      "mag": 2614,
      "different": 2615,
      "consult": 2616,
      "quickly": 2617,
      "##atter": 2618,
      "wind": 2619,
      "caus": 2620,
      "raising": 2621,
      "engine": 2622,
      "parlia": 2623,
      "##ruction": 2624,
      "sav": 2625,
      "approval": 2626,
      "mom": 2627,
      "vis": 2628,
      "numbers": 2629,
      "estate": 2630,
      "pros": 2631,
      "family": 2632,
      "lyn": 2633,
      "facebook": 2634,
      "favor": 2635,
      "cover": 2636,
      "kong": 2637,
      "accus": 2638,
      "address": 2639,
      "green": 2640,
      "##ns": 2641,
      "51": 2642,
      "hy": 2643,
      "organ": 2644,
      "retailers": 2645,
      "size": 2646,
      "class": 2647,
      "bh": 2648,
      "##go": 2649,
      "tom": 2650,
      "braz": 2651,
      "41": 2652,
      "managing": 2653,
      "confir": 2654,
      "jonathan": 2655,
      "reforms": 2656,
      "sust": 2657,
      "accounts": 2658,
      "itself": 2659,
      "2005": 2660,
      "existing": 2661,
      "43": 2662,
      "steve": 2663,
      "beat": 2664,
      "doc": 2665,
      "hope": 2666,
      "model": 2667,
      "motors": 2668,
      "search": 2669,
      "300": 2670,
      "##ild": 2671,
      "buff": 2672,
      "property": 2673,
      "##ither": 2674,
      "prosecut": 2675,
      "parliament": 2676,
      "social": 2677,
      "##oon": 2678,
      "ens": 2679,
      "uncertainty": 2680,
      "roughly": 2681,
      "offered": 2682,
      "francisco": 2683,
      "russia": 2684,
      "downturn": 2685,
      "camp": 2686,
      "##woman": 2687,
      "##maker": 2688,
      "brazil": 2689,
      "defense": 2690,
      "tex": 2691,
      "ire": 2692,
      "charge": 2693,
      "##aging": 2694,
      "approach": 2695,
      "scr": 2696,
      "summit": 2697,
      "##roit": 2698,
      "53": 2699,
      "managers": 2700,
      "sy": 2701,
      "stay": 2702,
      "dut": 2703,
      "detroit": 2704,
      "doing": 2705,
      "express": 2706,
      "temp": 2707,
      "##ulf": 2708,
      "satur": 2709,
      "docu": 2710,
      "common": 2711,
      "attract": 2712,
      "shift": 2713,
      "means": 2714,
      "downgr": 2715,
      "wa": 2716,
      "##eas": 2717,
      "hours": 2718,
      "shut": 2719,
      "ipo": 2720,
      "middle": 2721,
      "54": 2722,
      "mater": 2723,
      "##rod": 2724,
      "moment": 2725,
      "moving": 2726,
      "huge": 2727,
      "##pri": 2728,
      "double": 2729,
      "spre": 2730,
      "prevent": 2731,
      "create": 2732,
      "systems": 2733,
      "mut": 2734,
      "##esh": 2735,
      "revis": 2736,
      "aud": 2737,
      "gi": 2738,
      "optim": 2739,
      "offs": 2740,
      "##iding": 2741,
      "##60": 2742,
      "forced": 2743,
      "items": 2744,
      "respons": 2745,
      "accept": 2746,
      "homes": 2747,
      "nation": 2748,
      "commodity": 2749,
      "closing": 2750,
      "jeff": 2751,
      "spokeswoman": 2752,
      "##lying": 2753,
      "pract": 2754,
      "ireland": 2755,
      "reject": 2756,
      "espec": 2757,
      "##ica": 2758,
      "venture": 2759,
      "especially": 2760,
      "draw": 2761,
      "includes": 2762,
      "saturday": 2763,
      "margins": 2764,
      "hs": 2765,
      "progress": 2766,
      "started": 2767,
      "particularly": 2768,
      "parts": 2769,
      "kind": 2770,
      "##die": 2771,
      "##ination": 2772,
      "compensation": 2773,
      "seven": 2774,
      "fair": 2775,
      "rally": 2776,
      "using": 2777,
      "##str": 2778,
      "estimate": 2779,
      "counter": 2780,
      "deriv": 2781,
      "security": 2782,
      "approved": 2783,
      "wells": 2784,
      "buyers": 2785,
      "##ten": 2786,
      "slump": 2787,
      "##anced": 2788,
      "##ming": 2789,
      "65": 2790,
      "yields": 2791,
      "fo": 2792,
      "fight": 2793,
      "critic": 2794,
      "protection": 2795,
      "##iled": 2796,
      "##81": 2797,
      "land": 2798,
      "##ea": 2799,
      "slowdown": 2800,
      "##bed": 2801,
      "something": 2802,
      "jumped": 2803,
      "##attle": 2804,
      "nyse": 2805,
      "##orney": 2806,
      "area": 2807,
      "attorney": 2808,
      "division": 2809,
      "calls": 2810,
      "ministers": 2811,
      "sentiment": 2812,
      "lift": 2813,
      "sched": 2814,
      "contracts": 2815,
      "##erred": 2816,
      "##26": 2817,
      "appe": 2818,
      "struggling": 2819,
      "web": 2820,
      "sharply": 2821,
      "##ysis": 2822,
      "safety": 2823,
      "stress": 2824,
      "commodities": 2825,
      "##irc": 2826,
      "##pay": 2827,
      "conn": 2828,
      "madoff": 2829,
      "##ero": 2830,
      "hopes": 2831,
      "fann": 2832,
      "##ried": 2833,
      "ability": 2834,
      "tele": 2835,
      "reserv": 2836,
      "emerg": 2837,
      "geor": 2838,
      "secretary": 2839,
      "letter": 2840,
      "fees": 2841,
      "pref": 2842,
      "running": 2843,
      "##ari": 2844,
      "bull": 2845,
      "##ez": 2846,
      "response": 2847,
      "savings": 2848,
      "##ead": 2849,
      "jobless": 2850,
      "##ently": 2851,
      "stra": 2852,
      "bott": 2853,
      "fre": 2854,
      "56": 2855,
      "##eline": 2856,
      "susp": 2857,
      "paris": 2858,
      "aggress": 2859,
      "cho": 2860,
      "sees": 2861,
      "##tern": 2862,
      "domin": 2863,
      "freddie": 2864,
      "##force": 2865,
      "rule": 2866,
      "##ucks": 2867,
      "flo": 2868,
      "link": 2869,
      "##40": 2870,
      "material": 2871,
      "dell": 2872,
      "##izon": 2873,
      "expans": 2874,
      "orig": 2875,
      "57": 2876,
      "##itors": 2877,
      "##orning": 2878,
      "##crib": 2879,
      "##ption": 2880,
      "forecl": 2881,
      "fannie": 2882,
      "mexico": 2883,
      "analysis": 2884,
      "pension": 2885,
      "58": 2886,
      "lew": 2887,
      "decade": 2888,
      "sams": 2889,
      "##argo": 2890,
      "##istic": 2891,
      "retailer": 2892,
      "lynch": 2893,
      "panel": 2894,
      "##hi": 2895,
      "##roll": 2896,
      "morning": 2897,
      "##acy": 2898,
      "##ha": 2899,
      "particip": 2900,
      "contribut": 2901,
      "##25": 2902,
      "stat": 2903,
      "included": 2904,
      "cann": 2905,
      "smart": 2906,
      "involved": 2907,
      "##aced": 2908,
      "present": 2909,
      "makers": 2910,
      "round": 2911,
      "g20": 2912,
      "gave": 2913,
      "exposure": 2914,
      "##arm": 2915,
      "advertising": 2916,
      "fi": 2917,
      "premium": 2918,
      "tog": 2919,
      "resour": 2920,
      "samsung": 2921,
      "accounting": 2922,
      "lock": 2923,
      "weaker": 2924,
      "instead": 2925,
      "##ape": 2926,
      "predict": 2927,
      "exper": 2928,
      "factory": 2929,
      "straight": 2930,
      "try": 2931,
      "commit": 2932,
      "##ci": 2933,
      "remained": 2934,
      "construction": 2935,
      "majority": 2936,
      "issued": 2937,
      "association": 2938,
      "##gn": 2939,
      "never": 2940,
      "trial": 2941,
      "together": 2942,
      "arm": 2943,
      "cases": 2944,
      "customer": 2945,
      "tv": 2946,
      "measure": 2947,
      "##izing": 2948,
      "expansion": 2949,
      "##ience": 2950,
      "##elt": 2951,
      "airline": 2952,
      "encour": 2953,
      "batter": 2954,
      "questions": 2955,
      "shr": 2956,
      "dub": 2957,
      "##isions": 2958,
      "##aining": 2959,
      "taxes": 2960,
      "brands": 2961,
      "##atively": 2962,
      "##ists": 2963,
      "85": 2964,
      "oppos": 2965,
      "subsid": 2966,
      "ground": 2967,
      "wire": 2968,
      "##ithner": 2969,
      "policies": 2970,
      "##rop": 2971,
      "##ery": 2972,
      "stabil": 2973,
      "weakness": 2974,
      "bigger": 2975,
      "subst": 2976,
      "pers": 2977,
      "llc": 2978,
      "superv": 2979,
      "often": 2980,
      "##oup": 2981,
      "geithner": 2982,
      "##apse": 2983,
      "iphone": 2984,
      "university": 2985,
      "taxpay": 2986,
      "origin": 2987,
      "independent": 2988,
      "##isl": 2989,
      "dividend": 2990,
      "fire": 2991,
      "##bor": 2992,
      "life": 2993,
      "italian": 2994,
      "##ane": 2995,
      "##aster": 2996,
      "increases": 2997,
      "##oung": 2998,
      "sil": 2999,
      "flat": 3000,
      "59": 3001,
      "##ipment": 3002,
      "larger": 3003,
      "##ta": 3004,
      "portug": 3005,
      "limited": 3006,
      "lay": 3007,
      "worries": 3008,
      "kr": 3009,
      "leav": 3010,
      "auction": 3011,
      "ruling": 3012,
      "weigh": 3013,
      "##erity": 3014,
      "retire": 3015,
      "owns": 3016,
      "signal": 3017,
      "determ": 3018,
      "separate": 3019,
      "moody": 3020,
      "lewis": 3021,
      "##yond": 3022,
      "evidence": 3023,
      "appl": 3024,
      "00": 3025,
      "coal": 3026,
      "election": 3027,
      "combined": 3028,
      "prompt": 3029,
      "fixed": 3030,
      "lender": 3031,
      "negotiations": 3032,
      "heavy": 3033,
      "sn": 3034,
      "typ": 3035,
      "creditors": 3036,
      "unlikely": 3037,
      "faces": 3038,
      "focused": 3039,
      "collapse": 3040,
      "sure": 3041,
      "gasoline": 3042,
      "legisl": 3043,
      "greater": 3044,
      "specific": 3045,
      "##24": 3046,
      "abs": 3047,
      "span": 3048,
      "regulator": 3049,
      "targets": 3050,
      "serious": 3051,
      "ple": 3052,
      "vehicle": 3053,
      "peter": 3054,
      "opec": 3055,
      "peak": 3056,
      "##ivid": 3057,
      "automakers": 3058,
      "##23": 3059,
      "circ": 3060,
      "antic": 3061,
      "rebound": 3062,
      "why": 3063,
      "giving": 3064,
      "dead": 3065,
      "rio": 3066,
      "##unt": 3067,
      "individ": 3068,
      "monthly": 3069,
      "blo": 3070,
      "derivatives": 3071,
      "cannot": 3072,
      "center": 3073,
      "merkel": 3074,
      "areas": 3075,
      "extended": 3076,
      "bang": 3077,
      "afric": 3078,
      "vir": 3079,
      "ax": 3080,
      "equipment": 3081,
      "quarters": 3082,
      "sk": 3083,
      "##ahn": 3084,
      "emergency": 3085,
      "600": 3086,
      "improvement": 3087,
      "named": 3088,
      "relations": 3089,
      "session": 3090,
      "##itr": 3091,
      "beyond": 3092,
      "drive": 3093,
      "bost": 3094,
      "extra": 3095,
      "confident": 3096,
      "probe": 3097,
      "anticip": 3098,
      "leader": 3099,
      "regulation": 3100,
      "dre": 3101,
      "coop": 3102,
      "steel": 3103,
      "##15": 3104,
      "closely": 3105,
      "manufactur": 3106,
      "##eration": 3107,
      "chase": 3108,
      "settle": 3109,
      "##hen": 3110,
      "strike": 3111,
      "##apore": 3112,
      "announcement": 3113,
      "##mo": 3114,
      "ensure": 3115,
      "implement": 3116,
      "massive": 3117,
      "australia": 3118,
      "lis": 3119,
      "penn": 3120,
      "##aded": 3121,
      "ident": 3122,
      "electronics": 3123,
      "owners": 3124,
      "buyout": 3125,
      "buffett": 3126,
      "release": 3127,
      "brokerage": 3128,
      "##ham": 3129,
      "##anch": 3130,
      "trend": 3131,
      "canadian": 3132,
      "##29": 3133,
      "reserves": 3134,
      "repe": 3135,
      "agencies": 3136,
      "##light": 3137,
      "singapore": 3138,
      "stop": 3139,
      "republican": 3140,
      "mal": 3141,
      "shows": 3142,
      "##itting": 3143,
      "revenues": 3144,
      "respond": 3145,
      "commerce": 3146,
      "looks": 3147,
      "##gen": 3148,
      "schem": 3149,
      "mis": 3150,
      "nok": 3151,
      "trig": 3152,
      "austerity": 3153,
      "dealers": 3154,
      "option": 3155,
      "gulf": 3156,
      "necessary": 3157,
      "rein": 3158,
      "hands": 3159,
      "asian": 3160,
      "billions": 3161,
      "figures": 3162,
      "##ara": 3163,
      "spot": 3164,
      "individual": 3165,
      "##arily": 3166,
      "barack": 3167,
      "##ool": 3168,
      "##19": 3169,
      "considering": 3170,
      "##isse": 3171,
      "##come": 3172,
      "accel": 3173,
      "lag": 3174,
      "##27": 3175,
      "launched": 3176,
      "payroll": 3177,
      "les": 3178,
      "hsbc": 3179,
      "largely": 3180,
      "77": 3181,
      "comput": 3182,
      "side": 3183,
      "2014": 3184,
      "##pper": 3185,
      "norm": 3186,
      "ath": 3187,
      "doubt": 3188,
      "limit": 3189,
      "##der": 3190,
      "conv": 3191,
      "personal": 3192,
      "hearing": 3193,
      "boston": 3194,
      "##ask": 3195,
      "slowing": 3196,
      "revised": 3197,
      "##ola": 3198,
      "##tty": 3199,
      "overseas": 3200,
      "matt": 3201,
      "opel": 3202,
      "##13": 3203,
      "eric": 3204,
      "altern": 3205,
      "positions": 3206,
      "consol": 3207,
      "substant": 3208,
      "seeing": 3209,
      "bruss": 3210,
      "pretty": 3211,
      "base": 3212,
      "roy": 3213,
      "safe": 3214,
      "brussels": 3215,
      "##28": 3216,
      "concerned": 3217,
      "series": 3218,
      "korea": 3219,
      "ey": 3220,
      "speculation": 3221,
      "##anks": 3222,
      "trades": 3223,
      "flight": 3224,
      "##sa": 3225,
      "##iple": 3226,
      "##bm": 3227,
      "brief": 3228,
      "bhp": 3229,
      "##ushing": 3230,
      "projects": 3231,
      "ready": 3232,
      "##eck": 3233,
      "##essional": 3234,
      "driven": 3235,
      "broader": 3236,
      "conduct": 3237,
      "##rown": 3238,
      "continues": 3239,
      "##oy": 3240,
      "trigger": 3241,
      "ult": 3242,
      "date": 3243,
      "thought": 3244,
      "fallen": 3245,
      "attempt": 3246,
      "insurer": 3247,
      "##14": 3248,
      "recall": 3249,
      "slash": 3250,
      "kim": 3251,
      "##17": 3252,
      "starting": 3253,
      "rad": 3254,
      "brothers": 3255,
      "400": 3256,
      "mill": 3257,
      "infr": 3258,
      "##cing": 3259,
      "whole": 3260,
      "##uled": 3261,
      "guid": 3262,
      "grew": 3263,
      "equities": 3264,
      "martin": 3265,
      "telec": 3266,
      "leave": 3267,
      "feel": 3268,
      "tum": 3269,
      "reflect": 3270,
      "william": 3271,
      "##16": 3272,
      "ach": 3273,
      "eight": 3274,
      "pushed": 3275,
      "facing": 3276,
      "##rought": 3277,
      "idustre4": 3278,
      "ratio": 3279,
      "##ences": 3280,
      "doesn": 3281,
      "sb": 3282,
      "volatility": 3283,
      "kar": 3284,
      "connect": 3285,
      "plants": 3286,
      "hill": 3287,
      "prim": 3288,
      "reading": 3289,
      "ros": 3290,
      "##to": 3291,
      "roll": 3292,
      "justice": 3293,
      "plc": 3294,
      "either": 3295,
      "democrats": 3296,
      "nar": 3297,
      "##way": 3298,
      "mess": 3299,
      "marketing": 3300,
      "johnson": 3301,
      "raj": 3302,
      "##lie": 3303,
      "history": 3304,
      "scand": 3305,
      "ko": 3306,
      "occ": 3307,
      "lawyer": 3308,
      "mae": 3309,
      "directors": 3310,
      "spanish": 3311,
      "##na": 3312,
      "complaint": 3313,
      "showing": 3314,
      "popular": 3315,
      "transaction": 3316,
      "##icient": 3317,
      "hot": 3318,
      "troubled": 3319,
      "paulson": 3320,
      "##ald": 3321,
      "currencies": 3322,
      "suisse": 3323,
      "natural": 3324,
      "##elves": 3325,
      "##ateral": 3326,
      "programs": 3327,
      "tradition": 3328,
      "##hire": 3329,
      "nokia": 3330,
      "thing": 3331,
      "compos": 3332,
      "consolid": 3333,
      "fiat": 3334,
      "relatively": 3335,
      "regional": 3336,
      "##af": 3337,
      "disput": 3338,
      "cur": 3339,
      "offset": 3340,
      "resources": 3341,
      "tempor": 3342,
      "went": 3343,
      "lou": 3344,
      "wrong": 3345,
      "introd": 3346,
      "##kshire": 3347,
      "noted": 3348,
      "expecting": 3349,
      "berkshire": 3350,
      "quality": 3351,
      "portugal": 3352,
      "##ats": 3353,
      "giant": 3354,
      "##ction": 3355,
      "##bur": 3356,
      "policymakers": 3357,
      "fresh": 3358,
      "promot": 3359,
      "##ster": 3360,
      "pled": 3361,
      "##ining": 3362,
      "##cil": 3363,
      "coup": 3364,
      "clearly": 3365,
      "republicans": 3366,
      "spill": 3367,
      "summer": 3368,
      "sony": 3369,
      "flow": 3370,
      "##noon": 3371,
      "gap": 3372,
      "##akes": 3373,
      "##han": 3374,
      "athens": 3375,
      "mus": 3376,
      "rights": 3377,
      "warr": 3378,
      "##west": 3379,
      "willing": 3380,
      "73": 3381,
      "front": 3382,
      "##18": 3383,
      "gs": 3384,
      "afternoon": 3385,
      "matth": 3386,
      "lux": 3387,
      "##amer": 3388,
      "increasingly": 3389,
      "worked": 3390,
      "worldwide": 3391,
      "fargo": 3392,
      "intel": 3393,
      "setting": 3394,
      "67": 3395,
      "fort": 3396,
      "representatives": 3397,
      "continuing": 3398,
      "council": 3399,
      "##erior": 3400,
      "quot": 3401,
      "strategic": 3402,
      "wireless": 3403,
      "civ": 3404,
      "rap": 3405,
      "changed": 3406,
      "acquisitions": 3407,
      "considered": 3408,
      "achie": 3409,
      "700": 3410,
      "required": 3411,
      "moves": 3412,
      "pip": 3413,
      "idea": 3414,
      "authority": 3415,
      "course": 3416,
      "examp": 3417,
      "chip": 3418,
      "caused": 3419,
      "name": 3420,
      "sense": 3421,
      "787": 3422,
      "treat": 3423,
      "trader": 3424,
      "tell": 3425,
      "##mp": 3426,
      "parties": 3427,
      "sustain": 3428,
      "solid": 3429,
      "suggested": 3430,
      "dism": 3431,
      "##stone": 3432,
      "canc": 3433,
      "##ires": 3434,
      "standards": 3435,
      "dj": 3436,
      "##aring": 3437,
      "dubai": 3438,
      "discussions": 3439,
      "pricing": 3440,
      "prosecutors": 3441,
      "certainly": 3442,
      "excess": 3443,
      "weekend": 3444,
      "##ges": 3445,
      "webs": 3446,
      "paying": 3447,
      "purs": 3448,
      "andrew": 3449,
      "viol": 3450,
      "##aign": 3451,
      "##illing": 3452,
      "##actions": 3453,
      "decided": 3454,
      "modest": 3455,
      "##anged": 3456,
      "experts": 3457,
      "cle": 3458,
      "##box": 3459,
      "decisions": 3460,
      "chev": 3461,
      "brok": 3462,
      "##egr": 3463,
      "appoint": 3464,
      "##iling": 3465,
      "bur": 3466,
      "nine": 3467,
      "proceed": 3468,
      "##aft": 3469,
      "##ises": 3470,
      "plun": 3471,
      "chance": 3472,
      "cable": 3473,
      "##avel": 3474,
      "brought": 3475,
      "##enses": 3476,
      "##ancing": 3477,
      "pac": 3478,
      "conserv": 3479,
      "##ste": 3480,
      "followed": 3481,
      "simp": 3482,
      "nic": 3483,
      "mf": 3484,
      "##ored": 3485,
      "texas": 3486,
      "george": 3487,
      "##ival": 3488,
      "internal": 3489,
      "reduced": 3490,
      "vict": 3491,
      "##erated": 3492,
      "adjusted": 3493,
      "##atic": 3494,
      "provided": 3495,
      "surprise": 3496,
      "##dr": 3497,
      "plat": 3498,
      "bottom": 3499,
      "alex": 3500,
      "##com": 3501,
      "ful": 3502,
      "fif": 3503,
      "composite": 3504,
      "##lant": 3505,
      "americans": 3506,
      "minut": 3507,
      "founder": 3508,
      "scheme": 3509,
      "rapid": 3510,
      "incent": 3511,
      "##ppers": 3512,
      "##going": 3513,
      "unve": 3514,
      "##holders": 3515,
      "actions": 3516,
      "aimed": 3517,
      "##ko": 3518,
      "helping": 3519,
      "steady": 3520,
      "ack": 3521,
      "opposition": 3522,
      "sought": 3523,
      "74": 3524,
      "ho": 3525,
      "luc": 3526,
      "##ighter": 3527,
      "##acle": 3528,
      "##uel": 3529,
      "bonuses": 3530,
      "revers": 3531,
      "carol": 3532,
      "berlin": 3533,
      "pal": 3534,
      "barrels": 3535,
      "tech": 3536,
      "tar": 3537,
      "bush": 3538,
      "computer": 3539,
      "##alore": 3540,
      "client": 3541,
      "listed": 3542,
      "##zy": 3543,
      "assess": 3544,
      "scheduled": 3545,
      "##obb": 3546,
      "became": 3547,
      "unf": 3548,
      "ministry": 3549,
      "stemp": 3550,
      "nations": 3551,
      "bangalore": 3552,
      "figure": 3553,
      "lisa": 3554,
      "iran": 3555,
      "mount": 3556,
      "rbs": 3557,
      "battle": 3558,
      "created": 3559,
      "##ios": 3560,
      "improved": 3561,
      "jim": 3562,
      "institution": 3563,
      "vide": 3564,
      "failure": 3565,
      "worse": 3566,
      "else": 3567,
      "63": 3568,
      "water": 3569,
      "anything": 3570,
      "sheet": 3571,
      "hp": 3572,
      "fully": 3573,
      "aggressive": 3574,
      "matthew": 3575,
      "haven": 3576,
      "##sw": 3577,
      "hum": 3578,
      "example": 3579,
      "gary": 3580,
      "leaving": 3581,
      "worried": 3582,
      "lawyers": 3583,
      "inventories": 3584,
      "rock": 3585,
      "lit": 3586,
      "prospects": 3587,
      "mor": 3588,
      "replace": 3589,
      "##ordin": 3590,
      "your": 3591,
      "fifth": 3592,
      "64": 3593,
      "seem": 3594,
      "versus": 3595,
      "declines": 3596,
      "ways": 3597,
      "economics": 3598,
      "zero": 3599,
      "##oul": 3600,
      "pap": 3601,
      "##ae": 3602,
      "quite": 3603,
      "##res": 3604,
      "amaz": 3605,
      "household": 3606,
      "ease": 3607,
      "crimin": 3608,
      "spend": 3609,
      "thomas": 3610,
      "establ": 3611,
      "beginning": 3612,
      "eb": 3613,
      "scott": 3614,
      "producer": 3615,
      "et": 3616,
      "seems": 3617,
      "competitive": 3618,
      "civil": 3619,
      "takes": 3620,
      "##oth": 3621,
      "##earns": 3622,
      "speed": 3623,
      "opportunity": 3624,
      "host": 3625,
      "princ": 3626,
      "receive": 3627,
      "##erald": 3628,
      "frankf": 3629,
      "accused": 3630,
      "##ains": 3631,
      "cop": 3632,
      "payment": 3633,
      "models": 3634,
      "kevin": 3635,
      "possibility": 3636,
      "wanted": 3637,
      "wo": 3638,
      "resign": 3639,
      "rim": 3640,
      "legislation": 3641,
      "groups": 3642,
      "icahn": 3643,
      "always": 3644,
      "widely": 3645,
      "##pect": 3646,
      "influ": 3647,
      "grant": 3648,
      "documents": 3649,
      "losing": 3650,
      "deposit": 3651,
      "recomm": 3652,
      "tor": 3653,
      "##une": 3654,
      "facility": 3655,
      "transport": 3656,
      "television": 3657,
      "##care": 3658,
      "inventory": 3659,
      "prepared": 3660,
      "##standing": 3661,
      "exit": 3662,
      "##bling": 3663,
      "smith": 3664,
      "##iy": 3665,
      "read": 3666,
      "users": 3667,
      "offers": 3668,
      "site": 3669,
      "pacific": 3670,
      "caut": 3671,
      "turned": 3672,
      "nick": 3673,
      "risen": 3674,
      "write": 3675,
      "pushing": 3676,
      "76": 3677,
      "entire": 3678,
      "##mitt": 3679,
      "##liance": 3680,
      "verizon": 3681,
      "potentially": 3682,
      "##lied": 3683,
      "scale": 3684,
      "150": 3685,
      "returns": 3686,
      "advanced": 3687,
      "citi": 3688,
      "##ament": 3689,
      "operator": 3690,
      "##uries": 3691,
      "concl": 3692,
      "var": 3693,
      "thous": 3694,
      "##oles": 3695,
      "nothing": 3696,
      "cautious": 3697,
      "devices": 3698,
      "successful": 3699,
      "alleged": 3700,
      "##stein": 3701,
      "young": 3702,
      "imports": 3703,
      "advant": 3704,
      "africa": 3705,
      "governor": 3706,
      "scandal": 3707,
      "##ura": 3708,
      "##igation": 3709,
      "##ots": 3710,
      "southern": 3711,
      "hund": 3712,
      "allowed": 3713,
      "compon": 3714,
      "corre": 3715,
      "email": 3716,
      "kept": 3717,
      "uaw": 3718,
      "##och": 3719,
      "##ensus": 3720,
      "wide": 3721,
      "pressures": 3722,
      "improving": 3723,
      "ft": 3724,
      "ibm": 3725,
      "swe": 3726,
      "speaking": 3727,
      "transactions": 3728,
      "sto": 3729,
      "integr": 3730,
      "idusn0": 3731,
      "frankfurt": 3732,
      "jose": 3733,
      "built": 3734,
      "rejected": 3735,
      "hundred": 3736,
      "royal": 3737,
      "proposals": 3738,
      "a3": 3739,
      "##igan": 3740,
      "keeping": 3741,
      "school": 3742,
      "respect": 3743,
      "cand": 3744,
      "petro": 3745,
      "##ental": 3746,
      "ship": 3747,
      "uns": 3748,
      "shan": 3749,
      "campaign": 3750,
      "bol": 3751,
      "amazon": 3752,
      "##gl": 3753,
      "advisers": 3754,
      "ban": 3755,
      "##xon": 3756,
      "congr": 3757,
      "compar": 3758,
      "relief": 3759,
      "95": 3760,
      "##of": 3761,
      "boj": 3762,
      "##ented": 3763,
      "spent": 3764,
      "chris": 3765,
      "democratic": 3766,
      "##lies": 3767,
      "appeal": 3768,
      "putting": 3769,
      "lines": 3770,
      "pc": 3771,
      "rig": 3772,
      "developing": 3773,
      "signed": 3774,
      "##essed": 3775,
      "criminal": 3776,
      "##where": 3777,
      "affect": 3778,
      "dod": 3779,
      "regular": 3780,
      "healthcare": 3781,
      "scen": 3782,
      "momentum": 3783,
      "dip": 3784,
      "stearns": 3785,
      "exxon": 3786,
      "western": 3787,
      "66": 3788,
      "deterior": 3789,
      "significantly": 3790,
      "publish": 3791,
      "ore": 3792,
      "##ester": 3793,
      "king": 3794,
      "room": 3795,
      "repay": 3796,
      "hiring": 3797,
      "arab": 3798,
      "boosted": 3799,
      "weather": 3800,
      "perform": 3801,
      "leslie": 3802,
      "##ma": 3803,
      "sand": 3804,
      "condition": 3805,
      "##moil": 3806,
      "turmoil": 3807,
      "jet": 3808,
      "travel": 3809,
      "amb": 3810,
      "##pre": 3811,
      "##ersey": 3812,
      "spx": 3813,
      "challenge": 3814,
      "##osures": 3815,
      "wil": 3816,
      "spl": 3817,
      "carr": 3818,
      "fundament": 3819,
      "jersey": 3820,
      "obl": 3821,
      "cn": 3822,
      "bernard": 3823,
      "communications": 3824,
      "##perform": 3825,
      "eads": 3826,
      "seg": 3827,
      "defend": 3828,
      "restrict": 3829,
      "gmt": 3830,
      "attack": 3831,
      "assist": 3832,
      "##ibly": 3833,
      "##imum": 3834,
      "dutch": 3835,
      "deposits": 3836,
      "parent": 3837,
      "story": 3838,
      "##uing": 3839,
      "cited": 3840,
      "protest": 3841,
      "##par": 3842,
      "field": 3843,
      "alone": 3844,
      "website": 3845,
      "congressional": 3846,
      "##kin": 3847,
      "manufacturers": 3848,
      "nuc": 3849,
      "68": 3850,
      "highlight": 3851,
      "decades": 3852,
      "mining": 3853,
      "slipped": 3854,
      "lose": 3855,
      "##imately": 3856,
      "##ts": 3857,
      "touch": 3858,
      "highs": 3859,
      "##uit": 3860,
      "shoppers": 3861,
      "borrowers": 3862,
      "declining": 3863,
      "edward": 3864,
      "underlying": 3865,
      "decide": 3866,
      "nik": 3867,
      "##onn": 3868,
      "##enon": 3869,
      "murd": 3870,
      "plane": 3871,
      "insider": 3872,
      "consensus": 3873,
      "depr": 3874,
      "##zen": 3875,
      "##elines": 3876,
      "stage": 3877,
      "mutual": 3878,
      "mix": 3879,
      "##osp": 3880,
      "sectors": 3881,
      "alleg": 3882,
      "##apped": 3883,
      "##dd": 3884,
      "plus": 3885,
      "delta": 3886,
      "debate": 3887,
      "game": 3888,
      "##itzer": 3889,
      "published": 3890,
      "goal": 3891,
      "grad": 3892,
      "bn": 3893,
      "practices": 3894,
      "thousands": 3895,
      "moved": 3896,
      "players": 3897,
      "video": 3898,
      "telecom": 3899,
      "nuclear": 3900,
      "speech": 3901,
      "worry": 3902,
      "angeles": 3903,
      "everything": 3904,
      "factbox": 3905,
      "remaining": 3906,
      "faced": 3907,
      "##while": 3908,
      "iron": 3909,
      "fle": 3910,
      "climbed": 3911,
      "directly": 3912,
      "structure": 3913,
      "cause": 3914,
      "reduction": 3915,
      "complex": 3916,
      "happen": 3917,
      "underw": 3918,
      "delivery": 3919,
      "designed": 3920,
      "downgrade": 3921,
      "ham": 3922,
      "eventually": 3923,
      "describ": 3924,
      "##hl": 3925,
      "disrupt": 3926,
      "##reci": 3927,
      "faster": 3928,
      "84": 3929,
      "##ipping": 3930,
      "deadline": 3931,
      "##eld": 3932,
      "2004": 3933,
      "lic": 3934,
      "charged": 3935,
      "risky": 3936,
      "##ida": 3937,
      "##uff": 3938,
      "sprint": 3939,
      "narrow": 3940,
      "saud": 3941,
      "consist": 3942,
      "affected": 3943,
      "damage": 3944,
      "99": 3945,
      "preferred": 3946,
      "vo": 3947,
      "##ikes": 3948,
      "##erring": 3949,
      "airways": 3950,
      "cat": 3951,
      "##nam": 3952,
      "millions": 3953,
      "appeared": 3954,
      "brian": 3955,
      "steep": 3956,
      "normal": 3957,
      "##cast": 3958,
      "holds": 3959,
      "##ilities": 3960,
      "treasuries": 3961,
      "thems": 3962,
      "actually": 3963,
      "flag": 3964,
      "themselves": 3965,
      "idusl": 3966,
      "61": 3967,
      "subject": 3968,
      "##ao": 3969,
      "##attan": 3970,
      "suffered": 3971,
      "payrolls": 3972,
      "candid": 3973,
      "atlant": 3974,
      "repeated": 3975,
      "reaction": 3976,
      "advantage": 3977,
      "unch": 3978,
      "##oke": 3979,
      "##astruct": 3980,
      "ongoing": 3981,
      "infrastruct": 3982,
      "##ibution": 3983,
      "shock": 3984,
      "farm": 3985,
      "transf": 3986,
      "brown": 3987,
      "mostly": 3988,
      "didn": 3989,
      "mccor": 3990,
      "controls": 3991,
      "stempel": 3992,
      "##rey": 3993,
      "mccorm": 3994,
      "stable": 3995,
      "temporary": 3996,
      "##iny": 3997,
      "infrastructure": 3998,
      "69": 3999,
      "confirmed": 4000,
      "save": 4001,
      "##bles": 4002,
      "##shore": 4003,
      "requirements": 4004,
      "maintain": 4005,
      "meanwhile": 4006,
      "ven": 4007,
      "##ted": 4008,
      "insurers": 4009,
      "mach": 4010,
      "spread": 4011,
      "pas": 4012,
      "michigan": 4013,
      "fal": 4014,
      "mccormick": 4015,
      "adop": 4016,
      "challeng": 4017,
      "shangh": 4018,
      "##anges": 4019,
      "planes": 4020,
      "##ipal": 4021,
      "urged": 4022,
      "institute": 4023,
      "saudi": 4024,
      "mcd": 4025,
      "##xy": 4026,
      "inject": 4027,
      "shopping": 4028,
      "79": 4029,
      "music": 4030,
      "##bi": 4031,
      "##ino": 4032,
      "supplies": 4033,
      "appears": 4034,
      "wood": 4035,
      "##eter": 4036,
      "terr": 4037,
      "appropri": 4038,
      "partnership": 4039,
      "wel": 4040,
      "immediate": 4041,
      "linked": 4042,
      "##osh": 4043,
      "shanghai": 4044,
      "phones": 4045,
      "##arks": 4046,
      "highly": 4047,
      "renew": 4048,
      "##aa": 4049,
      "providing": 4050,
      "specul": 4051,
      "swaps": 4052,
      "object": 4053,
      "challenges": 4054,
      "##vious": 4055,
      "exam": 4056,
      "joined": 4057,
      "complete": 4058,
      "instant": 4059,
      "prospect": 4060,
      "obvious": 4061,
      "study": 4062,
      "names": 4063,
      "guarantee": 4064,
      "62": 4065,
      "2015": 4066,
      "max": 4067,
      "carry": 4068,
      "##eed": 4069,
      "shed": 4070,
      "guidance": 4071,
      "##sequ": 4072,
      "##exp": 4073,
      "blackstone": 4074,
      "shrink": 4075,
      "mike": 4076,
      "##inks": 4077,
      "exceed": 4078,
      "books": 4079,
      "opportunities": 4080,
      "murdoch": 4081,
      "initially": 4082,
      "gerald": 4083,
      "effective": 4084,
      "fd": 4085,
      "##ze": 4086,
      "cypr": 4087,
      "polled": 4088,
      "collateral": 4089,
      "expenses": 4090,
      "falls": 4091,
      "##izer": 4092,
      "swap": 4093,
      "stanford": 4094,
      "##uctions": 4095,
      "developed": 4096,
      "bell": 4097,
      "##eries": 4098,
      "committed": 4099,
      "foot": 4100,
      "critical": 4101,
      "sending": 4102,
      "##mi": 4103,
      "emb": 4104,
      "warning": 4105,
      "sens": 4106,
      "closer": 4107,
      "relationship": 4108,
      "cyprus": 4109,
      "alternative": 4110,
      "##berry": 4111,
      "250": 4112,
      "oversight": 4113,
      "niss": 4114,
      "charles": 4115,
      "##eg": 4116,
      "##owitz": 4117,
      "hundreds": 4118,
      "enterpr": 4119,
      "##ani": 4120,
      "flor": 4121,
      "consumption": 4122,
      "##mitted": 4123,
      "##umes": 4124,
      "##ledge": 4125,
      "dream": 4126,
      "##ched": 4127,
      "##essions": 4128,
      "fee": 4129,
      "##aled": 4130,
      "boom": 4131,
      "pen": 4132,
      "dismiss": 4133,
      "##onda": 4134,
      "##liers": 4135,
      "##hattan": 4136,
      "starts": 4137,
      "dji": 4138,
      "allegations": 4139,
      "spark": 4140,
      "##2010": 4141,
      "ess": 4142,
      "##now": 4143,
      "planning": 4144,
      "##aker": 4145,
      "##oph": 4146,
      "pharm": 4147,
      "histor": 4148,
      "collect": 4149,
      "mi": 4150,
      "dram": 4151,
      "adviser": 4152,
      "tightening": 4153,
      "weekly": 4154,
      "##aire": 4155,
      "brokers": 4156,
      "##icians": 4157,
      "defin": 4158,
      "meetings": 4159,
      "russian": 4160,
      "##inum": 4161,
      "gam": 4162,
      "publicly": 4163,
      "substantial": 4164,
      "heavily": 4165,
      "bloc": 4166,
      "tend": 4167,
      "reducing": 4168,
      "anti": 4169,
      "oracle": 4170,
      "louis": 4171,
      "crunch": 4172,
      "australian": 4173,
      "carrier": 4174,
      "##ensions": 4175,
      "suppliers": 4176,
      "surv": 4177,
      "banker": 4178,
      "manhattan": 4179,
      "disappointing": 4180,
      "mit": 4181,
      "earned": 4182,
      "unchanged": 4183,
      "digital": 4184,
      "mand": 4185,
      "lee": 4186,
      "passed": 4187,
      "nissan": 4188,
      "pict": 4189,
      "quant": 4190,
      "tests": 4191,
      "honda": 4192,
      "##sy": 4193,
      "indian": 4194,
      "profitable": 4195,
      "divers": 4196,
      "squ": 4197,
      "##onald": 4198,
      "tool": 4199,
      "198": 4200,
      "libor": 4201,
      "##enth": 4202,
      "83": 4203,
      "appar": 4204,
      "solution": 4205,
      "road": 4206,
      "clean": 4207,
      "##gers": 4208,
      "expensive": 4209,
      "traff": 4210,
      "##rick": 4211,
      "countrywide": 4212,
      "fine": 4213,
      "typically": 4214,
      "obt": 4215,
      "pain": 4216,
      "generally": 4217,
      "rank": 4218,
      "2001": 4219,
      "coff": 4220,
      "resident": 4221,
      "##2008": 4222,
      "wach": 4223,
      "cheap": 4224,
      "##draw": 4225,
      "lows": 4226,
      "slowed": 4227,
      "monitor": 4228,
      "##fort": 4229,
      "conservative": 4230,
      "luxury": 4231,
      "##usive": 4232,
      "tank": 4233,
      "volatile": 4234,
      "sport": 4235,
      "chann": 4236,
      "##2007": 4237,
      "scrut": 4238,
      "##oring": 4239,
      "represents": 4240,
      "experience": 4241,
      "earth": 4242,
      "deput": 4243,
      "kenn": 4244,
      "unexp": 4245,
      "##mann": 4246,
      "##tr": 4247,
      "##acing": 4248,
      "dispute": 4249,
      "finances": 4250,
      "managed": 4251,
      "##riers": 4252,
      "unexpected": 4253,
      "##ayl": 4254,
      "depend": 4255,
      "agric": 4256,
      "bpd": 4257,
      "fish": 4258,
      "withdraw": 4259,
      "expressed": 4260,
      "mun": 4261,
      "taxpayers": 4262,
      "sel": 4263,
      "merch": 4264,
      "retirement": 4265,
      "thanks": 4266,
      "finding": 4267,
      "##phones": 4268,
      "milit": 4269,
      "hen": 4270,
      "##aur": 4271,
      "priced": 4272,
      "##ev": 4273,
      "##aph": 4274,
      "easy": 4275,
      "exchanges": 4276,
      "networks": 4277,
      "ending": 4278,
      "industries": 4279,
      "camer": 4280,
      "800": 4281,
      "suggesting": 4282,
      "fitch": 4283,
      "acknow": 4284,
      "award": 4285,
      "ms": 4286,
      "rises": 4287,
      "extend": 4288,
      "leadership": 4289,
      "2003": 4290,
      "offshore": 4291,
      "flex": 4292,
      "factors": 4293,
      "aims": 4294,
      "surged": 4295,
      "72": 4296,
      "interested": 4297,
      "##iem": 4298,
      "oly": 4299,
      "##emical": 4300,
      "police": 4301,
      "completed": 4302,
      "laws": 4303,
      "various": 4304,
      "gets": 4305,
      "88": 4306,
      "unions": 4307,
      "extre": 4308,
      "olymp": 4309,
      "answ": 4310,
      "meant": 4311,
      "pump": 4312,
      "coast": 4313,
      "minutes": 4314,
      "direction": 4315,
      "hk": 4316,
      "##ipp": 4317,
      "##bucks": 4318,
      "##ois": 4319,
      "dim": 4320,
      "##rid": 4321,
      "##flation": 4322,
      "##ife": 4323,
      "traffic": 4324,
      "northern": 4325,
      "primary": 4326,
      "##cri": 4327,
      "kl": 4328,
      "interests": 4329,
      "attention": 4330,
      "starbucks": 4331,
      "##ario": 4332,
      "##do": 4333,
      "dil": 4334,
      "switzer": 4335,
      "rout": 4336,
      "wider": 4337,
      "alli": 4338,
      "switzerland": 4339,
      "om": 4340,
      "##usion": 4341,
      "irish": 4342,
      "##icks": 4343,
      "stephen": 4344,
      "quoted": 4345,
      "fun": 4346,
      "##ius": 4347,
      "medium": 4348,
      "colle": 4349,
      "gall": 4350,
      "##fall": 4351,
      "blackberry": 4352,
      "gau": 4353,
      "##zone": 4354,
      "##wan": 4355,
      "##onto": 4356,
      "surge": 4357,
      "##ient": 4358,
      "##ston": 4359,
      "driving": 4360,
      "pf": 4361,
      "expanding": 4362,
      "cas": 4363,
      "87": 4364,
      "enforce": 4365,
      "patent": 4366,
      "cf": 4367,
      "prel": 4368,
      "initi": 4369,
      "##emb": 4370,
      "toronto": 4371,
      "optimistic": 4372,
      "sant": 4373,
      "super": 4374,
      "##brid": 4375,
      "reve": 4376,
      "##iders": 4377,
      "traditional": 4378,
      "##uster": 4379,
      "investing": 4380,
      "technical": 4381,
      "lawsuits": 4382,
      "clar": 4383,
      "meaning": 4384,
      "underwr": 4385,
      "fewer": 4386,
      "except": 4387,
      "prec": 4388,
      "grenon": 4389,
      "version": 4390,
      "allowing": 4391,
      "gauge": 4392,
      "##ander": 4393,
      "technolog": 4394,
      "daniel": 4395,
      "##umb": 4396,
      "operation": 4397,
      "ones": 4398,
      "##iation": 4399,
      "##fully": 4400,
      "cross": 4401,
      "##itrust": 4402,
      "tabl": 4403,
      "alco": 4404,
      "gives": 4405,
      "carl": 4406,
      "antitrust": 4407,
      "optimism": 4408,
      "mainly": 4409,
      "aer": 4410,
      "vx": 4411,
      "##orter": 4412,
      "##2012": 4413,
      "caution": 4414,
      "trucks": 4415,
      "greg": 4416,
      "runs": 4417,
      "warner": 4418,
      "politicians": 4419,
      "oblig": 4420,
      "dur": 4421,
      "##agon": 4422,
      "organization": 4423,
      "materials": 4424,
      "cruc": 4425,
      "chevron": 4426,
      "medic": 4427,
      "eye": 4428,
      "unless": 4429,
      "overha": 4430,
      "stakes": 4431,
      "suit": 4432,
      "##around": 4433,
      "##yle": 4434,
      "alum": 4435,
      "partly": 4436,
      "##pro": 4437,
      "pipeline": 4438,
      "##itter": 4439,
      "86": 4440,
      "mech": 4441,
      "##cle": 4442,
      "98": 4443,
      "sam": 4444,
      "ball": 4445,
      "believes": 4446,
      "bi": 4447,
      "florida": 4448,
      "arrest": 4449,
      "reit": 4450,
      "##ris": 4451,
      "commitment": 4452,
      "kraft": 4453,
      "turnaround": 4454,
      "jeffrey": 4455,
      "deputy": 4456,
      "applications": 4457,
      "path": 4458,
      "hor": 4459,
      "##omb": 4460,
      "foreclosure": 4461,
      "daim": 4462,
      "ray": 4463,
      "advisors": 4464,
      "mechan": 4465,
      "suggests": 4466,
      "daimler": 4467,
      "stem": 4468,
      "##apital": 4469,
      "##illed": 4470,
      "contrast": 4471,
      "sides": 4472,
      "prelimin": 4473,
      "anticipated": 4474,
      "elections": 4475,
      "produce": 4476,
      "resolve": 4477,
      "lloy": 4478,
      "##body": 4479,
      "cab": 4480,
      "argued": 4481,
      "blow": 4482,
      "##elle": 4483,
      "mail": 4484,
      "pi": 4485,
      "restaur": 4486,
      "voting": 4487,
      "goes": 4488,
      "swed": 4489,
      "opening": 4490,
      "brad": 4491,
      "motorola": 4492,
      "drugs": 4493,
      "profess": 4494,
      "##fsf": 4495,
      "employee": 4496,
      "ry": 4497,
      "preliminary": 4498,
      "sid": 4499,
      "brent": 4500,
      "referring": 4501,
      "##ei": 4502,
      "##ogn": 4503,
      "burd": 4504,
      "##night": 4505,
      "becoming": 4506,
      "slower": 4507,
      "electronic": 4508,
      "di": 4509,
      "ups": 4510,
      "guil": 4511,
      "virgin": 4512,
      "amr": 4513,
      "introduc": 4514,
      "eurozone": 4515,
      "##east": 4516,
      "##izu": 4517,
      "indexes": 4518,
      "agreements": 4519,
      "generation": 4520,
      "97": 4521,
      "effects": 4522,
      "litigation": 4523,
      "##ille": 4524,
      "settled": 4525,
      "ele": 4526,
      "branch": 4527,
      "recogn": 4528,
      "competitors": 4529,
      "denied": 4530,
      "wachov": 4531,
      "tumbled": 4532,
      "wachovia": 4533,
      "shell": 4534,
      "##ique": 4535,
      "##20111": 4536,
      "slide": 4537,
      "ultimately": 4538,
      "##ancy": 4539,
      "jack": 4540,
      "dal": 4541,
      "essential": 4542,
      "##aries": 4543,
      "consolidation": 4544,
      "buyer": 4545,
      "profile": 4546,
      "elimin": 4547,
      "severe": 4548,
      "possibly": 4549,
      "bondholders": 4550,
      "robust": 4551,
      "resist": 4552,
      "changing": 4553,
      "ownership": 4554,
      "acquired": 4555,
      "efsf": 4556,
      "zh": 4557,
      "##uk": 4558,
      "angela": 4559,
      "profitability": 4560,
      "professor": 4561,
      "ixic": 4562,
      "simply": 4563,
      "banc": 4564,
      "##adel": 4565,
      "expanded": 4566,
      "##fa": 4567,
      "##veraged": 4568,
      "everyone": 4569,
      "unveiled": 4570,
      "##vention": 4571,
      "##reen": 4572,
      "supported": 4573,
      "##ctions": 4574,
      "##ga": 4575,
      "assum": 4576,
      "factories": 4577,
      "82": 4578,
      "picture": 4579,
      "mont": 4580,
      "prompted": 4581,
      "criticism": 4582,
      "esc": 4583,
      "liber": 4584,
      "##wind": 4585,
      "da": 4586,
      "owner": 4587,
      "pending": 4588,
      "identified": 4589,
      "adler": 4590,
      "##anging": 4591,
      "71": 4592,
      "##agen": 4593,
      "ut": 4594,
      "england": 4595,
      "heart": 4596,
      "tack": 4597,
      "battery": 4598,
      "bord": 4599,
      "cv": 4600,
      "cad": 4601,
      "ol": 4602,
      "split": 4603,
      "von": 4604,
      "overhaul": 4605,
      "talking": 4606,
      "2000": 4607,
      "bac": 4608,
      "##urred": 4609,
      "contraction": 4610,
      "guilty": 4611,
      "knowledge": 4612,
      "achieve": 4613,
      "activities": 4614,
      "weight": 4615,
      "##anger": 4616,
      "lear": 4617,
      "dave": 4618,
      "hitting": 4619,
      "trim": 4620,
      "unders": 4621,
      "##ana": 4622,
      "dest": 4623,
      "events": 4624,
      "dobb": 4625,
      "bills": 4626,
      "##iger": 4627,
      "##enced": 4628,
      "billionaire": 4629,
      "compete": 4630,
      "feat": 4631,
      "couple": 4632,
      "appropriate": 4633,
      "hired": 4634,
      "inn": 4635,
      "upgr": 4636,
      "dobbyn": 4637,
      "invested": 4638,
      "compr": 4639,
      "involve": 4640,
      "##bon": 4641,
      "creating": 4642,
      "aside": 4643,
      "##pta": 4644,
      "89": 4645,
      "works": 4646,
      "wallace": 4647,
      "chanc": 4648,
      "##ulture": 4649,
      "81": 4650,
      "incentives": 4651,
      "93": 4652,
      "##ih": 4653,
      "men": 4654,
      "##field": 4655,
      "ka": 4656,
      "berl": 4657,
      "##ister": 4658,
      "notes": 4659,
      "##liner": 4660,
      "controlled": 4661,
      "##awa": 4662,
      "truck": 4663,
      "looked": 4664,
      "generate": 4665,
      "ten": 4666,
      "military": 4667,
      "94": 4668,
      "status": 4669,
      "nicol": 4670,
      "crucial": 4671,
      "chemical": 4672,
      "##arko": 4673,
      "secure": 4674,
      "fdic": 4675,
      "alcoa": 4676,
      "ts": 4677,
      "dodd": 4678,
      "##ication": 4679,
      "regulations": 4680,
      "##arat": 4681,
      "##part": 4682,
      "pil": 4683,
      "tried": 4684,
      "es": 4685,
      "##ny": 4686,
      "delayed": 4687,
      "gal": 4688,
      "##win": 4689,
      "employers": 4690,
      "eur": 4691,
      "##ef": 4692,
      "soci": 4693,
      "bund": 4694,
      "limits": 4695,
      "os": 4696,
      "ran": 4697,
      "##house": 4698,
      "blue": 4699,
      "sound": 4700,
      "properties": 4701,
      "medical": 4702,
      "##haps": 4703,
      "afford": 4704,
      "gupta": 4705,
      "##bury": 4706,
      "autos": 4707,
      "sustainable": 4708,
      "wait": 4709,
      "approve": 4710,
      "##erber": 4711,
      "cisco": 4712,
      "deflation": 4713,
      "simon": 4714,
      "attractive": 4715,
      "draft": 4716,
      "96": 4717,
      "correct": 4718,
      "##110": 4719,
      "valued": 4720,
      "headqu": 4721,
      "perhaps": 4722,
      "opened": 4723,
      "alliance": 4724,
      "wholes": 4725,
      "effectively": 4726,
      "##angu": 4727,
      "bure": 4728,
      "##ously": 4729,
      "minor": 4730,
      "cards": 4731,
      "advisory": 4732,
      "sar": 4733,
      "volumes": 4734,
      "unus": 4735,
      "outcome": 4736,
      "##ification": 4737,
      "acknowled": 4738,
      "##inger": 4739,
      "mos": 4740,
      "manip": 4741,
      "##offs": 4742,
      "nob": 4743,
      "bringing": 4744,
      "reput": 4745,
      "task": 4746,
      "kenneth": 4747,
      "bm": 4748,
      "perman": 4749,
      "seeks": 4750,
      "bul": 4751,
      "##2009": 4752,
      "outstanding": 4753,
      "hung": 4754,
      "##icut": 4755,
      "##ivity": 4756,
      "ske": 4757,
      "transpar": 4758,
      "taxpayer": 4759,
      "copper": 4760,
      "##ena": 4761,
      "##arding": 4762,
      "connecticut": 4763,
      "comfort": 4764,
      "slid": 4765,
      "##wart": 4766,
      "bob": 4767,
      "disclosed": 4768,
      "draghi": 4769,
      "match": 4770,
      "technologies": 4771,
      "##otive": 4772,
      "carolina": 4773,
      "bets": 4774,
      "regard": 4775,
      "responsible": 4776,
      "predicted": 4777,
      "coffee": 4778,
      "##kei": 4779,
      "nikkei": 4780,
      "space": 4781,
      "2002": 4782,
      "hall": 4783,
      "jets": 4784,
      "calling": 4785,
      "prud": 4786,
      "disney": 4787,
      "coalition": 4788,
      "cast": 4789,
      "separately": 4790,
      "idusw": 4791,
      "##iffs": 4792,
      "mcc": 4793,
      "table": 4794,
      "institutional": 4795,
      "henry": 4796,
      "##cker": 4797,
      "recapital": 4798,
      "instru": 4799,
      "##rock": 4800,
      "opin": 4801,
      "criticized": 4802,
      "##ole": 4803,
      "jess": 4804,
      "via": 4805,
      "##iber": 4806,
      "##ps": 4807,
      "believed": 4808,
      "obligations": 4809,
      "##fsky": 4810,
      "##ode": 4811,
      "digit": 4812,
      "##ros": 4813,
      "penney": 4814,
      "##well": 4815,
      "##ika": 4816,
      "bub": 4817,
      "globally": 4818,
      "pasch": 4819,
      "boosting": 4820,
      "ebay": 4821,
      "trouble": 4822,
      "nav": 4823,
      "tied": 4824,
      "factor": 4825,
      "trends": 4826,
      "solar": 4827,
      "wage": 4828,
      "platform": 4829,
      "##uations": 4830,
      "##imes": 4831,
      "document": 4832,
      "lowered": 4833,
      "react": 4834,
      "discussed": 4835,
      "du": 4836,
      "##ateg": 4837,
      "##leg": 4838,
      "imm": 4839,
      "##aram": 4840,
      "carriers": 4841,
      "cs": 4842,
      "silver": 4843,
      "##van": 4844,
      "##oni": 4845,
      "upd": 4846,
      "values": 4847,
      "pfizer": 4848,
      "check": 4849,
      "scrutiny": 4850,
      "bids": 4851,
      "automotive": 4852,
      "stabilize": 4853,
      "dh": 4854,
      "exc": 4855,
      "macro": 4856,
      "heads": 4857,
      "supervis": 4858,
      "original": 4859,
      "##olf": 4860,
      "content": 4861,
      "subsidi": 4862,
      "##kr": 4863,
      "remarks": 4864,
      "described": 4865,
      "penal": 4866,
      "belg": 4867,
      "recommend": 4868,
      "chancell": 4869,
      "holl": 4870,
      "tro": 4871,
      "##ship": 4872,
      "##heed": 4873,
      "woes": 4874,
      "potash": 4875,
      "obviously": 4876,
      "foreclosures": 4877,
      "convert": 4878,
      "multiple": 4879,
      "gone": 4880,
      "mov": 4881,
      "cell": 4882,
      "apart": 4883,
      "mcdonald": 4884,
      "##mond": 4885,
      "views": 4886,
      "height": 4887,
      "displ": 4888,
      "##ria": 4889,
      "1990": 4890,
      "lockheed": 4891,
      "deeper": 4892,
      "lev": 4893,
      "frag": 4894,
      "succeed": 4895,
      "##plus": 4896,
      "chancellor": 4897,
      "windows": 4898,
      "##pi": 4899,
      "appreci": 4900,
      "bloom": 4901,
      "categ": 4902,
      "stick": 4903,
      "ill": 4904,
      "crack": 4905,
      "resolution": 4906,
      "hay": 4907,
      "refus": 4908,
      "reass": 4909,
      "steven": 4910,
      "turning": 4911,
      "##wa": 4912,
      "governance": 4913,
      "aluminum": 4914,
      "smartphone": 4915,
      "abn": 4916,
      "community": 4917,
      "##aratnam": 4918,
      "marc": 4919,
      "marked": 4920,
      "payout": 4921,
      "##ute": 4922,
      "ordered": 4923,
      "##oud": 4924,
      "critics": 4925,
      "joseph": 4926,
      "hoped": 4927,
      "##ftc": 4928,
      "confl": 4929,
      "##owski": 4930,
      "##illar": 4931,
      "##itative": 4932,
      "unclear": 4933,
      "##comm": 4934,
      "promised": 4935,
      "crash": 4936,
      "island": 4937,
      "perm": 4938,
      "##room": 4939,
      "cater": 4940,
      "sque": 4941,
      "##eted": 4942,
      "ira": 4943,
      "##erating": 4944,
      "advance": 4945,
      "bnp": 4946,
      "##eller": 4947,
      "active": 4948,
      "responsibility": 4949,
      "sells": 4950,
      "investigations": 4951,
      "##ainment": 4952,
      "alan": 4953,
      "strengthen": 4954,
      "debts": 4955,
      "cftc": 4956,
      "ell": 4957,
      "calc": 4958,
      "##aylor": 4959,
      "##my": 4960,
      "ipad": 4961,
      "##uded": 4962,
      "damages": 4963,
      "cliff": 4964,
      "understand": 4965,
      "somewh": 4966,
      "somewhat": 4967,
      "chips": 4968,
      "message": 4969,
      "wages": 4970,
      "join": 4971,
      "surprised": 4972,
      "magaz": 4973,
      "elsewhere": 4974,
      "projected": 4975,
      "opposed": 4976,
      "##ho": 4977,
      "founded": 4978,
      "producers": 4979,
      "argu": 4980,
      "##bert": 4981,
      "jenn": 4982,
      "spring": 4983,
      "clearing": 4984,
      "##airs": 4985,
      "##mart": 4986,
      "korean": 4987,
      "layoffs": 4988,
      "drilling": 4989,
      "##gu": 4990,
      "rajaratnam": 4991,
      "gather": 4992,
      "segment": 4993,
      "##ua": 4994,
      "ruled": 4995,
      "edged": 4996,
      "##icated": 4997,
      "##aling": 4998,
      "indones": 4999,
      "counterpart": 5000,
      "oun": 5001,
      "deficits": 5002,
      "##backs": 5003,
      "indicated": 5004,
      "##ete": 5005,
      "##cher": 5006,
      "illeg": 5007,
      "circuit": 5008,
      "powers": 5009,
      "acquire": 5010,
      "collaps": 5011,
      "rall": 5012,
      "squeez": 5013,
      "sarko": 5014,
      "pointed": 5015,
      "spons": 5016,
      "enforcement": 5017,
      "stood": 5018,
      "sort": 5019,
      "##ifying": 5020,
      "patrick": 5021,
      "nomura": 5022,
      "kick": 5023,
      "##orm": 5024,
      "spin": 5025,
      "pursue": 5026,
      "eased": 5027,
      "involving": 5028,
      "sarkozy": 5029,
      "cme": 5030,
      "jac": 5031,
      "row": 5032,
      "structural": 5033,
      "92": 5034,
      "facilities": 5035,
      "##onym": 5036,
      "##ada": 5037,
      "whe": 5038,
      "records": 5039,
      "combination": 5040,
      "cycle": 5041,
      "petrole": 5042,
      "consistent": 5043,
      "##ita": 5044,
      "shop": 5045,
      "twice": 5046,
      "quantitative": 5047,
      "conflict": 5048,
      "ken": 5049,
      "##erc": 5050,
      "scenario": 5051,
      "sued": 5052,
      "supplier": 5053,
      "##can": 5054,
      "minimum": 5055,
      "hyund": 5056,
      "cool": 5057,
      "moderate": 5058,
      "chap": 5059,
      "channel": 5060,
      "##ecutive": 5061,
      "intervention": 5062,
      "##ught": 5063,
      "ing": 5064,
      "allows": 5065,
      "appointed": 5066,
      "hyundai": 5067,
      "hurd": 5068,
      "proxy": 5069,
      "christop": 5070,
      "wake": 5071,
      "ryan": 5072,
      "backing": 5073,
      "##road": 5074,
      "##idd": 5075,
      "child": 5076,
      "metals": 5077,
      "mitsu": 5078,
      "isn": 5079,
      "delays": 5080,
      "representative": 5081,
      "jean": 5082,
      "miller": 5083,
      "van": 5084,
      "##iveness": 5085,
      "persist": 5086,
      "petroleum": 5087,
      "eastern": 5088,
      "##burg": 5089,
      "wholesale": 5090,
      "carmaker": 5091,
      "determine": 5092,
      "##ifer": 5093,
      "encouraging": 5094,
      "vul": 5095,
      "slugg": 5096,
      "sluggish": 5097,
      "tick": 5098,
      "restore": 5099,
      "olympus": 5100,
      "##visions": 5101,
      "asking": 5102,
      "exclusive": 5103,
      "reluct": 5104,
      "provides": 5105,
      "surprising": 5106,
      "overnight": 5107,
      "##into": 5108,
      "120": 5109,
      "hoping": 5110,
      "headquarters": 5111,
      "hou": 5112,
      "upward": 5113,
      "consulting": 5114,
      "danger": 5115,
      "prove": 5116,
      "inspect": 5117,
      "efficient": 5118,
      "impl": 5119,
      "pledged": 5120,
      "surplus": 5121,
      "##abilities": 5122,
      "##ulated": 5123,
      "plaint": 5124,
      "##orp": 5125,
      "fisher": 5126,
      "##pan": 5127,
      "timing": 5128,
      "device": 5129,
      "ram": 5130,
      "rare": 5131,
      "##ini": 5132,
      "francs": 5133,
      "##ked": 5134,
      "choice": 5135,
      "volks": 5136,
      "towards": 5137,
      "##phia": 5138,
      "##ients": 5139,
      "##rain": 5140,
      "storm": 5141,
      "puts": 5142,
      "voted": 5143,
      "failing": 5144,
      "leak": 5145,
      "downward": 5146,
      "##ban": 5147,
      "tougher": 5148,
      "reputation": 5149,
      "log": 5150,
      "engin": 5151,
      "hike": 5152,
      "computers": 5153,
      "orr": 5154,
      "pct": 5155,
      "watched": 5156,
      "##ren": 5157,
      "statements": 5158,
      "file": 5159,
      "thinking": 5160,
      "las": 5161,
      "evans": 5162,
      "volksw": 5163,
      "##aces": 5164,
      "component": 5165,
      "discussion": 5166,
      "##othy": 5167,
      "extrem": 5168,
      "vow": 5169,
      "vod": 5170,
      "gar": 5171,
      "outs": 5172,
      "##dog": 5173,
      "##bal": 5174,
      "regions": 5175,
      "plunged": 5176,
      "volkswagen": 5177,
      "rod": 5178,
      "tai": 5179,
      "##oration": 5180,
      "night": 5181,
      "challenging": 5182,
      "entert": 5183,
      "pact": 5184,
      "##ll": 5185,
      "sem": 5186,
      "formal": 5187,
      "weakening": 5188,
      "disp": 5189,
      "##encore": 5190,
      "transportation": 5191,
      "rh": 5192,
      "socgen": 5193,
      "glencore": 5194,
      "homeown": 5195,
      "ok": 5196,
      "pent": 5197,
      "##bu": 5198,
      "compliance": 5199,
      "consort": 5200,
      "opinion": 5201,
      "kkr": 5202,
      "prison": 5203,
      "operators": 5204,
      "permanent": 5205,
      "##ca": 5206,
      "timothy": 5207,
      "oversee": 5208,
      "chains": 5209,
      "##rovers": 5210,
      "consecutive": 5211,
      "reasons": 5212,
      "leverage": 5213,
      "##eps": 5214,
      "innov": 5215,
      "christopher": 5216,
      "downs": 5217,
      "##omo": 5218,
      "extent": 5219,
      "age": 5220,
      "cham": 5221,
      "##eph": 5222,
      "##urch": 5223,
      "triggered": 5224,
      "residential": 5225,
      "cooperation": 5226,
      "relative": 5227,
      "91": 5228,
      "900": 5229,
      "summ": 5230,
      "jennifer": 5231,
      "jp": 5232,
      "struck": 5233,
      "waiting": 5234,
      "controvers": 5235,
      "influence": 5236,
      "##self": 5237,
      "slashed": 5238,
      "usually": 5239,
      "bailouts": 5240,
      "watchdog": 5241,
      "cheaper": 5242,
      "earthqu": 5243,
      "rum": 5244,
      "merck": 5245,
      "powerful": 5246,
      "jury": 5247,
      "beg": 5248,
      "frequ": 5249,
      "bloomberg": 5250,
      "noting": 5251,
      "contact": 5252,
      "vulner": 5253,
      "madrid": 5254,
      "maybe": 5255,
      "consortium": 5256,
      "ahn": 5257,
      "disaster": 5258,
      "valuation": 5259,
      "discover": 5260,
      "shore": 5261,
      "tarp": 5262,
      "frame": 5263,
      "threatened": 5264,
      "skept": 5265,
      "##araman": 5266,
      "pence": 5267,
      "anonym": 5268,
      "confirm": 5269,
      "unable": 5270,
      "intended": 5271,
      "equival": 5272,
      "lp": 5273,
      "cerber": 5274,
      "trich": 5275,
      "establish": 5276,
      "cerberus": 5277,
      "thr": 5278,
      "charter": 5279,
      "senator": 5280,
      "purchasing": 5281,
      "easier": 5282,
      "cities": 5283,
      "trichet": 5284,
      "hon": 5285,
      "affili": 5286,
      "select": 5287,
      "mr": 5288,
      "##ecd": 5289,
      "curb": 5290,
      "absol": 5291,
      "metal": 5292,
      "magazine": 5293,
      "master": 5294,
      "shipments": 5295,
      "iraq": 5296,
      "body": 5297,
      "sky": 5298,
      "philadel": 5299,
      "##immer": 5300,
      "fastest": 5301,
      "philadelphia": 5302,
      "##ustr": 5303,
      "taylor": 5304,
      "foods": 5305,
      "coordin": 5306,
      "feed": 5307,
      "reflecting": 5308,
      "originally": 5309,
      "stream": 5310,
      "raises": 5311,
      "emerged": 5312,
      "radio": 5313,
      "mixed": 5314,
      "burden": 5315,
      "outperform": 5316,
      "guarantees": 5317,
      "warren": 5318,
      "distribut": 5319,
      "houston": 5320,
      "peers": 5321,
      "shown": 5322,
      "presence": 5323,
      "uncertain": 5324,
      "taiwan": 5325,
      "throughout": 5326,
      "cow": 5327,
      "##ishi": 5328,
      "##sel": 5329,
      "fleet": 5330,
      "hack": 5331,
      "##reg": 5332,
      "door": 5333,
      "provider": 5334,
      "developments": 5335,
      "dreamliner": 5336,
      "votes": 5337,
      "##star": 5338,
      "##ii": 5339,
      "pool": 5340,
      "##itely": 5341,
      "arb": 5342,
      "pulled": 5343,
      "latin": 5344,
      "participants": 5345,
      "rapidly": 5346,
      "laur": 5347,
      "introduced": 5348,
      "headed": 5349,
      "extremely": 5350,
      "tap": 5351,
      "##isf": 5352,
      "consequ": 5353,
      "mechanism": 5354,
      "ounce": 5355,
      "halt": 5356,
      "associates": 5357,
      "beating": 5358,
      "##glom": 5359,
      "crow": 5360,
      "struggled": 5361,
      "edge": 5362,
      "breach": 5363,
      "conglom": 5364,
      "engines": 5365,
      "practice": 5366,
      "smartphones": 5367,
      "cabin": 5368,
      "depot": 5369,
      "appeals": 5370,
      "vari": 5371,
      "##uro": 5372,
      "exact": 5373,
      "##itten": 5374,
      "disclose": 5375,
      "supervision": 5376,
      "aviation": 5377,
      "lagard": 5378,
      "fro": 5379,
      "andrea": 5380,
      "##eless": 5381,
      "##imony": 5382,
      "operate": 5383,
      "burn": 5384,
      "fox": 5385,
      "earthquake": 5386,
      "##ado": 5387,
      "provision": 5388,
      "blamed": 5389,
      "healthy": 5390,
      "households": 5391,
      "##istics": 5392,
      "##away": 5393,
      "bmw": 5394,
      "wave": 5395,
      "msc": 5396,
      "stopped": 5397,
      "impr": 5398,
      "joe": 5399,
      "stance": 5400,
      "median": 5401,
      "subsidies": 5402,
      "creation": 5403,
      "##itedown": 5404,
      "jessica": 5405,
      "priority": 5406,
      "##35": 5407,
      "writedown": 5408,
      "##ope": 5409,
      "##34": 5410,
      "played": 5411,
      "trustee": 5412,
      "sac": 5413,
      "vac": 5414,
      "##orf": 5415,
      "##ower": 5416,
      "requests": 5417,
      "cos": 5418,
      "fid": 5419,
      "##izes": 5420,
      "weighed": 5421,
      "##erly": 5422,
      "flows": 5423,
      "ches": 5424,
      "distribution": 5425,
      "##born": 5426,
      "established": 5427,
      "acknowledged": 5428,
      "serve": 5429,
      "##equ": 5430,
      "educ": 5431,
      "##apeake": 5432,
      "chesapeake": 5433,
      "##erry": 5434,
      "ice": 5435,
      "##ima": 5436,
      "representing": 5437,
      "bolster": 5438,
      "spir": 5439,
      "schae": 5440,
      "ties": 5441,
      "insight": 5442,
      "##iller": 5443,
      "type": 5444,
      "lifted": 5445,
      "dimon": 5446,
      "tier": 5447,
      "scot": 5448,
      "strongly": 5449,
      "reiterated": 5450,
      "presidential": 5451,
      "felt": 5452,
      "sheets": 5453,
      "delivered": 5454,
      "missed": 5455,
      "hybrid": 5456,
      "##fc": 5457,
      "workforce": 5458,
      "##ule": 5459,
      "tit": 5460,
      "resort": 5461,
      "returned": 5462,
      "chapter": 5463,
      "subscrib": 5464,
      "pmi": 5465,
      "reaching": 5466,
      "entertainment": 5467,
      "##beat": 5468,
      "whit": 5469,
      "shot": 5470,
      "holland": 5471,
      "##enger": 5472,
      "downside": 5473,
      "mergers": 5474,
      "homeowners": 5475,
      "stepped": 5476,
      "floor": 5477,
      "##mt": 5478,
      "airport": 5479,
      "square": 5480,
      "decl": 5481,
      "testimony": 5482,
      "mel": 5483,
      "neil": 5484,
      "teleph": 5485,
      "##tz": 5486,
      "sensitive": 5487,
      "##ospace": 5488,
      "ranging": 5489,
      "##issions": 5490,
      "operates": 5491,
      "arabia": 5492,
      "harder": 5493,
      "oh": 5494,
      "send": 5495,
      "qat": 5496,
      "diss": 5497,
      "##iro": 5498,
      "demon": 5499,
      "filings": 5500,
      "century": 5501,
      "aerospace": 5502,
      "multi": 5503,
      "##point": 5504,
      "thirds": 5505,
      "club": 5506,
      "driver": 5507,
      "holders": 5508,
      "haw": 5509,
      "wat": 5510,
      "##aid": 5511,
      "##zz": 5512,
      "bav": 5513,
      "##ico": 5514,
      "renewed": 5515,
      "string": 5516,
      "caterp": 5517,
      "caterpillar": 5518,
      "gro": 5519,
      "print": 5520,
      "continental": 5521,
      "assistance": 5522,
      "##coming": 5523,
      "appet": 5524,
      "convict": 5525,
      "reflected": 5526,
      "eth": 5527,
      "begun": 5528,
      "intens": 5529,
      "warn": 5530,
      "wto": 5531,
      "130": 5532,
      "blackrock": 5533,
      "##kins": 5534,
      "corrupt": 5535,
      "##nes": 5536,
      "barg": 5537,
      "hint": 5538,
      "stall": 5539,
      "town": 5540,
      "represented": 5541,
      "pickup": 5542,
      "dividends": 5543,
      "shortfall": 5544,
      "veter": 5545,
      "##utical": 5546,
      "cadbury": 5547,
      "##xx": 5548,
      "soy": 5549,
      "instruments": 5550,
      "trip": 5551,
      "mind": 5552,
      "environmental": 5553,
      "##utions": 5554,
      "rail": 5555,
      "##umber": 5556,
      "##203": 5557,
      "ends": 5558,
      "eag": 5559,
      "disappointed": 5560,
      "##va": 5561,
      "##atically": 5562,
      "underscor": 5563,
      "eval": 5564,
      "rog": 5565,
      "##mas": 5566,
      "abroad": 5567,
      "experi": 5568,
      "##etts": 5569,
      "kat": 5570,
      "doubts": 5571,
      "equivalent": 5572,
      "tighter": 5573,
      "##oto": 5574,
      "reorgan": 5575,
      "emily": 5576,
      "robin": 5577,
      "fairly": 5578,
      "doubled": 5579,
      "##wise": 5580,
      "##aware": 5581,
      "disclosure": 5582,
      "individuals": 5583,
      "friend": 5584,
      "patents": 5585,
      "cnbc": 5586,
      "hikes": 5587,
      "##ties": 5588,
      "upside": 5589,
      "lloyds": 5590,
      "langu": 5591,
      "##ene": 5592,
      "##2006": 5593,
      "##ders": 5594,
      "##quir": 5595,
      "encourage": 5596,
      "switch": 5597,
      "##inn": 5598,
      "##onduct": 5599,
      "obs": 5600,
      "son": 5601,
      "commissioner": 5602,
      "saab": 5603,
      "##achus": 5604,
      "basel": 5605,
      "idusbre88": 5606,
      "rallied": 5607,
      "ign": 5608,
      "placed": 5609,
      "respectively": 5610,
      "##apl": 5611,
      "demands": 5612,
      "gaining": 5613,
      "argent": 5614,
      "g7": 5615,
      "##wood": 5616,
      "spoke": 5617,
      "dealer": 5618,
      "struggle": 5619,
      "shutdown": 5620,
      "amounts": 5621,
      "##ele": 5622,
      "insist": 5623,
      "contributed": 5624,
      "gra": 5625,
      "sanctions": 5626,
      "self": 5627,
      "sidelines": 5628,
      "ramp": 5629,
      "portion": 5630,
      "magn": 5631,
      "happened": 5632,
      "bureau": 5633,
      "indonesia": 5634,
      "hew": 5635,
      "soared": 5636,
      "seasonally": 5637,
      "charl": 5638,
      "finally": 5639,
      "##aceutical": 5640,
      "wealthy": 5641,
      "appetite": 5642,
      "cu": 5643,
      "##adow": 5644,
      "soaring": 5645,
      "maure": 5646,
      "served": 5647,
      "util": 5648,
      "vast": 5649,
      "assessment": 5650,
      "conglomerate": 5651,
      "fighting": 5652,
      "determined": 5653,
      "idustre49": 5654,
      "forcing": 5655,
      "unpre": 5656,
      "supre": 5657,
      "tools": 5658,
      "dealing": 5659,
      "investigating": 5660,
      "exter": 5661,
      "himself": 5662,
      "sufficient": 5663,
      "karen": 5664,
      "enterprise": 5665,
      "grown": 5666,
      "##po": 5667,
      "bb": 5668,
      "maureen": 5669,
      "##inated": 5670,
      "sustained": 5671,
      "therefore": 5672,
      "batt": 5673,
      "remo": 5674,
      "diam": 5675,
      "rand": 5676,
      "tab": 5677,
      "resume": 5678,
      "brew": 5679,
      "##igence": 5680,
      "tran": 5681,
      "targeted": 5682,
      "jason": 5683,
      "##omen": 5684,
      "regarding": 5685,
      "##ibas": 5686,
      "palm": 5687,
      "trib": 5688,
      "dun": 5689,
      "tinto": 5690,
      "decre": 5691,
      "refinery": 5692,
      "orlo": 5693,
      "requires": 5694,
      "stag": 5695,
      "dismissed": 5696,
      "counsel": 5697,
      "yell": 5698,
      "servic": 5699,
      "effici": 5700,
      "commitments": 5701,
      "orlofsky": 5702,
      "##uth": 5703,
      "depression": 5704,
      "ks": 5705,
      "aware": 5706,
      "pharmaceutical": 5707,
      "underm": 5708,
      "broadly": 5709,
      "telephone": 5710,
      "hur": 5711,
      "ped": 5712,
      "##key": 5713,
      "motion": 5714,
      "##strata": 5715,
      "standing": 5716,
      "tour": 5717,
      "definitely": 5718,
      "ech": 5719,
      "##cedented": 5720,
      "associated": 5721,
      "unprecedented": 5722,
      "##apers": 5723,
      "proceeds": 5724,
      "principal": 5725,
      "##dek": 5726,
      "unn": 5727,
      "emph": 5728,
      "christmas": 5729,
      "games": 5730,
      "##eled": 5731,
      "inside": 5732,
      "unexpectedly": 5733,
      "liby": 5734,
      "##oned": 5735,
      "mobil": 5736,
      "bavdek": 5737,
      "197": 5738,
      "page": 5739,
      "display": 5740,
      "walmart": 5741,
      "baker": 5742,
      "##lein": 5743,
      "##ears": 5744,
      "sparked": 5745,
      "plaintiffs": 5746,
      "paribas": 5747,
      "lagarde": 5748,
      "seat": 5749,
      "awa": 5750,
      "neither": 5751,
      "xstrata": 5752,
      "seoul": 5753,
      "player": 5754,
      "centers": 5755,
      "oecd": 5756,
      "zimmer": 5757,
      "volunt": 5758,
      "ftse": 5759,
      "##uge": 5760,
      "##enda": 5761,
      "##iyama": 5762,
      "##itory": 5763,
      "leveraged": 5764,
      "cook": 5765,
      "signaled": 5766,
      "phase": 5767,
      "recorded": 5768,
      "answer": 5769,
      "pand": 5770,
      "inquir": 5771,
      "offices": 5772,
      "winning": 5773,
      "flights": 5774,
      "illegal": 5775,
      "collapsed": 5776,
      "##36": 5777,
      "##45": 5778,
      "##elling": 5779,
      "apply": 5780,
      "twitter": 5781,
      "##cz": 5782,
      "restrictions": 5783,
      "diamond": 5784,
      "melt": 5785,
      "##heim": 5786,
      "exception": 5787,
      "climate": 5788,
      "sports": 5789,
      "privately": 5790,
      "vulnerable": 5791,
      "supreme": 5792,
      "barry": 5793,
      "##afone": 5794,
      "vodafone": 5795,
      "repeatedly": 5796,
      "mir": 5797,
      "qe": 5798,
      "bright": 5799,
      "external": 5800,
      "refinancing": 5801,
      "ta": 5802,
      "##lined": 5803,
      "viewed": 5804,
      "enh": 5805,
      "generated": 5806,
      "massachus": 5807,
      "comprom": 5808,
      "ads": 5809,
      "repurch": 5810,
      "tablet": 5811,
      "excessive": 5812,
      "reasonable": 5813,
      "emphas": 5814,
      "massachusetts": 5815,
      "proced": 5816,
      "##oney": 5817,
      "ceiling": 5818,
      "departure": 5819,
      "minority": 5820,
      "vw": 5821,
      "110": 5822,
      "concessions": 5823,
      "satisf": 5824,
      "miles": 5825,
      "climb": 5826,
      "##37": 5827,
      "##onext": 5828,
      "components": 5829,
      "##ology": 5830,
      "outr": 5831,
      "conducted": 5832,
      "atlanta": 5833,
      "ow": 5834,
      "imposed": 5835,
      "art": 5836,
      "aggressively": 5837,
      "sarah": 5838,
      "boun": 5839,
      "##roid": 5840,
      "##apping": 5841,
      "questioned": 5842,
      "barr": 5843,
      "bidders": 5844,
      "fly": 5845,
      "##iet": 5846,
      "live": 5847,
      "bidding": 5848,
      "pentagon": 5849,
      "##enz": 5850,
      "visit": 5851,
      "dyn": 5852,
      "keen": 5853,
      "venez": 5854,
      "##olog": 5855,
      "##otte": 5856,
      "qatar": 5857,
      "convers": 5858,
      "pun": 5859,
      "##ague": 5860,
      "tackle": 5861,
      "venezuel": 5862,
      "##ano": 5863,
      "reverse": 5864,
      "##iles": 5865,
      "follows": 5866,
      "idusbre85": 5867,
      "flash": 5868,
      "affairs": 5869,
      "bubble": 5870,
      "android": 5871,
      "##illy": 5872,
      "##ket": 5873,
      "troubles": 5874,
      "msci": 5875,
      "intell": 5876,
      "obtained": 5877,
      "cameron": 5878,
      "costly": 5879,
      "gmac": 5880,
      "idusbre89": 5881,
      "unr": 5882,
      "dere": 5883,
      "##ucker": 5884,
      "##ien": 5885,
      "topped": 5886,
      "euronext": 5887,
      "complaints": 5888,
      "mention": 5889,
      "wy": 5890,
      "##eping": 5891,
      "transfer": 5892,
      "transparency": 5893,
      "##ilipp": 5894,
      "virt": 5895,
      "sites": 5896,
      "jacob": 5897,
      "350": 5898,
      "constit": 5899,
      "1990s": 5900,
      "slo": 5901,
      "ze": 5902,
      "text": 5903,
      "subscribers": 5904,
      "accounted": 5905,
      "indicators": 5906,
      "produced": 5907,
      "contain": 5908,
      "reflects": 5909,
      "circum": 5910,
      "fundamentals": 5911,
      "helps": 5912,
      "offerings": 5913,
      "human": 5914,
      "emerge": 5915,
      "cancer": 5916,
      "##46": 5917,
      "recovering": 5918,
      "argue": 5919,
      "mist": 5920,
      "dc": 5921,
      "sor": 5922,
      "spect": 5923,
      "mary": 5924,
      "flexibility": 5925,
      "unl": 5926,
      "##stre": 5927,
      "arrange": 5928,
      "bulk": 5929,
      "zur": 5930,
      "##card": 5931,
      "inj": 5932,
      "reluctant": 5933,
      "demonstr": 5934,
      "philipp": 5935,
      "true": 5936,
      "##bler": 5937,
      "wrongdo": 5938,
      "##eland": 5939,
      "wouldn": 5940,
      "harm": 5941,
      "candidate": 5942,
      "preparing": 5943,
      "##rew": 5944,
      "spur": 5945,
      "boss": 5946,
      "tensions": 5947,
      "##dict": 5948,
      "cfo": 5949,
      "dipped": 5950,
      "triple": 5951,
      "coc": 5952,
      "enj": 5953,
      "williams": 5954,
      "rom": 5955,
      "tie": 5956,
      "##hart": 5957,
      "##ami": 5958,
      "##39": 5959,
      "arbitr": 5960,
      "expectation": 5961,
      "seattle": 5962,
      "lif": 5963,
      "park": 5964,
      "##umm": 5965,
      "weakened": 5966,
      "merchand": 5967,
      "forum": 5968,
      "completely": 5969,
      "spreads": 5970,
      "sized": 5971,
      "toll": 5972,
      "corn": 5973,
      "strategies": 5974,
      "##uble": 5975,
      "victim": 5976,
      "ohio": 5977,
      "anyone": 5978,
      "mounting": 5979,
      "ron": 5980,
      "consp": 5981,
      "##umar": 5982,
      "##icit": 5983,
      "unlike": 5984,
      "zurich": 5985,
      "##atory": 5986,
      "editor": 5987,
      "easily": 5988,
      "sym": 5989,
      "audit": 5990,
      "integration": 5991,
      "charlotte": 5992,
      "##ux": 5993,
      "headline": 5994,
      "chizu": 5995,
      "replaced": 5996,
      "bullish": 5997,
      "indeed": 5998,
      "fueled": 5999,
      "nomiyama": 6000,
      "defendants": 6001,
      "zimmerman": 6002,
      "cabinet": 6003,
      "analy": 6004,
      "written": 6005,
      "urg": 6006,
      "engineering": 6007,
      "visa": 6008,
      "notice": 6009,
      "iduswn": 6010,
      "revealed": 6011,
      "macy": 6012,
      "mitsub": 6013,
      "slowly": 6014,
      "advised": 6015,
      "turb": 6016,
      "treatment": 6017,
      "basket": 6018,
      "atlantic": 6019,
      "emp": 6020,
      "weakest": 6021,
      "magna": 6022,
      "funded": 6023,
      "mitsubishi": 6024,
      "abb": 6025,
      "betting": 6026,
      "drawn": 6027,
      "entered": 6028,
      "notch": 6029,
      "##place": 6030,
      "paschal": 6031,
      "mell": 6032,
      "broke": 6033,
      "producing": 6034,
      "provisions": 6035,
      "glenn": 6036,
      "memo": 6037,
      "adopt": 6038,
      "passenger": 6039,
      "missing": 6040,
      "##embly": 6041,
      "deg": 6042,
      "brid": 6043,
      "##ersh": 6044,
      "meltdown": 6045,
      "ble": 6046,
      "discounts": 6047,
      "apparel": 6048,
      "wrongdoing": 6049,
      "##ette": 6050,
      "rush": 6051,
      "assembly": 6052,
      "women": 6053,
      "##use": 6054,
      "adm": 6055,
      "subsidiary": 6056,
      "watching": 6057,
      "##gle": 6058,
      "strongest": 6059,
      "matur": 6060,
      "focusing": 6061,
      "authorized": 6062,
      "avert": 6063,
      "cla": 6064,
      "bay": 6065,
      "##ites": 6066,
      "install": 6067,
      "distressed": 6068,
      "posts": 6069,
      "restructure": 6070,
      "##58": 6071,
      "suv": 6072,
      "sets": 6073,
      "siem": 6074,
      "##pass": 6075,
      "southeast": 6076,
      "handle": 6077,
      "munic": 6078,
      "##oked": 6079,
      "contribute": 6080,
      "ga": 6081,
      "fragile": 6082,
      "mul": 6083,
      "##lvan": 6084,
      "##osing": 6085,
      "expense": 6086,
      "##fty": 6087,
      "otherwise": 6088,
      "detailed": 6089,
      "societe": 6090,
      "mine": 6091,
      "##la": 6092,
      "resigned": 6093,
      "branches": 6094,
      "##artis": 6095,
      "pennsy": 6096,
      "utility": 6097,
      "##utely": 6098,
      "basic": 6099,
      "benef": 6100,
      "pennsylvan": 6101,
      "chances": 6102,
      "grand": 6103,
      "schw": 6104,
      "##lands": 6105,
      "pennsylvania": 6106,
      "##ansas": 6107,
      "acting": 6108,
      "restaurants": 6109,
      "veteran": 6110,
      "##rad": 6111,
      "##vant": 6112,
      "dish": 6113,
      "caroline": 6114,
      "playing": 6115,
      "rome": 6116,
      "ross": 6117,
      "aband": 6118,
      "err": 6119,
      "peps": 6120,
      "accomm": 6121,
      "disag": 6122,
      "downgraded": 6123,
      "accommod": 6124,
      "##lett": 6125,
      "schaeuble": 6126,
      "recovered": 6127,
      "1999": 6128,
      "ep": 6129,
      "##group": 6130,
      "##59": 6131,
      "toxic": 6132,
      "shir": 6133,
      "secured": 6134,
      "surveys": 6135,
      "wolf": 6136,
      "delaware": 6137,
      "universal": 6138,
      "kel": 6139,
      "##ka": 6140,
      "dramatic": 6141,
      "##ball": 6142,
      "##ultural": 6143,
      "heading": 6144,
      "defaults": 6145,
      "nerv": 6146,
      "niger": 6147,
      "agenda": 6148,
      "lar": 6149,
      "leah": 6150,
      "idusbre86": 6151,
      "##vo": 6152,
      "solutions": 6153,
      "covered": 6154,
      "##kes": 6155,
      "##inqu": 6156,
      "revive": 6157,
      "survive": 6158,
      "kir": 6159,
      "unusual": 6160,
      "##ecks": 6161,
      "knight": 6162,
      "anonymity": 6163,
      "pors": 6164,
      "##38": 6165,
      "finished": 6166,
      "unfair": 6167,
      "retain": 6168,
      "siemens": 6169,
      "bart": 6170,
      "alloc": 6171,
      "newspapers": 6172,
      "treaty": 6173,
      "##ourg": 6174,
      "purp": 6175,
      "winter": 6176,
      "supporting": 6177,
      "stands": 6178,
      "difference": 6179,
      "illin": 6180,
      "attacks": 6181,
      "raw": 6182,
      "exposed": 6183,
      "receiving": 6184,
      "porsche": 6185,
      "od": 6186,
      "behav": 6187,
      "eyes": 6188,
      "illinois": 6189,
      "credibility": 6190,
      "laid": 6191,
      "negotiating": 6192,
      "doug": 6193,
      "tes": 6194,
      "walk": 6195,
      "incentive": 6196,
      "generale": 6197,
      "famil": 6198,
      "tone": 6199,
      "salary": 6200,
      "listing": 6201,
      "aaa": 6202,
      "knew": 6203,
      "##ooth": 6204,
      "delinqu": 6205,
      "schedule": 6206,
      "##aking": 6207,
      "portfolios": 6208,
      "rach": 6209,
      "cohen": 6210,
      "competing": 6211,
      "families": 6212,
      "##unk": 6213,
      "citiz": 6214,
      "prudential": 6215,
      "##ira": 6216,
      "click": 6217,
      "transition": 6218,
      "budgets": 6219,
      "##elled": 6220,
      "sweet": 6221,
      "ian": 6222,
      "##asion": 6223,
      "sometimes": 6224,
      "##icate": 6225,
      "battered": 6226,
      "function": 6227,
      "yellen": 6228,
      "dozen": 6229,
      "none": 6230,
      "neigh": 6231,
      "advoc": 6232,
      "tep": 6233,
      "municipal": 6234,
      "##uted": 6235,
      "christian": 6236,
      "reli": 6237,
      "arch": 6238,
      "adequ": 6239,
      "idusbre84": 6240,
      "##elli": 6241,
      "shrinking": 6242,
      "##yer": 6243,
      "incident": 6244,
      "##gas": 6245,
      "forces": 6246,
      "territory": 6247,
      "mellon": 6248,
      "sine": 6249,
      "license": 6250,
      "finish": 6251,
      "feet": 6252,
      "1980": 6253,
      "sellers": 6254,
      "scotland": 6255,
      "framework": 6256,
      "discip": 6257,
      "stressed": 6258,
      "##user": 6259,
      "fellow": 6260,
      "manufacturer": 6261,
      "evalu": 6262,
      "##reh": 6263,
      "##imate": 6264,
      "causing": 6265,
      "##bia": 6266,
      "marsh": 6267,
      "shortly": 6268,
      "revamp": 6269,
      "plunge": 6270,
      "glo": 6271,
      "rup": 6272,
      "##rael": 6273,
      "grade": 6274,
      "testing": 6275,
      "fa": 6276,
      "someone": 6277,
      "underperform": 6278,
      "favorable": 6279,
      "##pread": 6280,
      "phys": 6281,
      "israel": 6282,
      "##icki": 6283,
      "death": 6284,
      "##comed": 6285,
      "thin": 6286,
      "nich": 6287,
      "wides": 6288,
      "box": 6289,
      "rick": 6290,
      "frustr": 6291,
      "governing": 6292,
      "##iana": 6293,
      "guard": 6294,
      "dall": 6295,
      "##alf": 6296,
      "transform": 6297,
      "hire": 6298,
      "upbeat": 6299,
      "##enthal": 6300,
      "##lom": 6301,
      "shipping": 6302,
      "bold": 6303,
      "language": 6304,
      "hurr": 6305,
      "##wor": 6306,
      "extraordin": 6307,
      "whate": 6308,
      "reviewing": 6309,
      "picked": 6310,
      "suspended": 6311,
      "whatever": 6312,
      "papers": 6313,
      "interbank": 6314,
      "allen": 6315,
      "widespread": 6316,
      "duties": 6317,
      "living": 6318,
      "iduswen": 6319,
      "productivity": 6320,
      "concent": 6321,
      "revol": 6322,
      "necessarily": 6323,
      "bair": 6324,
      "##abi": 6325,
      "businesspro": 6326,
      "aa": 6327,
      "##iest": 6328,
      "##ski": 6329,
      "gradually": 6330,
      "##phi": 6331,
      "##weight": 6332,
      "patients": 6333,
      "impose": 6334,
      "calm": 6335,
      "##ares": 6336,
      "##rig": 6337,
      "anger": 6338,
      "fash": 6339,
      "rebu": 6340,
      "##pin": 6341,
      "goals": 6342,
      "consequences": 6343,
      "prol": 6344,
      "concentr": 6345,
      "##pg": 6346,
      "##izations": 6347,
      "interven": 6348,
      "circumst": 6349,
      "attr": 6350,
      "storage": 6351,
      "substantially": 6352,
      "franch": 6353,
      "ally": 6354,
      "argentina": 6355,
      "systemic": 6356,
      "exploration": 6357,
      "hewlett": 6358,
      "sinead": 6359,
      "##water": 6360,
      "##cel": 6361,
      "desk": 6362,
      "anton": 6363,
      "cloud": 6364,
      "extension": 6365,
      "qualcomm": 6366,
      "children": 6367,
      "##44": 6368,
      "##ivan": 6369,
      "liabilities": 6370,
      "##iture": 6371,
      "gh": 6372,
      "gib": 6373,
      "signals": 6374,
      "corruption": 6375,
      "##chins": 6376,
      "proc": 6377,
      "politics": 6378,
      "heard": 6379,
      "nbc": 6380,
      "##apt": 6381,
      "absolutely": 6382,
      "bish": 6383,
      "pitt": 6384,
      "peuge": 6385,
      "diplom": 6386,
      "behalf": 6387,
      "chartered": 6388,
      "education": 6389,
      "##bk": 6390,
      "peugeot": 6391,
      "bag": 6392,
      "wip": 6393,
      "barb": 6394,
      "candidates": 6395,
      "rated": 6396,
      "lob": 6397,
      "surf": 6398,
      "##oln": 6399,
      "protests": 6400,
      "telecoms": 6401,
      "anx": 6402,
      "marks": 6403,
      "buys": 6404,
      "becomes": 6405,
      "renault": 6406,
      "pret": 6407,
      "attend": 6408,
      "flood": 6409,
      "tribune": 6410,
      "welcomed": 6411,
      "accepted": 6412,
      "bishop": 6413,
      "##enty": 6414,
      "elev": 6415,
      "ak": 6416,
      "culture": 6417,
      "style": 6418,
      "hits": 6419,
      "bae": 6420,
      "nature": 6421,
      "slumped": 6422,
      "stret": 6423,
      "suffer": 6424,
      "##itious": 6425,
      "greens": 6426,
      "resulting": 6427,
      "reductions": 6428,
      "meth": 6429,
      "esm": 6430,
      "mario": 6431,
      "##umn": 6432,
      "##bev": 6433,
      "pledge": 6434,
      "durable": 6435,
      "premier": 6436,
      "arrested": 6437,
      "ku": 6438,
      "compiled": 6439,
      "##orse": 6440,
      "indicator": 6441,
      "jere": 6442,
      "false": 6443,
      "pitch": 6444,
      "absor": 6445,
      "aol": 6446,
      "##cow": 6447,
      "##encing": 6448,
      "##20081": 6449,
      "sed": 6450,
      "##za": 6451,
      "targeting": 6452,
      "flagship": 6453,
      "750": 6454,
      "wary": 6455,
      "##iced": 6456,
      "rosen": 6457,
      "mandate": 6458,
      "sudd": 6459,
      "era": 6460,
      "##ya": 6461,
      "fedex": 6462,
      "carly": 6463,
      "gevir": 6464,
      "gevirtz": 6465,
      "hosp": 6466,
      "##gs": 6467,
      "expend": 6468,
      "requested": 6469,
      "blockb": 6470,
      "len": 6471,
      "extending": 6472,
      "consultant": 6473,
      "matters": 6474,
      "newly": 6475,
      "accelerate": 6476,
      "warrant": 6477,
      "##hib": 6478,
      "hugh": 6479,
      "blame": 6480,
      "jeremy": 6481,
      "manages": 6482,
      "machines": 6483,
      "mastercard": 6484,
      "sudden": 6485,
      "##anes": 6486,
      "carried": 6487,
      "tonn": 6488,
      "stuck": 6489,
      "victory": 6490,
      "moscow": 6491,
      "parliamentary": 6492,
      "exactly": 6493,
      "promote": 6494,
      "auctions": 6495,
      "reliance": 6496,
      "controversial": 6497,
      "sharing": 6498,
      "bofa": 6499,
      "dropping": 6500,
      "##aphic": 6501,
      "clo": 6502,
      "coverage": 6503,
      "buyback": 6504,
      "tighten": 6505,
      "morningstar": 6506,
      "maximum": 6507,
      "cautioned": 6508,
      "derek": 6509,
      "dark": 6510,
      "hurric": 6511,
      "dated": 6512,
      "fundamental": 6513,
      "highlights": 6514,
      "wasn": 6515,
      "gun": 6516,
      "mas": 6517,
      "##iton": 6518,
      "fields": 6519,
      "cuomo": 6520,
      "rely": 6521,
      "happy": 6522,
      "##onz": 6523,
      "buck": 6524,
      "iduswnas": 6525,
      "compreh": 6526,
      "everybody": 6527,
      "indication": 6528,
      "rub": 6529,
      "liability": 6530,
      "improvements": 6531,
      "subscri": 6532,
      "granted": 6533,
      "##tc": 6534,
      "corporations": 6535,
      "##aska": 6536,
      "fels": 6537,
      "emir": 6538,
      "dominated": 6539,
      "##resp": 6540,
      "miner": 6541,
      "##bro": 6542,
      "##310": 6543,
      "sea": 6544,
      "scope": 6545,
      "spike": 6546,
      "intense": 6547,
      "mack": 6548,
      "##itness": 6549,
      "groupon": 6550,
      "submitted": 6551,
      "benefited": 6552,
      "telling": 6553,
      "fill": 6554,
      "##rum": 6555,
      "performing": 6556,
      "totaled": 6557,
      "vl": 6558,
      "investigators": 6559,
      "##mes": 6560,
      "exerc": 6561,
      "population": 6562,
      "hotel": 6563,
      "gloom": 6564,
      "accord": 6565,
      "jew": 6566,
      "upon": 6567,
      "##rative": 6568,
      "alternatives": 6569,
      "promin": 6570,
      "satell": 6571,
      "claude": 6572,
      "abu": 6573,
      "resili": 6574,
      "##itude": 6575,
      "structured": 6576,
      "geo": 6577,
      "felsenthal": 6578,
      "##erse": 6579,
      "monitoring": 6580,
      "imbal": 6581,
      "regist": 6582,
      "##20121": 6583,
      "enterprises": 6584,
      "confidential": 6585,
      "tonnes": 6586,
      "financials": 6587,
      "##oyed": 6588,
      "lucia": 6589,
      "bishopric": 6590,
      "bernstein": 6591,
      "window": 6592,
      "wilchins": 6593,
      "##ng": 6594,
      "chan": 6595,
      "##erval": 6596,
      "breaking": 6597,
      "gear": 6598,
      "ism": 6599,
      "##graph": 6600,
      "toys": 6601,
      "equal": 6602,
      "stead": 6603,
      "anglo": 6604,
      "catch": 6605,
      "##neft": 6606,
      "feeling": 6607,
      "##ores": 6608,
      "fines": 6609,
      "capitalization": 6610,
      "prompting": 6611,
      "hospital": 6612,
      "blockbuster": 6613,
      "rbc": 6614,
      "##ature": 6615,
      "underval": 6616,
      "difficulties": 6617,
      "swedish": 6618,
      "fashion": 6619,
      "timeline": 6620,
      "drove": 6621,
      "##ikani": 6622,
      "packard": 6623,
      "happens": 6624,
      "mutikani": 6625,
      "bps": 6626,
      "linc": 6627,
      "outl": 6628,
      "##55": 6629,
      "arms": 6630,
      "unw": 6631,
      "clin": 6632,
      "sixth": 6633,
      "##inh": 6634,
      "brook": 6635,
      "fallout": 6636,
      "issuance": 6637,
      "method": 6638,
      "dar": 6639,
      "##ilateral": 6640,
      "iceland": 6641,
      "dalgle": 6642,
      "dalgleish": 6643,
      "ric": 6644,
      "nether": 6645,
      "calcul": 6646,
      "##usc": 6647,
      "lg": 6648,
      "ranks": 6649,
      "##hous": 6650,
      "accom": 6651,
      "delphi": 6652,
      "inflationary": 6653,
      "facts": 6654,
      "idusbre98": 6655,
      "mason": 6656,
      "adam": 6657,
      "encouraged": 6658,
      "hungary": 6659,
      "circumstances": 6660,
      "netherlands": 6661,
      "basically": 6662,
      "primarily": 6663,
      "capt": 6664,
      "independence": 6665,
      "##pective": 6666,
      "cd": 6667,
      "carlyle": 6668,
      "lincoln": 6669,
      "length": 6670,
      "##kov": 6671,
      "joining": 6672,
      "weighing": 6673,
      "berlowitz": 6674,
      "behavior": 6675,
      "ss": 6676,
      "handling": 6677,
      "seemed": 6678,
      "##oda": 6679,
      "pointing": 6680,
      "##stream": 6681,
      "hostile": 6682,
      "comfortable": 6683,
      "foundation": 6684,
      "memory": 6685,
      "packages": 6686,
      "builders": 6687,
      "saving": 6688,
      "midwest": 6689,
      "squeeze": 6690,
      "##ilton": 6691,
      "hein": 6692,
      "infring": 6693,
      "essentially": 6694,
      "tn": 6695,
      "wild": 6696,
      "strengthening": 6697,
      "venezuela": 6698,
      "##iser": 6699,
      "reality": 6700,
      "dallas": 6701,
      "contribution": 6702,
      "headwind": 6703,
      "returning": 6704,
      "broadcast": 6705,
      "mall": 6706,
      "##arth": 6707,
      "pleaded": 6708,
      "belgium": 6709,
      "grebler": 6710,
      "sweeping": 6711,
      "involvement": 6712,
      "refer": 6713,
      "syd": 6714,
      "wheat": 6715,
      "nord": 6716,
      "prefer": 6717,
      "compromise": 6718,
      "450": 6719,
      "competit": 6720,
      "philip": 6721,
      "exempt": 6722,
      "houses": 6723,
      "automob": 6724,
      "##koe": 6725,
      "merchandise": 6726,
      "fost": 6727,
      "unp": 6728,
      "mood": 6729,
      "aapl": 6730,
      "degree": 6731,
      "benkoe": 6732,
      "writedowns": 6733,
      "sue": 6734,
      "northwest": 6735,
      "##anth": 6736,
      "##auss": 6737,
      "privat": 6738,
      "tyco": 6739,
      "##vinced": 6740,
      "wen": 6741,
      "##overs": 6742,
      "inbev": 6743,
      "echo": 6744,
      "differences": 6745,
      "postp": 6746,
      "caught": 6747,
      "##ville": 6748,
      "airpl": 6749,
      "surround": 6750,
      "volcker": 6751,
      "santander": 6752,
      "wmt": 6753,
      "actual": 6754,
      "maintained": 6755,
      "deterioration": 6756,
      "##astic": 6757,
      "##ifting": 6758,
      "globe": 6759,
      "##201206": 6760,
      "damp": 6761,
      "marchion": 6762,
      "hardware": 6763,
      "pk": 6764,
      "interim": 6765,
      "meets": 6766,
      "exporters": 6767,
      "georg": 6768,
      "gill": 6769,
      "comcast": 6770,
      "usual": 6771,
      "libya": 6772,
      "shale": 6773,
      "gray": 6774,
      "balanced": 6775,
      "carbon": 6776,
      "blank": 6777,
      "accelerated": 6778,
      "2020": 6779,
      "##inberg": 6780,
      "lucrative": 6781,
      "##ofi": 6782,
      "fer": 6783,
      "pleased": 6784,
      "clothing": 6785,
      "applied": 6786,
      "vig": 6787,
      "shape": 6788,
      "idusbre99": 6789,
      "welcome": 6790,
      "lobb": 6791,
      "##vent": 6792,
      "1998": 6793,
      "beef": 6794,
      "fidel": 6795,
      "upcoming": 6796,
      "entity": 6797,
      "virginia": 6798,
      "##mill": 6799,
      "777": 6800,
      "marchionne": 6801,
      "nest": 6802,
      "##oli": 6803,
      "indicating": 6804,
      "neut": 6805,
      "##igned": 6806,
      "slim": 6807,
      "jefferies": 6808,
      "sydney": 6809,
      "convince": 6810,
      "borders": 6811,
      "bans": 6812,
      "##47": 6813,
      "divest": 6814,
      "normally": 6815,
      "intention": 6816,
      "activist": 6817,
      "##ym": 6818,
      "whom": 6819,
      "contag": 6820,
      "##ront": 6821,
      "comprehensive": 6822,
      "tent": 6823,
      "wang": 6824,
      "##inal": 6825,
      "indict": 6826,
      "corporation": 6827,
      "onto": 6828,
      "generic": 6829,
      "##201209": 6830,
      "leaves": 6831,
      "kb": 6832,
      "uses": 6833,
      "formed": 6834,
      "alt": 6835,
      "ranked": 6836,
      "escal": 6837,
      "##hner": 6838,
      "nervous": 6839,
      "ded": 6840,
      "dubl": 6841,
      "happening": 6842,
      "##heuser": 6843,
      "anheuser": 6844,
      "##aming": 6845,
      "merc": 6846,
      "advancing": 6847,
      "resistance": 6848,
      "ware": 6849,
      "##den": 6850,
      "voters": 6851,
      "krist": 6852,
      "dublin": 6853,
      "shake": 6854,
      "volvo": 6855,
      "importance": 6856,
      "types": 6857,
      "dhabi": 6858,
      "neutral": 6859,
      "code": 6860,
      "ton": 6861,
      "rupe": 6862,
      "dud": 6863,
      "pim": 6864,
      "sull": 6865,
      "ceos": 6866,
      "perspective": 6867,
      "caney": 6868,
      "rosneft": 6869,
      "monti": 6870,
      "efficiency": 6871,
      "##orate": 6872,
      "bir": 6873,
      "lobby": 6874,
      "witness": 6875,
      "contagion": 6876,
      "hend": 6877,
      "##amic": 6878,
      "deepening": 6879,
      "born": 6880,
      "tens": 6881,
      "##65": 6882,
      "application": 6883,
      "##time": 6884,
      "##unction": 6885,
      "statistics": 6886,
      "cbo": 6887,
      "voluntary": 6888,
      "sullivan": 6889,
      "##wire": 6890,
      "serving": 6891,
      "processing": 6892,
      "category": 6893,
      "rodrig": 6894,
      "inflows": 6895,
      "brazilian": 6896,
      "wah": 6897,
      "125": 6898,
      "cert": 6899,
      "##n0": 6900,
      "##hol": 6901,
      "sanofi": 6902,
      "fidelity": 6903,
      "lse": 6904,
      "hefty": 6905,
      "solve": 6906,
      "concluded": 6907,
      "aren": 6908,
      "sears": 6909,
      "##iconduct": 6910,
      "inquiry": 6911,
      "pimco": 6912,
      "##sson": 6913,
      "semiconduct": 6914,
      "cam": 6915,
      "##unes": 6916,
      "shrank": 6917,
      "hub": 6918,
      "mull": 6919,
      "##agr": 6920,
      "trem": 6921,
      "constr": 6922,
      "dominant": 6923,
      "##200810": 6924,
      "cbs": 6925,
      "southwest": 6926,
      "a380": 6927,
      "refused": 6928,
      "prolong": 6929,
      "deliveries": 6930,
      "batteries": 6931,
      "weaken": 6932,
      "rumors": 6933,
      "##zard": 6934,
      "corner": 6935,
      "african": 6936,
      "##istan": 6937,
      "##antas": 6938,
      "unrest": 6939,
      "##iracy": 6940,
      "demanded": 6941,
      "##bted": 6942,
      "participate": 6943,
      "dramatically": 6944,
      "update": 6945,
      "##sen": 6946,
      "plug": 6947,
      "strauss": 6948,
      "##icken": 6949,
      "resolved": 6950,
      "##pts": 6951,
      "scram": 6952,
      "malays": 6953,
      "vix": 6954,
      "bullard": 6955,
      "presented": 6956,
      "ead": 6957,
      "negotiate": 6958,
      "fit": 6959,
      "ern": 6960,
      "refinance": 6961,
      "##vest": 6962,
      "sweden": 6963,
      "amend": 6964,
      "americas": 6965,
      "chen": 6966,
      "discussing": 6967,
      "briefing": 6968,
      "outp": 6969,
      "annualized": 6970,
      "hammer": 6971,
      "ailing": 6972,
      "operational": 6973,
      "appreciation": 6974,
      "race": 6975,
      "admitted": 6976,
      "border": 6977,
      "outn": 6978,
      "competitiveness": 6979,
      "fom": 6980,
      "idusbre96": 6981,
      "soyoung": 6982,
      "jur": 6983,
      "providers": 6984,
      "metric": 6985,
      "successor": 6986,
      "underwriting": 6987,
      "nort": 6988,
      "2016": 6989,
      "mexican": 6990,
      "pilots": 6991,
      "outnumber": 6992,
      "dup": 6993,
      "##urance": 6994,
      "posting": 6995,
      "##ote": 6996,
      "remove": 6997,
      "skeptical": 6998,
      "iii": 6999,
      "tiff": 7000,
      "suffering": 7001,
      "kod": 7002,
      "extraordinary": 7003,
      "hamp": 7004,
      "traditionally": 7005,
      "##arr": 7006,
      "howard": 7007,
      "##retion": 7008,
      "breaks": 7009,
      "refining": 7010,
      "quit": 7011,
      "costa": 7012,
      "davis": 7013,
      "llp": 7014,
      "737": 7015,
      "##fir": 7016,
      "electricity": 7017,
      "##band": 7018,
      "##iters": 7019,
      "pra": 7020,
      "adjustment": 7021,
      "reid": 7022,
      "strict": 7023,
      "junk": 7024,
      "improper": 7025,
      "luxemb": 7026,
      "projections": 7027,
      "adp": 7028,
      "barney": 7029,
      "reference": 7030,
      "billiton": 7031,
      "adopted": 7032,
      "##adem": 7033,
      "##verse": 7034,
      "seasonal": 7035,
      "sir": 7036,
      "vital": 7037,
      "fired": 7038,
      "fomc": 7039,
      "sle": 7040,
      "##athaway": 7041,
      "marketplace": 7042,
      "rebounded": 7043,
      "pier": 7044,
      "seats": 7045,
      "idustre79": 7046,
      "drugmaker": 7047,
      "##rees": 7048,
      "luxembourg": 7049,
      "tiffany": 7050,
      "lake": 7051,
      "repair": 7052,
      "milan": 7053,
      "hacking": 7054,
      "dump": 7055,
      "pin": 7056,
      "##000": 7057,
      "stewart": 7058,
      "unveil": 7059,
      "biot": 7060,
      "##sch": 7061,
      "##48": 7062,
      "##aki": 7063,
      "180": 7064,
      "promise": 7065,
      "debut": 7066,
      "career": 7067,
      "lam": 7068,
      "tries": 7069,
      "##aste": 7070,
      "adds": 7071,
      "depending": 7072,
      "arguing": 7073,
      "requirement": 7074,
      "cvs": 7075,
      "berlusc": 7076,
      "tony": 7077,
      "threaten": 7078,
      "berlusconi": 7079,
      "subsequ": 7080,
      "feared": 7081,
      "raymond": 7082,
      "##orio": 7083,
      "indicates": 7084,
      "minute": 7085,
      "eliminate": 7086,
      "##itable": 7087,
      "reins": 7088,
      "##umi": 7089,
      "coordinated": 7090,
      "reorganization": 7091,
      "hollande": 7092,
      "wu": 7093,
      "sponsored": 7094,
      "davies": 7095,
      "judg": 7096,
      "horizon": 7097,
      "##olit": 7098,
      "craft": 7099,
      "failures": 7100,
      "bow": 7101,
      "convinced": 7102,
      "ah": 7103,
      "##mar": 7104,
      "swift": 7105,
      "hun": 7106,
      "thus": 7107,
      "checks": 7108,
      "entities": 7109,
      "beer": 7110,
      "copy": 7111,
      "bomb": 7112,
      "##iang": 7113,
      "annually": 7114,
      "participation": 7115,
      "malone": 7116,
      "hathaway": 7117,
      "announcing": 7118,
      "student": 7119,
      "mik": 7120,
      "##lan": 7121,
      "agricultural": 7122,
      "college": 7123,
      "repurchase": 7124,
      "##67": 7125,
      "county": 7126,
      "worsening": 7127,
      "drawing": 7128,
      "stabilizing": 7129,
      "implemented": 7130,
      "##emark": 7131,
      "plumm": 7132,
      "recru": 7133,
      "alongside": 7134,
      "roche": 7135,
      "discretion": 7136,
      "seriously": 7137,
      "##sky": 7138,
      "supervisory": 7139,
      "paint": 7140,
      "stern": 7141,
      "temporarily": 7142,
      "satellite": 7143,
      "mbia": 7144,
      "minus": 7145,
      "backd": 7146,
      "briefly": 7147,
      "features": 7148,
      "##oma": 7149,
      "valuations": 7150,
      "cold": 7151,
      "crises": 7152,
      "screen": 7153,
      "subpo": 7154,
      "begins": 7155,
      "crop": 7156,
      "##ills": 7157,
      "bes": 7158,
      "instance": 7159,
      "knock": 7160,
      "divisions": 7161,
      "brokerages": 7162,
      "older": 7163,
      "farmers": 7164,
      "##49": 7165,
      "##oria": 7166,
      "sap": 7167,
      "##53": 7168,
      "tob": 7169,
      "aiming": 7170,
      "ultra": 7171,
      "##millan": 7172,
      "##aken": 7173,
      "rupert": 7174,
      "cds": 7175,
      "strikes": 7176,
      "soph": 7177,
      "ideas": 7178,
      "attempts": 7179,
      "catal": 7180,
      "pensions": 7181,
      "##elos": 7182,
      "diversified": 7183,
      "empire": 7184,
      "fbi": 7185,
      "gab": 7186,
      "viv": 7187,
      "idusbre95": 7188,
      "implications": 7189,
      "hurting": 7190,
      "##econom": 7191,
      "hud": 7192,
      "shield": 7193,
      "machin": 7194,
      "td": 7195,
      "eurogroup": 7196,
      "140": 7197,
      "idustre77": 7198,
      "##corp": 7199,
      "##201210": 7200,
      "thres": 7201,
      "minim": 7202,
      "valu": 7203,
      "stimulate": 7204,
      "voice": 7205,
      "fighter": 7206,
      "shared": 7207,
      "sentence": 7208,
      "ackman": 7209,
      "reward": 7210,
      "##ula": 7211,
      "obst": 7212,
      "controlling": 7213,
      "##aba": 7214,
      "##ptions": 7215,
      "gallon": 7216,
      "outnumbered": 7217,
      "outfl": 7218,
      "ubsn": 7219,
      "idustre78": 7220,
      "pretax": 7221,
      "threshold": 7222,
      "##tha": 7223,
      "carew": 7224,
      "consultancy": 7225,
      "citizens": 7226,
      "ast": 7227,
      "guaranteed": 7228,
      "assume": 7229,
      "vegas": 7230,
      "correction": 7231,
      "manipulation": 7232,
      "physical": 7233,
      "##57": 7234,
      "valley": 7235,
      "giants": 7236,
      "bin": 7237,
      "yes": 7238,
      "blog": 7239,
      "recalls": 7240,
      "imbalances": 7241,
      "wond": 7242,
      "implementation": 7243,
      "dies": 7244,
      "turkey": 7245,
      "stagn": 7246,
      "gradual": 7247,
      "nestle": 7248,
      "image": 7249,
      "vale": 7250,
      "resulted": 7251,
      "restaurant": 7252,
      "lowering": 7253,
      "halted": 7254,
      "shifting": 7255,
      "##sey": 7256,
      "courts": 7257,
      "unic": 7258,
      "omx": 7259,
      "hurricane": 7260,
      "dudley": 7261,
      "din": 7262,
      "##esbank": 7263,
      "##andre": 7264,
      "##zens": 7265,
      "##eon": 7266,
      "trail": 7267,
      "##lix": 7268,
      "securit": 7269,
      "friends": 7270,
      "bolst": 7271,
      "comparable": 7272,
      "egy": 7273,
      "clearwire": 7274,
      "professional": 7275,
      "identify": 7276,
      "groc": 7277,
      "egypt": 7278,
      "bump": 7279,
      "##igible": 7280,
      "lawder": 7281,
      "yum": 7282,
      "##men": 7283,
      "contracted": 7284,
      "maintaining": 7285,
      "idusbre94": 7286,
      "##redit": 7287,
      "drew": 7288,
      "liberal": 7289,
      "carefully": 7290,
      "kohl": 7291,
      "forex": 7292,
      "depends": 7293,
      "roth": 7294,
      "cola": 7295,
      "innovation": 7296,
      "stif": 7297,
      "##akr": 7298,
      "secondary": 7299,
      "harry": 7300,
      "explain": 7301,
      "pandit": 7302,
      "greenspan": 7303,
      "monte": 7304,
      "##lai": 7305,
      "##kowski": 7306,
      "##erous": 7307,
      "##agues": 7308,
      "polls": 7309,
      "rachelle": 7310,
      "wahba": 7311,
      "kansas": 7312,
      "transl": 7313,
      "##inski": 7314,
      "historically": 7315,
      "##fr": 7316,
      "##cean": 7317,
      "centre": 7318,
      "downgrades": 7319,
      "upper": 7320,
      "politically": 7321,
      "oversees": 7322,
      "duty": 7323,
      "upgrade": 7324,
      "##33": 7325,
      "recommended": 7326,
      "penalties": 7327,
      "propri": 7328,
      "historic": 7329,
      "qantas": 7330,
      "##rich": 7331,
      "younglai": 7332,
      "##udes": 7333,
      "attorneys": 7334,
      "spectrum": 7335,
      "lind": 7336,
      "idustre50": 7337,
      "homebu": 7338,
      "responded": 7339,
      "developers": 7340,
      "pulling": 7341,
      "jackson": 7342,
      "throw": 7343,
      "##tered": 7344,
      "##ops": 7345,
      "imposs": 7346,
      "##flix": 7347,
      "sequ": 7348,
      "idusbre90": 7349,
      "cope": 7350,
      "cpi": 7351,
      "perip": 7352,
      "requiring": 7353,
      "##dom": 7354,
      "tosh": 7355,
      "idusbre83": 7356,
      "##wait": 7357,
      "franchise": 7358,
      "##erb": 7359,
      "herb": 7360,
      "7203": 7361,
      "hasn": 7362,
      "connection": 7363,
      "surrounding": 7364,
      "dozens": 7365,
      "helm": 7366,
      "spreading": 7367,
      "kodak": 7368,
      "##cd": 7369,
      "##green": 7370,
      "intends": 7371,
      "entirely": 7372,
      "kh": 7373,
      "##osser": 7374,
      "netflix": 7375,
      "keeps": 7376,
      "experienced": 7377,
      "bridge": 7378,
      "plosser": 7379,
      "mines": 7380,
      "##ground": 7381,
      "##life": 7382,
      "##enheim": 7383,
      "##201205": 7384,
      "##ihood": 7385,
      "tpg": 7386,
      "##acter": 7387,
      "surpass": 7388,
      "flu": 7389,
      "persu": 7390,
      "mm": 7391,
      "word": 7392,
      "##201207": 7393,
      "freeze": 7394,
      "picking": 7395,
      "weap": 7396,
      "measured": 7397,
      "##ione": 7398,
      "resum": 7399,
      "cycl": 7400,
      "speculative": 7401,
      "attribut": 7402,
      "krol": 7403,
      "pess": 7404,
      "tata": 7405,
      "pursuing": 7406,
      "tablets": 7407,
      "licens": 7408,
      "complicated": 7409,
      "zhou": 7410,
      "dispos": 7411,
      "prominent": 7412,
      "tons": 7413,
      "payouts": 7414,
      "issuing": 7415,
      "surveyed": 7416,
      "ambitious": 7417,
      "kuwait": 7418,
      "sank": 7419,
      "##giving": 7420,
      "##isk": 7421,
      "##iba": 7422,
      "preserve": 7423,
      "fortis": 7424,
      "krolicki": 7425,
      "acted": 7426,
      "northeast": 7427,
      "deeply": 7428,
      "argument": 7429,
      "##nel": 7430,
      "##reet": 7431,
      "berk": 7432,
      "idusbre92": 7433,
      "stabilization": 7434,
      "neighbor": 7435,
      "valuable": 7436,
      "piece": 7437,
      "deepa": 7438,
      "a350": 7439,
      "frozen": 7440,
      "impossible": 7441,
      "bailed": 7442,
      "initiative": 7443,
      "macroeconom": 7444,
      "jam": 7445,
      "disruptions": 7446,
      "gates": 7447,
      "barc": 7448,
      "160": 7449,
      "##osen": 7450,
      "corresp": 7451,
      "agriculture": 7452,
      "nicolas": 7453,
      "dupont": 7454,
      "lean": 7455,
      "drops": 7456,
      "deteriorating": 7457,
      "##u3": 7458,
      "##ars": 7459,
      "ash": 7460,
      "threatening": 7461,
      "##first": 7462,
      "##ila": 7463,
      "stark": 7464,
      "##oses": 7465,
      "contained": 7466,
      "credits": 7467,
      "idusbre93": 7468,
      "symb": 7469,
      "rent": 7470,
      "ster": 7471,
      "registered": 7472,
      "##b0": 7473,
      "submit": 7474,
      "tomorrow": 7475,
      "curt": 7476,
      "##tering": 7477,
      "##portion": 7478,
      "nationwide": 7479,
      "smooth": 7480,
      "knows": 7481,
      "choose": 7482,
      "resource": 7483,
      "resignation": 7484,
      "colleagues": 7485,
      "ratt": 7486,
      "replacement": 7487,
      "henderson": 7488,
      "idustre80": 7489,
      "specifically": 7490,
      "##88": 7491,
      "panic": 7492,
      "highlighted": 7493,
      "initiatives": 7494,
      "troika": 7495,
      "##rian": 7496,
      "advice": 7497,
      "##120": 7498,
      "slater": 7499,
      "lockhart": 7500,
      "anna": 7501,
      "depreci": 7502,
      "occurred": 7503,
      "cru": 7504,
      "mattel": 7505,
      "faa": 7506,
      "capp": 7507,
      "juncker": 7508,
      "##gg": 7509,
      "victims": 7510,
      "geller": 7511,
      "kahn": 7512,
      "##cp": 7513,
      "##100": 7514,
      "words": 7515,
      "repeat": 7516,
      "recommendations": 7517,
      "idustre76": 7518,
      "##onzi": 7519,
      "cush": 7520,
      "fier": 7521,
      "utilities": 7522,
      "decis": 7523,
      "surging": 7524,
      "promising": 7525,
      "macmillan": 7526,
      "chamber": 7527,
      "observ": 7528,
      "##oshi": 7529,
      "immin": 7530,
      "coca": 7531,
      "mur": 7532,
      "##imp": 7533,
      "brink": 7534,
      "lots": 7535,
      "formally": 7536,
      "##baugh": 7537,
      "##illa": 7538,
      "markit": 7539,
      "valet": 7540,
      "rou": 7541,
      "##ables": 7542,
      "##ayman": 7543,
      "##kev": 7544,
      "papandre": 7545,
      "movie": 7546,
      "headwinds": 7547,
      "papandreou": 7548,
      "impair": 7549,
      "gaz": 7550,
      "inde": 7551,
      "##200807": 7552,
      "permits": 7553,
      "fda": 7554,
      "jal": 7555,
      "reck": 7556,
      "evol": 7557,
      "bout": 7558,
      "##power": 7559,
      "plenty": 7560,
      "intent": 7561,
      "fails": 7562,
      "comparison": 7563,
      "disagree": 7564,
      "kelly": 7565,
      "entry": 7566,
      "proprietary": 7567,
      "##aut": 7568,
      "seized": 7569,
      "levy": 7570,
      "pessim": 7571,
      "##enance": 7572,
      "covering": 7573,
      "publisher": 7574,
      "emirates": 7575,
      "ponzi": 7576,
      "##icon": 7577,
      "unre": 7578,
      "consideration": 7579,
      "foster": 7580,
      "valetkev": 7581,
      "##ias": 7582,
      "ingr": 7583,
      "comply": 7584,
      "expire": 7585,
      "emissions": 7586,
      "indebted": 7587,
      "hunt": 7588,
      "##ati": 7589,
      "greenberg": 7590,
      "ericsson": 7591,
      "liberty": 7592,
      "semiconductor": 7593,
      "incomes": 7594,
      "##ielding": 7595,
      "tender": 7596,
      "percept": 7597,
      "accident": 7598,
      "idusbre87": 7599,
      "sooner": 7600,
      "unsec": 7601,
      "valetkevitch": 7602,
      "bod": 7603,
      "thail": 7604,
      "expir": 7605,
      "##olis": 7606,
      "##oking": 7607,
      "##200809": 7608,
      "guidelines": 7609,
      "thailand": 7610,
      "refineries": 7611,
      "dragged": 7612,
      "nigeria": 7613,
      "faith": 7614,
      "##erville": 7615,
      "modern": 7616,
      "dependent": 7617,
      "si": 7618,
      "##ali": 7619,
      "bailey": 7620,
      "discipline": 7621,
      "fte": 7622,
      "hans": 7623,
      "##ales": 7624,
      "finland": 7625,
      "riskier": 7626,
      "##ommun": 7627,
      "unsecured": 7628,
      "killed": 7629,
      "underst": 7630,
      "attracted": 7631,
      "modestly": 7632,
      "variety": 7633,
      "appointment": 7634,
      "bk": 7635,
      "##uy": 7636,
      "introduce": 7637,
      "awarded": 7638,
      "pock": 7639,
      "wan": 7640,
      "susan": 7641,
      "##zyme": 7642,
      "noble": 7643,
      "arbitration": 7644,
      "kaz": 7645,
      "nortel": 7646,
      "pic": 7647,
      "##gm": 7648,
      "prepare": 7649,
      "stemming": 7650,
      "friendly": 7651,
      "nv": 7652,
      "sak": 7653,
      "likel": 7654,
      "bln": 7655,
      "1997": 7656,
      "mountain": 7657,
      "##apiro": 7658,
      "janet": 7659,
      "restart": 7660,
      "competitor": 7661,
      "violations": 7662,
      "exporter": 7663,
      "laund": 7664,
      "##pus": 7665,
      "undert": 7666,
      "drinks": 7667,
      "schn": 7668,
      "walgreen": 7669,
      "stap": 7670,
      "martha": 7671,
      "adob": 7672,
      "##aka": 7673,
      "ipod": 7674,
      "influential": 7675,
      "maintenance": 7676,
      "##eling": 7677,
      "##aves": 7678,
      "costco": 7679,
      "tsun": 7680,
      "user": 7681,
      "reinfor": 7682,
      "gard": 7683,
      "shel": 7684,
      "maria": 7685,
      "predecess": 7686,
      "painful": 7687,
      "##iman": 7688,
      "lex": 7689,
      "##ters": 7690,
      "carmakers": 7691,
      "hole": 7692,
      "##iking": 7693,
      "austria": 7694,
      "holmes": 7695,
      "somerville": 7696,
      "robinson": 7697,
      "judgment": 7698,
      "tag": 7699,
      "##gel": 7700,
      "##iter": 7701,
      "pays": 7702,
      "networking": 7703,
      "irs": 7704,
      "pedro": 7705,
      "tentative": 7706,
      "bed": 7707,
      "character": 7708,
      "ellis": 7709,
      "mulally": 7710,
      "##zh": 7711,
      "stamp": 7712,
      "##igr": 7713,
      "vowed": 7714,
      "handful": 7715,
      "ventures": 7716,
      "##gged": 7717,
      "##ibilities": 7718,
      "##ishing": 7719,
      "##iane": 7720,
      "forecasting": 7721,
      "walter": 7722,
      "##unds": 7723,
      "##225": 7724,
      "depressed": 7725,
      "mcco": 7726,
      "bab": 7727,
      "peterson": 7728,
      "prolonged": 7729,
      "cub": 7730,
      "##ulate": 7731,
      "bio": 7732,
      "honey": 7733,
      "ual": 7734,
      "perf": 7735,
      "##ermark": 7736,
      "idustre81": 7737,
      "overcome": 7738,
      "recognize": 7739,
      "##egan": 7740,
      "barely": 7741,
      "indicate": 7742,
      "hotels": 7743,
      "die": 7744,
      "worker": 7745,
      "properly": 7746,
      "telecommun": 7747,
      "jacobs": 7748,
      "##more": 7749,
      "##aro": 7750,
      "explos": 7751,
      "##itures": 7752,
      "presentation": 7753,
      "assistant": 7754,
      "nak": 7755,
      "ballmer": 7756,
      "freed": 7757,
      "##pson": 7758,
      "boerse": 7759,
      "##iann": 7760,
      "devast": 7761,
      "fortune": 7762,
      "##worth": 7763,
      "##66": 7764,
      "karey": 7765,
      "broken": 7766,
      "##log": 7767,
      "poorn": 7768,
      "complained": 7769,
      "chevrol": 7770,
      "abe": 7771,
      "enorm": 7772,
      "conting": 7773,
      "amd": 7774,
      "defended": 7775,
      "imminent": 7776,
      "rid": 7777,
      "operated": 7778,
      "thrift": 7779,
      "##urofirst": 7780,
      "warnings": 7781,
      "poornima": 7782,
      "alister": 7783,
      "grain": 7784,
      "medicare": 7785,
      "diesel": 7786,
      "actively": 7787,
      "tsunami": 7788,
      "##ques": 7789,
      "preced": 7790,
      "demanding": 7791,
      "supports": 7792,
      "##iko": 7793,
      "disappointment": 7794,
      "recapitalization": 7795,
      "ftseurofirst": 7796,
      "macroeconomic": 7797,
      "likelihood": 7798,
      "##ease": 7799,
      "##iples": 7800,
      "counts": 7801,
      "struggles": 7802,
      "##whel": 7803,
      "unicredit": 7804,
      "fault": 7805,
      "chuck": 7806,
      "briber": 7807,
      "closure": 7808,
      "northrop": 7809,
      "topping": 7810,
      "martinne": 7811,
      "bancorp": 7812,
      "bribery": 7813,
      "duke": 7814,
      "bry": 7815,
      "##load": 7816,
      "badly": 7817,
      "audience": 7818,
      "dimin": 7819,
      "sands": 7820,
      "boehner": 7821,
      "thanksgiving": 7822,
      "turbul": 7823,
      "ricci": 7824,
      "lands": 7825,
      "anth": 7826,
      "purchased": 7827,
      "wins": 7828,
      "accusing": 7829,
      "chemicals": 7830,
      "tem": 7831,
      "asp": 7832,
      "##ceived": 7833,
      "##agu": 7834,
      "thompson": 7835,
      "settlements": 7836,
      "achieved": 7837,
      "idusbre97": 7838,
      "absorb": 7839,
      "vend": 7840,
      "##cs": 7841,
      "likes": 7842,
      "grapp": 7843,
      "tracking": 7844,
      "flexible": 7845,
      "chevrolet": 7846,
      "fab": 7847,
      "credible": 7848,
      "exceeded": 7849,
      "luf": 7850,
      "##jee": 7851,
      "##active": 7852,
      "widened": 7853,
      "disputes": 7854,
      "obtain": 7855,
      "##ection": 7856,
      "bruce": 7857,
      "wohl": 7858,
      "gathering": 7859,
      "spurred": 7860,
      "liquidation": 7861,
      "graham": 7862,
      "undervalued": 7863,
      "inev": 7864,
      "recon": 7865,
      "eligible": 7866,
      "jail": 7867,
      "##irmed": 7868,
      "##ards": 7869,
      "slack": 7870,
      "boards": 7871,
      "disruption": 7872,
      "todd": 7873,
      "doct": 7874,
      "claimed": 7875,
      "adjustments": 7876,
      "buyouts": 7877,
      "automobile": 7878,
      "lash": 7879,
      "understanding": 7880,
      "tvs": 7881,
      "mills": 7882,
      "steadily": 7883,
      "denn": 7884,
      "wife": 7885,
      "##etic": 7886,
      "##ansa": 7887,
      "meaningful": 7888,
      "##dam": 7889,
      "promises": 7890,
      "pullback": 7891,
      "##borne": 7892,
      "dial": 7893,
      "##wich": 7894,
      "enact": 7895,
      "36pm": 7896,
      "summers": 7897,
      "bansal": 7898,
      "##hs": 7899,
      "##ewski": 7900,
      "##200811": 7901,
      "outright": 7902,
      "fteu3": 7903,
      "rehn": 7904,
      "prescri": 7905,
      "barnes": 7906,
      "##engers": 7907,
      "45pm": 7908,
      "cros": 7909,
      "lie": 7910,
      "belgian": 7911,
      "##ians": 7912,
      "##gar": 7913,
      "##itosh": 7914,
      "##usted": 7915,
      "paritosh": 7916,
      "injection": 7917,
      "na": 7918,
      "##ram": 7919,
      "arn": 7920,
      "intrad": 7921,
      "virtually": 7922,
      "elevated": 7923,
      "intraday": 7924,
      "potter": 7925,
      "exporting": 7926,
      "idustre52": 7927,
      "positioned": 7928,
      "louisiana": 7929,
      "stretch": 7930,
      "lease": 7931,
      "diane": 7932,
      "alexand": 7933,
      "ky": 7934,
      "tail": 7935,
      "issuers": 7936,
      "##ington": 7937,
      "proved": 7938,
      "bidder": 7939,
      "reviews": 7940,
      "negotiated": 7941,
      "sandy": 7942,
      "##isers": 7943,
      "guy": 7944,
      "engage": 7945,
      "##iot": 7946,
      "revision": 7947,
      "conoc": 7948,
      "##anya": 7949,
      "conspiracy": 7950,
      "mizu": 7951,
      "##hr": 7952,
      "deliber": 7953,
      "redempt": 7954,
      "agreeing": 7955,
      "passengers": 7956,
      "entering": 7957,
      "christine": 7958,
      "dv": 7959,
      "signaling": 7960,
      "cooper": 7961,
      "convention": 7962,
      "launching": 7963,
      "##eb": 7964,
      "##eva": 7965,
      "mizuho": 7966,
      "klein": 7967,
      "syn": 7968,
      "##69": 7969,
      "mccl": 7970,
      "odds": 7971,
      "650": 7972,
      "kan": 7973,
      "merge": 7974,
      "33pm": 7975,
      "handset": 7976,
      "alexei": 7977,
      "hudson": 7978,
      "roles": 7979,
      "probes": 7980,
      "viable": 7981,
      "bearish": 7982,
      "findings": 7983,
      "msft": 7984,
      "convertible": 7985,
      "covers": 7986,
      "engaged": 7987,
      "damaged": 7988,
      "socialist": 7989,
      "stalled": 7990,
      "##feld": 7991,
      "midday": 7992,
      "federation": 7993,
      "##urring": 7994,
      "pressed": 7995,
      "administrative": 7996,
      "gord": 7997,
      "subd": 7998,
      "learned": 7999,
      "unnamed": 8000,
      "telecommunications": 8001,
      "yang": 8002,
      "verdict": 8003,
      "rolls": 8004,
      "schnurr": 8005,
      "band": 8006,
      "gott": 8007,
      "reop": 8008,
      "sof": 8009,
      "slip": 8010,
      "cleared": 8011,
      "launches": 8012,
      "##201309": 8013,
      "37pm": 8014,
      "tranche": 8015,
      "##ori": 8016,
      "47pm": 8017,
      "##arios": 8018,
      "que": 8019,
      "##stan": 8020,
      "##irl": 8021,
      "schwab": 8022,
      "jewel": 8023,
      "cz": 8024,
      "ling": 8025,
      "##oly": 8026,
      "emi": 8027,
      "metlife": 8028,
      "scenarios": 8029,
      "lith": 8030,
      "##apolis": 8031,
      "marking": 8032,
      "seeth": 8033,
      "looming": 8034,
      "careful": 8035,
      "##ihan": 8036,
      "alib": 8037,
      "manner": 8038,
      "idusbre82": 8039,
      "purpose": 8040,
      "anthony": 8041,
      "lilly": 8042,
      "wut": 8043,
      "forest": 8044,
      "##inton": 8045,
      "campos": 8046,
      "ambac": 8047,
      "lobbying": 8048,
      "toshiba": 8049,
      "flying": 8050,
      "28pm": 8051,
      "threatens": 8052,
      "56pm": 8053,
      "59pm": 8054,
      "lawr": 8055,
      "pressured": 8056,
      "52pm": 8057,
      "48pm": 8058,
      "touched": 8059,
      "nike": 8060,
      "pcs": 8061,
      "gaming": 8062,
      "alab": 8063,
      "rodrigo": 8064,
      "alibaba": 8065,
      "##eting": 8066,
      "silicon": 8067,
      "galle": 8068,
      "clarity": 8069,
      "analytic": 8070,
      "42pm": 8071,
      "landing": 8072,
      "bg": 8073,
      "fate": 8074,
      "rental": 8075,
      "drivers": 8076,
      "difficulty": 8077,
      "lasting": 8078,
      "miners": 8079,
      "casino": 8080,
      "procedures": 8081,
      "bounce": 8082,
      "galleon": 8083,
      "salaries": 8084,
      "55pm": 8085,
      "absence": 8086,
      "1980s": 8087,
      "03pm": 8088,
      "34pm": 8089,
      "willingness": 8090,
      "simple": 8091,
      "tanker": 8092,
      "penalty": 8093,
      "malaysia": 8094,
      "merced": 8095,
      "safegu": 8096,
      "trimmed": 8097,
      "seetharaman": 8098,
      "tan": 8099,
      "yester": 8100,
      "##uki": 8101,
      "crime": 8102,
      "53pm": 8103,
      "yesterday": 8104,
      "eat": 8105,
      "##h0": 8106,
      "##j0": 8107,
      "##burgh": 8108,
      "honeywell": 8109,
      "wutkowski": 8110,
      "##g0": 8111,
      "##aped": 8112,
      "luke": 8113,
      "lufth": 8114,
      "fat": 8115,
      "concept": 8116,
      "quiet": 8117,
      "##201110": 8118,
      "film": 8119,
      "affordable": 8120,
      "moon": 8121,
      "avoided": 8122,
      "##enberg": 8123,
      "andy": 8124,
      "employs": 8125,
      "lawrence": 8126,
      "fcc": 8127,
      "membership": 8128,
      "catast": 8129,
      "alabama": 8130,
      "lufthansa": 8131,
      "04pm": 8132,
      "41pm": 8133,
      "##strom": 8134,
      "##emed": 8135,
      "##ontin": 8136,
      "combat": 8137,
      "ebit": 8138,
      "larry": 8139,
      "mercedes": 8140,
      "inch": 8141,
      "tow": 8142,
      "50pm": 8143,
      "##enig": 8144,
      "glass": 8145,
      "peac": 8146,
      "genzyme": 8147,
      "movement": 8148,
      "promotion": 8149,
      "objective": 8150,
      "mission": 8151,
      "sin": 8152,
      "##vey": 8153,
      "##ender": 8154,
      "guess": 8155,
      "occur": 8156,
      "##america": 8157,
      "sustainability": 8158,
      "##state": 8159,
      "metrop": 8160,
      "02pm": 8161,
      "57pm": 8162,
      "sterling": 8163,
      "##ibur": 8164,
      "##erty": 8165,
      "outsour": 8166,
      "##bos": 8167,
      "prohib": 8168,
      "32pm": 8169,
      "51pm": 8170,
      "gil": 8171,
      "stations": 8172,
      "##illips": 8173,
      "regulated": 8174,
      "ratios": 8175,
      "brow": 8176,
      "prosecutor": 8177,
      "chambers": 8178,
      "gad": 8179,
      "##201310": 8180,
      "hedging": 8181,
      "softbank": 8182,
      "##leman": 8183,
      "##mental": 8184,
      "removed": 8185,
      "subdued": 8186,
      "##elson": 8187,
      "40pm": 8188,
      "color": 8189,
      "##atherine": 8190,
      "misle": 8191,
      "platforms": 8192,
      "publishing": 8193,
      "holidays": 8194,
      "snap": 8195,
      "##rete": 8196,
      "quake": 8197,
      "lowe": 8198,
      "officers": 8199,
      "peters": 8200,
      "locations": 8201,
      "depreciation": 8202,
      "##mex": 8203,
      "##arian": 8204,
      "loom": 8205,
      "15pm": 8206,
      "lcd": 8207,
      "spic": 8208,
      "nl": 8209,
      "forb": 8210,
      "16pm": 8211,
      "22pm": 8212,
      "##enna": 8213,
      "44pm": 8214,
      "46pm": 8215,
      "burst": 8216,
      "tang": 8217,
      "##nc": 8218,
      "01pm": 8219,
      "##fein": 8220,
      "medicines": 8221,
      "lifting": 8222,
      "aia": 8223,
      "##lock": 8224,
      "bellw": 8225,
      "competes": 8226,
      "addressed": 8227,
      "blankfein": 8228,
      "##oris": 8229,
      "outlined": 8230,
      "49pm": 8231,
      "shifted": 8232,
      "pepsico": 8233,
      "##68": 8234,
      "##ayed": 8235,
      "06pm": 8236,
      "##30s": 8237,
      "enhance": 8238,
      "cushion": 8239,
      "##mel": 8240,
      "brings": 8241,
      "spotlight": 8242,
      "##itate": 8243,
      "##ext": 8244,
      "13pm": 8245,
      "macau": 8246,
      "35pm": 8247,
      "craw": 8248,
      "places": 8249,
      "19pm": 8250,
      "decliners": 8251,
      "osborne": 8252,
      "stepping": 8253,
      "kumar": 8254,
      "debit": 8255,
      "syner": 8256,
      "erod": 8257,
      "##icial": 8258,
      "43pm": 8259,
      "mccool": 8260,
      "spicer": 8261,
      "amster": 8262,
      "poised": 8263,
      "categories": 8264,
      "overseeing": 8265,
      "tnk": 8266,
      "weapons": 8267,
      "##d0": 8268,
      "adverse": 8269,
      "clinton": 8270,
      "ordin": 8271,
      "##201211": 8272,
      "##ella": 8273,
      "##endon": 8274,
      "jane": 8275,
      "05pm": 8276,
      "dicks": 8277,
      "redd": 8278,
      "##ifications": 8279,
      "considerable": 8280,
      "sight": 8281,
      "prince": 8282,
      "leads": 8283,
      "##201109": 8284,
      "dealership": 8285,
      "##iburton": 8286,
      "scient": 8287,
      "interesting": 8288,
      "##inder": 8289,
      "idustre67": 8290,
      "54pm": 8291,
      "exercise": 8292,
      "halliburton": 8293,
      "heightened": 8294,
      "zeal": 8295,
      "programme": 8296,
      "idustre75": 8297,
      "##201204": 8298,
      "hawk": 8299,
      "gift": 8300,
      "mumb": 8301,
      "##acerb": 8302,
      "exacerb": 8303,
      "evening": 8304,
      "##201306": 8305,
      "suspic": 8306,
      "conclusion": 8307,
      "bundesbank": 8308,
      "amsterdam": 8309,
      "mumbai": 8310,
      "##ht": 8311,
      "##olic": 8312,
      "maturing": 8313,
      "27pm": 8314,
      "23pm": 8315,
      "palmer": 8316,
      "compact": 8317,
      "apparent": 8318,
      "peacock": 8319,
      "kent": 8320,
      "edm": 8321,
      "38pm": 8322,
      "premiums": 8323,
      "cooperate": 8324,
      "fis": 8325,
      "ana": 8326,
      "evasion": 8327,
      "ticket": 8328,
      "relevant": 8329,
      "correspond": 8330,
      "cb": 8331,
      "pose": 8332,
      "graphic": 8333,
      "insured": 8334,
      "herbert": 8335,
      "tracks": 8336,
      "derivative": 8337,
      "##a0": 8338,
      "signing": 8339,
      "succ": 8340,
      "expertise": 8341,
      "canceled": 8342,
      "frequency": 8343,
      "cboe": 8344,
      "dai": 8345,
      "##urer": 8346,
      "shadow": 8347,
      "studies": 8348,
      "39pm": 8349,
      "vision": 8350,
      "##q0": 8351,
      "14pm": 8352,
      "calend": 8353,
      "entit": 8354,
      "discretionary": 8355,
      "##gang": 8356,
      "##vi": 8357,
      "joy": 8358,
      "clark": 8359,
      "idustre70": 8360,
      "acquiring": 8361,
      "testify": 8362,
      "##201107": 8363,
      "##recy": 8364,
      "31pm": 8365,
      "idusbre91": 8366,
      "emails": 8367,
      "casual": 8368,
      "depth": 8369,
      "25pm": 8370,
      "oversh": 8371,
      "wagon": 8372,
      "##acco": 8373,
      "12pm": 8374,
      "jointly": 8375,
      "sitting": 8376,
      "hep": 8377,
      "overwhel": 8378,
      "underpin": 8379,
      "mature": 8380,
      "26pm": 8381,
      "journalists": 8382,
      "addressing": 8383,
      "convicted": 8384,
      "academ": 8385,
      "brist": 8386,
      "hourly": 8387,
      "responding": 8388,
      "approached": 8389,
      "thinks": 8390,
      "secrecy": 8391,
      "##italia": 8392,
      "pared": 8393,
      "##bridge": 8394,
      "constant": 8395,
      "finalized": 8396,
      "##kovic": 8397,
      "love": 8398,
      "30pm": 8399,
      "schapiro": 8400,
      "anticipate": 8401,
      "gamble": 8402,
      "idustre58": 8403,
      "mild": 8404,
      "insisted": 8405,
      "servicing": 8406,
      "underperforming": 8407,
      "steam": 8408,
      "releases": 8409,
      "urban": 8410,
      "suspect": 8411,
      "deferred": 8412,
      "idustre66": 8413,
      "staples": 8414,
      "enormous": 8415,
      "##kle": 8416,
      "##ilding": 8417,
      "schm": 8418,
      "outflows": 8419,
      "fan": 8420,
      "ruth": 8421,
      "24pm": 8422,
      "typical": 8423,
      "violated": 8424,
      "pressing": 8425,
      "beats": 8426,
      "##wey": 8427,
      "##ashed": 8428,
      "automatic": 8429,
      "##gio": 8430,
      "amro": 8431,
      "concrete": 8432,
      "fx": 8433,
      "pione": 8434,
      "supermark": 8435,
      "##asonic": 8436,
      "##ube": 8437,
      "58pm": 8438,
      "undermine": 8439,
      "shortage": 8440,
      "divided": 8441,
      "panasonic": 8442,
      "1995": 8443,
      "hopeful": 8444,
      "wear": 8445,
      "spa": 8446,
      "10pm": 8447,
      "merged": 8448,
      "derail": 8449,
      "predecessor": 8450,
      "dickson": 8451,
      "##uese": 8452,
      "levin": 8453,
      "29pm": 8454,
      "portuguese": 8455,
      "ring": 8456,
      "generating": 8457,
      "hir": 8458,
      "yielding": 8459,
      "##p0": 8460,
      "kohn": 8461,
      "bust": 8462,
      "##print": 8463,
      "warns": 8464,
      "constitution": 8465,
      "bartz": 8466,
      "##wd": 8467,
      "reviewed": 8468,
      "blocked": 8469,
      "arguments": 8470,
      "affiliate": 8471,
      "averaged": 8472,
      "##acom": 8473,
      "##ollo": 8474,
      "helen": 8475,
      "desire": 8476,
      "booming": 8477,
      "briefed": 8478,
      "navy": 8479,
      "dangerous": 8480,
      "declared": 8481,
      "alert": 8482,
      "##20131": 8483,
      "approx": 8484,
      "advanc": 8485,
      "idustre69": 8486,
      "map": 8487,
      "favored": 8488,
      "audi": 8489,
      "blood": 8490,
      "acceleration": 8491,
      "hersh": 8492,
      "##vard": 8493,
      "##ids": 8494,
      "matching": 8495,
      "lin": 8496,
      "##greg": 8497,
      "fried": 8498,
      "17pm": 8499,
      "elected": 8500,
      "entr": 8501,
      "revisions": 8502,
      "paragr": 8503,
      "07pm": 8504,
      "08pm": 8505,
      "geneva": 8506,
      "extensive": 8507,
      "##k0": 8508,
      "##ortun": 8509,
      "harris": 8510,
      "explore": 8511,
      "unfortun": 8512,
      "survival": 8513,
      "pitts": 8514,
      "paragraph": 8515,
      "fulf": 8516,
      "##pc": 8517,
      "enable": 8518,
      "corz": 8519,
      "##show": 8520,
      "teams": 8521,
      "decrease": 8522,
      "gordon": 8523,
      "bak": 8524,
      "father": 8525,
      "##itsu": 8526,
      "sev": 8527,
      "examine": 8528,
      "assuming": 8529,
      "nr": 8530,
      "thorn": 8531,
      "alitalia": 8532,
      "sole": 8533,
      "contributions": 8534,
      "routes": 8535,
      "calendar": 8536,
      "bilateral": 8537,
      "##bow": 8538,
      "perceived": 8539,
      "supposed": 8540,
      "imported": 8541,
      "investigate": 8542,
      "iranian": 8543,
      "stoxx": 8544,
      "hd": 8545,
      "##gren": 8546,
      "barro": 8547,
      "1970": 8548,
      "longest": 8549,
      "21pm": 8550,
      "corzine": 8551,
      "lad": 8552,
      "tenn": 8553,
      "ziem": 8554,
      "meg": 8555,
      "glax": 8556,
      "warrants": 8557,
      "20pm": 8558,
      "ensuring": 8559,
      "hurdles": 8560,
      "busch": 8561,
      "eager": 8562,
      "machinery": 8563,
      "kerv": 8564,
      "##64": 8565,
      "##ocol": 8566,
      "contest": 8567,
      "surprisingly": 8568,
      "furn": 8569,
      "##o0": 8570,
      "##98": 8571,
      "stages": 8572,
      "ores": 8573,
      "stockp": 8574,
      "mini": 8575,
      "barron": 8576,
      "wolfgang": 8577,
      "kerviel": 8578,
      "lng": 8579,
      "ipos": 8580,
      "backdrop": 8581,
      "uae": 8582,
      "##pa": 8583,
      "##ken": 8584,
      "jamie": 8585,
      "taper": 8586,
      "##gies": 8587,
      "interf": 8588,
      "1930s": 8589,
      "flaw": 8590,
      "##201304": 8591,
      "oppose": 8592,
      "damaging": 8593,
      "widening": 8594,
      "recalled": 8595,
      "klayman": 8596,
      "##raine": 8597,
      "patch": 8598,
      "##pret": 8599,
      "##mc": 8600,
      "##hm": 8601,
      "borrowed": 8602,
      "engineers": 8603,
      "awards": 8604,
      "perfect": 8605,
      "catherine": 8606,
      "province": 8607,
      "apollo": 8608,
      "repayment": 8609,
      "feature": 8610,
      "intervene": 8611,
      "tact": 8612,
      "00pm": 8613,
      "curve": 8614,
      "successfully": 8615,
      "reassure": 8616,
      "hershey": 8617,
      "siv": 8618,
      "champ": 8619,
      "strup": 8620,
      "keith": 8621,
      "lacker": 8622,
      "##lay": 8623,
      "##aci": 8624,
      "harvard": 8625,
      "respondents": 8626,
      "proportion": 8627,
      "soros": 8628,
      "barroso": 8629,
      "traction": 8630,
      "training": 8631,
      "disast": 8632,
      "smallest": 8633,
      "woods": 8634,
      "##thus": 8635,
      "totaling": 8636,
      "idustre56": 8637,
      "delivering": 8638,
      "column": 8639,
      "strains": 8640,
      "11pm": 8641,
      "deploy": 8642,
      "francois": 8643,
      "intellect": 8644,
      "strupcz": 8645,
      "dbk": 8646,
      "river": 8647,
      "unique": 8648,
      "##vency": 8649,
      "cement": 8650,
      "organic": 8651,
      "rajoy": 8652,
      "narrowed": 8653,
      "abbott": 8654,
      "##houses": 8655,
      "laundering": 8656,
      "##e0": 8657,
      "##ador": 8658,
      "##201305": 8659,
      "compares": 8660,
      "regime": 8661,
      "advertisers": 8662,
      "nomine": 8663,
      "nobody": 8664,
      "strupczewski": 8665,
      "isl": 8666,
      "##ekom": 8667,
      "legacy": 8668,
      "braden": 8669,
      "tobacco": 8670,
      "##itol": 8671,
      "fixing": 8672,
      "550": 8673,
      "##oning": 8674,
      "finra": 8675,
      "##endi": 8676,
      "reversed": 8677,
      "affecting": 8678,
      "adequate": 8679,
      "wagoner": 8680,
      "dbkgn": 8681,
      "726": 8682,
      "idustre72": 8683,
      "idustre57": 8684,
      "oreskovic": 8685,
      "diver": 8686,
      "hart": 8687,
      "##get": 8688,
      "idustre63": 8689,
      "##201307": 8690,
      "##mos": 8691,
      "##54": 8692,
      "##fj": 8693,
      "stayed": 8694,
      "fluct": 8695,
      "bernie": 8696,
      "ns": 8697,
      "roberts": 8698,
      "drawbaugh": 8699,
      "merchants": 8700,
      "persistent": 8701,
      "bombard": 8702,
      "tun": 8703,
      "depositors": 8704,
      "suspected": 8705,
      "implementing": 8706,
      "ride": 8707,
      "sessions": 8708,
      "yout": 8709,
      "recip": 8710,
      "relax": 8711,
      "deepwater": 8712,
      "nonf": 8713,
      "exploring": 8714,
      "zieminski": 8715,
      "##s0": 8716,
      "league": 8717,
      "agrees": 8718,
      "propose": 8719,
      "proceedings": 8720,
      "waterman": 8721,
      "a320": 8722,
      "reddall": 8723,
      "##nell": 8724,
      "slowest": 8725,
      "severance": 8726,
      "extreme": 8727,
      "ti": 8728,
      "accur": 8729,
      "roch": 8730,
      "lane": 8731,
      "##bit": 8732,
      "retired": 8733,
      "remainder": 8734,
      "18pm": 8735,
      "lived": 8736,
      "xom": 8737,
      "supportive": 8738,
      "curbs": 8739,
      "immelt": 8740,
      "licensing": 8741,
      "senators": 8742,
      "idustre65": 8743,
      "cypri": 8744,
      "sink": 8745,
      "tested": 8746,
      "idustre74": 8747,
      "principle": 8748,
      "recapitalize": 8749,
      "sticking": 8750,
      "misleading": 8751,
      "bankia": 8752,
      "periods": 8753,
      "bain": 8754,
      "giann": 8755,
      "elab": 8756,
      "consultants": 8757,
      "cooperating": 8758,
      "bound": 8759,
      "##vea": 8760,
      "employer": 8761,
      "affl": 8762,
      "elements": 8763,
      "maturity": 8764,
      "youtube": 8765,
      "hang": 8766,
      "advising": 8767,
      "edwards": 8768,
      "reveal": 8769,
      "##c0": 8770,
      "kaiser": 8771,
      "bristol": 8772,
      "pittsburgh": 8773,
      "involves": 8774,
      "restricted": 8775,
      "idusl0": 8776,
      "speculators": 8777,
      "ordinary": 8778,
      "aide": 8779,
      "rak": 8780,
      "pattern": 8781,
      "formula": 8782,
      "gibbs": 8783,
      "shin": 8784,
      "viacom": 8785,
      "pharmaceuticals": 8786,
      "analytics": 8787,
      "chave": 8788,
      "##itte": 8789,
      "transm": 8790,
      "09pm": 8791,
      "chavez": 8792,
      "hbos": 8793,
      "brib": 8794,
      "##axy": 8795,
      "talked": 8796,
      "powered": 8797,
      "idustre55": 8798,
      "channels": 8799,
      "clarke": 8800,
      "vigor": 8801,
      "wish": 8802,
      "##ded": 8803,
      "loose": 8804,
      "##roller": 8805,
      "seller": 8806,
      "slashing": 8807,
      "zealand": 8808,
      "approximately": 8809,
      "intellectual": 8810,
      "##m0": 8811,
      "input": 8812,
      "170": 8813,
      "##market": 8814,
      "suvs": 8815,
      "anderson": 8816,
      "backs": 8817,
      "grab": 8818,
      "protecting": 8819,
      "builder": 8820,
      "ranking": 8821,
      "brewer": 8822,
      "herbst": 8823,
      "##311": 8824,
      "volt": 8825,
      "replacing": 8826,
      "berkowitz": 8827,
      "cele": 8828,
      "informed": 8829,
      "handed": 8830,
      "idustre60": 8831,
      "notably": 8832,
      "##00000": 8833,
      "construct": 8834,
      "organizations": 8835,
      "105": 8836,
      "bankof": 8837,
      "sedan": 8838,
      "##ox": 8839,
      "##anim": 8840,
      "az": 8841,
      "ferr": 8842,
      "##iety": 8843,
      "##arie": 8844,
      "panels": 8845,
      "oppenheim": 8846,
      "anxiety": 8847,
      "gor": 8848,
      "etf": 8849,
      "society": 8850,
      "dol": 8851,
      "##augh": 8852,
      "##eria": 8853,
      "##200804": 8854,
      "versions": 8855,
      "kingdom": 8856,
      "owed": 8857,
      "##77": 8858,
      "##f0": 8859,
      "unanim": 8860,
      "employed": 8861,
      "##committ": 8862,
      "ours": 8863,
      "telekom": 8864,
      "##00000pus": 8865,
      "compt": 8866,
      "negl": 8867,
      "label": 8868,
      "richest": 8869,
      "lackl": 8870,
      "silv": 8871,
      "examining": 8872,
      "##200710": 8873,
      "overshadow": 8874,
      "grim": 8875,
      "auditors": 8876,
      "lauren": 8877,
      "lett": 8878,
      "##theless": 8879,
      "deemed": 8880,
      "moyn": 8881,
      "##neapolis": 8882,
      "##racted": 8883,
      "voiced": 8884,
      "impress": 8885,
      "advancers": 8886,
      "dry": 8887,
      "##rison": 8888,
      "##pmg": 8889,
      "angry": 8890,
      "threats": 8891,
      "victoria": 8892,
      "footing": 8893,
      "3m": 8894,
      "kpmg": 8895,
      "##de": 8896,
      "##bell": 8897,
      "leong": 8898,
      "minneapolis": 8899,
      "nevertheless": 8900,
      "consolidated": 8901,
      "rus": 8902,
      "##pal": 8903,
      "##sold": 8904,
      "delo": 8905,
      "realize": 8906,
      "labour": 8907,
      "##i0": 8908,
      "##bel": 8909,
      "115": 8910,
      "shifts": 8911,
      "bombardier": 8912,
      "proven": 8913,
      "cripp": 8914,
      "fuk": 8915,
      "moynihan": 8916,
      "##l0": 8917,
      "##kn": 8918,
      "whist": 8919,
      "junior": 8920,
      "##200806": 8921,
      "gsk": 8922,
      "files": 8923,
      "contributing": 8924,
      "relationships": 8925,
      "underwriters": 8926,
      "delinquencies": 8927,
      "##gon": 8928,
      "##pers": 8929,
      "stein": 8930,
      "tepid": 8931,
      "##cat": 8932,
      "##igate": 8933,
      "strapped": 8934,
      "regain": 8935,
      "buybacks": 8936,
      "creditor": 8937,
      "slows": 8938,
      "greeks": 8939,
      "muted": 8940,
      "shocks": 8941,
      "oliv": 8942,
      "dat": 8943,
      "gut": 8944,
      "##achan": 8945,
      "##201106": 8946,
      "##201007": 8947,
      "outperforming": 8948,
      "cup": 8949,
      "##burse": 8950,
      "lithium": 8951,
      "comptroller": 8952,
      "cargo": 8953,
      "##akota": 8954,
      "trump": 8955,
      "poland": 8956,
      "teach": 8957,
      "confirmation": 8958,
      "##yal": 8959,
      "probability": 8960,
      "bour": 8961,
      "pm": 8962,
      "leasing": 8963,
      "drink": 8964,
      "locked": 8965,
      "historical": 8966,
      "destro": 8967,
      "synergies": 8968,
      "lackluster": 8969,
      "deloitte": 8970,
      "protected": 8971,
      "idustre59": 8972,
      "segments": 8973,
      "fsa": 8974,
      "gate": 8975,
      "execution": 8976,
      "numerous": 8977,
      "turns": 8978,
      "idustre64": 8979,
      "idustre51": 8980,
      "accelerating": 8981,
      "miwd": 8982,
      "hepher": 8983,
      "element": 8984,
      "theme": 8985,
      "paschi": 8986,
      "mentioned": 8987,
      "stifel": 8988,
      "das": 8989,
      "vet": 8990,
      "implied": 8991,
      "platinum": 8992,
      "unusually": 8993,
      "gotten": 8994,
      "hide": 8995,
      "##riel": 8996,
      "##icop": 8997,
      "sliding": 8998,
      "messages": 8999,
      "cowell": 9000,
      "psy": 9001,
      "##inate": 9002,
      "forms": 9003,
      "agents": 9004,
      "referred": 9005,
      "cyber": 9006,
      "mgm": 9007,
      "##r0": 9008,
      "##space": 9009,
      "idustre68": 9010,
      "biotech": 9011,
      "carter": 9012,
      "columb": 9013,
      "dorf": 9014,
      "##zbank": 9015,
      "industrials": 9016,
      "##200907": 9017,
      "plea": 9018,
      "miwd00000pus": 9019,
      "rab": 9020,
      "fores": 9021,
      "monop": 9022,
      "spo": 9023,
      "planem": 9024,
      "scre": 9025,
      "setback": 9026,
      "dorfman": 9027,
      "gsp": 9028,
      "retreat": 9029,
      "helicop": 9030,
      "entre": 9031,
      "rebal": 9032,
      "specialty": 9033,
      "slumping": 9034,
      "awaited": 9035,
      "giannone": 9036,
      "expires": 9037,
      "creates": 9038,
      "disclosures": 9039,
      "medicine": 9040,
      "battles": 9041,
      "shal": 9042,
      "conven": 9043,
      "fitz": 9044,
      "wing": 9045,
      "##dale": 9046,
      "##iers": 9047,
      "##bour": 9048,
      "##emic": 9049,
      "subcommitt": 9050,
      "commerzbank": 9051,
      "##63": 9052,
      "##ertr": 9053,
      "franklin": 9054,
      "mu": 9055,
      "##held": 9056,
      "resh": 9057,
      "imag": 9058,
      "insol": 9059,
      "##200812": 9060,
      "strip": 9061,
      "recoup": 9062,
      "##prene": 9063,
      "amort": 9064,
      "entreprene": 9065,
      "pure": 9066,
      "reaff": 9067,
      "heat": 9068,
      "tightened": 9069,
      "electrical": 9070,
      "morris": 9071,
      "petroch": 9072,
      "crackdown": 9073,
      "enthus": 9074,
      "dubbed": 9075,
      "##ulating": 9076,
      "streak": 9077,
      "brett": 9078,
      "staying": 9079,
[...]
