[UNK]
[PAD]
[CLS]
[SEP]
[MASK]
!
"
#
$
%
&
'
(
)
*
+
,
-
.
/
0
1
2
3
4
5
6
7
8
9
:
;
<
=
>
?
@
[
\
]
^
_
`
a
b
c
d
e
f
g
h
i
j
k
l
m
n
o
p
q
r
s
t
u
v
w
x
y
z
{
|
}
~

##w
##a
##c
##q
##r
##o
##d
##i
##g
##u
##s
##l
##y
##n
##p
##e
##t
##m
##k
##2
##9
##3
##7
##1
##5
##0
##8
##4
##6
##b
##f
##h
##z
##v
##j
##x
##er
th
##in
the
##on
##es
##or
##en
##an
##ar
##ed
in
##at
##ing
##al
to
##it
an
##om
of
##st
##ou
##ent
##ic
##ion
##il
re
and
##re
##id
##as
##is
##ut
##ro
##et
##ec
##el
##ers
st
it
sa
on
for
##ill
##ur
##le
##ve
com
##ad
##ay
said
##ld
##ow
##th
##ig
##ac
##est
that
by
wh
##ly
##ment
be
##ir
as
20
is
##ver
##ter
per
sh
##os
fr
ex
##ot
##ch
de
##us
con
##ol
ch
ne
##cent
##ce
##ation
##ort
pro
at
##ith
percent
##nd
##im
##ess
##ear
##ul
##ak
##illion
##ank
##ge
with
##ate
##ect
its
al
mar
##am
pr
##ould
we
comp
bank
##ies
su
##ain
##port
was
##ial
##uters
tr
reuters
from
##ust
year
##ore
##ap
##ct
##iv
##ast
go
##igh
he
##ere
ha
mark
has
un
##oc
new
mon
are
##and
not
##um
will
##ich
200
market
have
##ive
exp
inc
se
201
##ist
##all
billion
ec
eu
sp
##ity
inv
shar
##ell
##pp
##em
##00
ar
##ost
ad
us
##art
##ob
le
##ie
##ding
ab
##any
but
fin
##onom
##out
report
##ab
econom
ed
euro
cr
##ue
or
would
invest
##anc
##un
pl
##day
##ors
##ome
res
qu
##oun
##ant
##our
##age
which
##ork
off
more
this
up
##od
##ff
##ard
ac
ag
ind
##ag
##ong
cl
##ack
##ok
##op
##gh
##act
##ond
str
##ber
##qu
##pt
##ther
##ose
##man
##so
out
##rou
##mer
##ail
dec
bu
bo
##row
##ia
##ek
##ans
expect
company
##ock
af
##own
im
than
##ions
##se
id
fir
##ight
##end
about
##ry
##yst
they
en
over
##tic
financ
after
li
##tt
##ary
##ure
had
cont
##ates
##uct
##ine
##ake
million
ear
inter
sec
also
sal
##ely
pric
##ount
were
##iting
so
fu
##oll
artic
article
##ww
www
##ance
##ttp
http
br
cons
me
##ud
trad
##20
rec
acc
financial
##arter
month
##one
high
##ip
their
##vern
govern
man
##arg
last
no
##ations
quarter
wor
could
app
co
anal
##ign
##lo
##ile
##ings
##pe
##ven
grow
##if
ris
##ated
op
been
##iz
##pr
##ey
some
int
##ous
stock
##ition
fed
part
tim
##ult
fund
government
down
##ire
share
dis
analyst
lo
sales
week
##ase
shares
bus
##ib
##aw
reporting
##int
##old
##ep
europe
york
##bl
may
cent
cor
deal
all
ass
10
chin
editing
##pm
##iness
est
add
##ound
comm
##bt
##ally
business
##oss
##gr
sl
##roup
who
economy
one
cap
##ree
pre
banks
reg
##erm
##for
##esday
##eral
##ities
##ft
there
##fit
##ens
do
other
if
gl
low
##ief
gre
##ence
##li
edt
tw
##ide
growth
##enc
##ough
can
fe
und
unit
am
##ital
##av
##erv
markets
##able
##ecut
cut
pol
##oint
debt
##ke
car
prod
##ish
##ments
##ru
ret
corp
investors
say
expected
offic
##ince
##ased
big
##ace
hel
##ating
buy
##ks
##201
##ach
##ange
first
##ern
his
##ets
imp
two
end
cred
##ert
incl
china
##ms
economic
##urr
2008
since
bec
chief
group
##lin
glob
##vel
while
##ex
into
##uc
##ang
cost
under
##her
credit
min
execut
##ian
count
capital
aut
work
mo
world
##hn
##ax
time
wed
prices
pay
##itt
years
when
##aus
global
idus
11
##fl
indust
profit
##ember
state
##ite
act
back
plan
##ick
##iss
12
##ett
incre
em
dem
##ident
2012
ann
pres
curr
##ending
2009
##urn
compan
companies
##gan
##ubl
analysts
oil
##ug
##uring
dr
air
##ational
job
bet
how
product
pe
##gy
amer
def
##ility
##ures
law
now
##ink
americ
any
cris
2011
investment
idust
consum
bar
##iday
##air
##ade
000
##ice
##ash
need
idustre
larg
mak
crisis
rose
forec
conf
el
accor
european
##loy
oper
dep
19
regul
##wn
ra
still
loss
help
##xt
sign
long
told
fell
day
##ral
bl
##ory
ma
rem
2010
according
##ata
##over
show
again
##gest
##urs
term
##ious
tax
gen
##200
bond
##iew
##bs
##ency
rate
earn
##uding
2007
next
bro
sc
take
##ause
##uch
point
##ploy
sur
such
##ord
polic
own
bel
equ
mer
sell
##ublic
##ass
what
intern
sup
##hing
price
well
##cl
serv
trading
call
forecast
executive
most
##lier
prob
interest
contin
##ton
##io
ins
15
data
second
##rough
##ric
##ual
##line
val
friday
secur
states
lead
offer
##fore
##ra
sour
sw
fl
united
news
index
sm
just
addition
##ise
##ollar
##ives
##ical
##hold
president
federal
jan
hold
result
2013
meet
earlier
exch
##ater
because
dollar
prop
jun
ver
##su
industry
thurs
before
thursday
ben
tu
##son
##ied
months
three
del
##ession
ke
four
##form
tre
sen
infl
gm
much
demand
##vis
reven
earnings
##apan
tuesday
japan
policy
rel
largest
##nesday
wednesday
jo
ste
rep
monday
eff
gain
based
net
look
##uss
##ury
fall
strong
including
##ries
##ull
##verage
##kely
conc
##ee
##ople
##ative
you
should
##isc
people
against
##ior
##ady
manage
see
contr
stre
##ix
central
mort
exchange
weak
rates
remain
our
##osed
top
money
ph
through
par
##irect
cour
##ject
near
mortg
##og
many
firm
##we
even
additional
inst
recent
##ward
official
25
30
head
rest
progr
risk
sect
##are
only
direct
##10
sch
att
##ced
##ird
higher
maj
like
make
13
##iff
disc
des
think
##ved
##me
cents
##organ
going
level
##ger
third
zone
start
priv
regulat
major
##ner
##gin
did
det
oct
gr
##als
##bre
red
##ged
##ind
##ices
##ame
gold
ro
funds
management
revenue
##ude
##ider
home
##ler
wall
assets
mat
##ific
##ents
##ese
##vers
stocks
##cess
average
estim
tal
costs
war
##orn
14
manag
appro
concern
sub
very
public
retail
made
##ether
cit
minist
securities
declin
##lear
ob
nor
kn
idusbre
good
tak
pa
them
slow
biggest
##iel
apr
likely
recover
ve
reported
##ystem
current
##ays
prev
inflation
dro
press
##rol
employ
street
##he
##ving
gu
pos
lower
trade
far
system
trans
consumer
court
##ential
sector
treas
international
##rupt
##ah
washing
those
support
prov
num
ev
plans
around
washington
##app
ord
17
spending
elect
16
hal
##ision
vol
##ces
##ible
announ
##ph
private
fact
##les
country
board
economist
18
march
get
wr
rat
euros
##30
fut
##aint
where
##alth
##ouse
##ween
between
##ump
fur
##earch
ext
jobs
stand
want
med
##ark
##ss
bid
results
program
tec
requ
cash
chair
short
##ece
she
strate
##ict
##eign
av
##ruct
both
losses
further
pot
sharehold
mortgage
##pped
##led
##land
opt
ce
##ama
put
record
due
post
feb
spok
comment
rise
spec
aug
ge
resp
##erve
targ
equity
set
##ason
banking
##arge
50
##ging
impro
added
##med
##view
compet
##velop
bail
ever
ju
account
##ared
supp
mod
hit
la
##ollow
countries
##ik
##ood
follow
develop
greece
cust
##itions
##other
hous
statement
these
treasury
meeting
sept
june
less
##ready
already
during
##ley
##ized
another
finance
move
run
fil
##80
##ases
500
america
agree
house
##da
sett
mot
chairman
##ning
##ron
clear
custom
increase
div
case
former
##mak
##asing
close
small
diff
september
##11
rais
proble
cond
##ission
poss
general
##amp
ref
##ier
spokes
fac
brit
contract
port
##ime
being
##ily
whether
mid
loans
don
meas
housing
early
##iven
##aim
##ondon
fisc
london
value
##ages
keep
fiscal
points
buil
##ield
rul
##ones
emer
##90
recovery
##ize
##its
janu
july
##istr
fail
same
january
##ately
insur
ener
techn
##ath
depart
##ross
pur
john
neg
december
bas
fam
##ned
##aper
fri
##erence
potential
##ai
riv
half
##ution
energy
##cy
way
chang
reserve
autom
24
sever
firms
april
issu
boost
##ober
##ush
##bers
step
##ling
seen
mc
open
##az
bankrupt
services
recession
##uf
october
##ker
cre
##ever
pow
import
##sp
real
apple
##idence
cuts
previous
bonds
##ful
obama
stor
declined
po
thu
tot
dom
ceo
does
dav
##mber
##erson
showed
better
bud
nove
november
##eng
22
##ting
##hip
compl
21
##ub
consider
##els
##look
##ave
expectations
union
23
return
talks
bill
27
bre
lab
##ought
##ics
bailout
##ability
acqu
american
research
key
##ocus
come
says
past
outlook
number
commission
goldman
right
##unch
clos
reach
target
leg
##ons
production
##bo
continu
focus
hop
among
stake
boe
##til
dou
sep
turn
26
##etary
##ants
tue
gas
sources
fourth
nas
total
officials
##ands
too
budg
ago
##reed
purch
prot
prom
committ
sim
##ott
source
however
continue
nearly
annual
minister
face
##yn
##enn
yen
view
##ky
28
##daq
09
control
claim
found
sou
wal
vot
coll
allow
##erman
bankruptcy
department
##itive
ital
##gress
national
nasdaq
bern
lend
activ
##ili
belie
aff
##co
##less
five
##ufact
manufact
##hic
##head
##ular
polit
##pres
currency
ask
below
adv
products
late
##ves
##min
senior
standard
corpor
##70
sol
monetary
foreign
##ugh
##ium
saying
power
agreed
bene
large
advis
aust
broad
repres
##ees
##50
every
rece
07
quest
##ew
chinese
##att
seek
shareholders
##ening
germ
technol
until
germany
jpm
cal
decision
few
called
##ruary
february
full
bp
august
##oo
29
pressure
##lement
investig
conference
budget
40
##orrow
mic
labor
david
litt
##hor
least
lat
05
might
times
##err
03
german
met
little
##ove
sale
north
partic
ecb
06
asset
boeing
31
health
making
##ners
mem
##ively
##put
customers
ahead
workers
sat
income
maker
export
sug
line
rele
##rys
dow
future
usa
sum
mich
drop
vehic
##iver
commer
micro
discuss
impact
cli
04
lim
##rysler
tel
gener
effect
announced
08
goog
##ogy
instit
spe
hard
hed
morgan
then
01
##ys
author
strateg
##work
bal
ber
unc
several
expects
regulators
stan
concerns
consumers
##ress
sing
overs
##ined
##ying
02
ford
idusbre8
##ann
project
hu
borrow
rich
compared
decline
##rel
sent
##ually
##ault
##iod
mac
suggest
##ited
buying
test
##makers
##aff
##ble
chrysler
use
pack
iss
period
##igroup
##ugg
benefit
mart
##ames
effort
citigroup
thom
##fe
leaders
operating
spokesman
operations
google
##atch
##ened
##uce
play
##ended
init
100
looking
##iving
above
rob
automak
inform
desp
selling
##ected
##12
quarterly
weeks
##ike
possible
rising
process
imf
measures
ubs
auto
order
raise
##urt
officer
partners
stores
given
agreement
sharp
issue
##ization
days
2006
pet
##ially
six
##ably
main
aw
signific
##off
eng
##te
##atives
committee
##thing
##ale
##thers
soft
corporate
##ired
##quid
##soft
margin
jpmorgan
microsoft
san
##side
deep
suc
businesses
significant
pat
executives
director
trillion
estimates
idusn
launch
##rial
without
charg
##oci
best
##uation
hedge
led
later
##ically
sit
propos
yet
claims
technology
gains
##cept
industrial
##ines
confidence
canad
defic
represent
following
despite
idustre7
crit
used
problems
fear
##che
unem
##ided
unemploy
improve
lot
push
though
ser
non
lost
coun
loan
change
liquid
growing
##ont
commod
investor
sold
must
admin
##pl
service
##elf
crude
##ri
##medi
taking
list
closed
##rat
spain
person
black
##ota
##ody
##down
poor
franc
raised
##ret
surve
##ony
##ived
give
##ertain
##up
helped
win
fuel
##sh
domest
action
toy
##ov
chr
south
administr
includ
barrel
yield
##ense
mob
restruct
35
rules
paul
##vert
know
loc
excl
unemployment
region
##ism
immedi
alth
latest
idusbre9
although
##bc
domestic
economists
agency
##ator
jud
hand
##ici
##ues
te
##pping
leh
ll
information
ip
held
##rict
##ness
invol
france
##oti
che
took
motor
asia
##ung
greek
##ising
##xic
60
poll
ended
hear
##ength
acquis
##imin
terms
food
democ
protect
indic
review
const
##20120
pass
##encies
worth
aig
overall
supply
increased
office
idustre6
lending
jump
asked
basis
levels
##rug
coming
conditions
britain
him
her
hol
dist
orders
har
enough
nov
employees
network
##lex
##ems
become
ent
fast
strugg
sun
yah
include
yahoo
detail
##ends
##ention
came
##action
rival
ir
##20130
##ered
##bled
members
democrat
##etting
adding
pan
##wh
##reat
needed
believe
##emp
appear
lehman
alm
##ij
negoti
##mark
comb
idustre5
expand
##ained
chall
arg
congress
media
##20080
republic
deliver
##icult
rating
russ
difficult
insurance
col
aim
##ins
##ified
let
important
andre
italy
mean
posted
##osure
##ift
stanley
reb
##iliar
##ibility
jul
resc
institut
position
clients
jones
##aps
default
familiar
interview
aid
drug
frank
je
bad
produc
##ume
administration
amount
almost
##ech
political
provide
place
##fol
pace
##lines
options
associ
stim
##ago
beh
stimul
risks
note
related
deals
deficit
##raft
##ural
lawsu
ang
opp
form
begin
manager
activity
##itch
toyota
emerging
strength
matter
##ina
##ators
##20110
each
##20090
portfol
##ench
manufacturing
india
certain
ca
##aud
##ceed
45
##berg
futures
chic
##anke
enter
ty
##ows
bernanke
threat
##uction
break
store
broker
question
survey
increasing
dan
##ware
profits
needs
##ering
som
fig
chicago
mad
merr
known
quick
##nal
##ael
situation
final
##ued
sund
##vir
32
##ne
##ivers
whose
mass
my
range
##itz
happ
##uan
highest
commun
holdings
vehicles
won
hour
##omes
##ished
##ds
soc
investments
##ides
surpr
regulatory
longer
complet
strategy
output
##omm
sunday
once
##amed
subs
mobile
japanese
issues
success
##isco
particular
avail
##ured
forecasts
taken
sho
##ty
tough
working
soon
positive
left
dev
##urd
##mit
restructuring
british
city
newsp
cy
mil
trou
paid
across
##wide
funding
balance
season
really
michael
able
alle
##21
##ading
propert
remains
package
los
bring
within
swiss
##ibut
avo
##cial
heav
ul
fix
##just
##ety
ur
book
reason
french
depos
watch
##ications
##chs
here
lt
##au
slight
dropped
separ
pound
##ories
liquidity
suff
old
writing
member
expl
lawy
##ulation
jon
changes
fraud
efforts
free
reached
reports
trust
beij
commercial
beijing
tight
##dp
merrill
##aged
announce
##ney
##ension
toward
lenders
filed
paper
80
staff
der
vi
sachs
previously
airlines
economies
senate
local
70
rescue
75
perfor
estimated
reform
prep
require
ltd
build
richard
stimulus
legal
char
owned
##uts
ru
available
secret
reduce
##mance
##phone
charges
differ
36
##20100
##book
dam
##ilar
##ecess
signs
adjust
##ather
bear
refl
portfolio
deb
vote
force
immediately
##abil
wealth
refin
invent
west
199
merger
bench
core
role
33
barcl
stud
development
problem
austral
thomson
##be
financing
failed
##ford
judge
automaker
probably
dollars
ba
prem
prof
having
##cr
similar
##und
barclays
il
34
##ract
##22
##inc
special
away
##oming
event
james
##ways
##back
performance
others
ren
pick
filing
##kyo
white
brand
tokyo
ny
online
##ances
jour
bought
hist
##onment
yuan
##br
somet
##uck
rather
envir
percentage
##ised
cutting
card
vers
electron
exist
strategist
avoid
gdp
##round
planned
struct
christ
plant
recently
today
reporters
settlement
request
prosp
##val
environment
##by
rivals
backed
##20070
trying
sover
sovereign
competition
details
offering
software
prior
dail
proposed
78
received
##sc
prime
worst
##ki
comments
reduc
##itor
##ects
##empt
ic
proposal
journal
##ertaint
ratings
investigation
holiday
smaller
##iam
inf
##vision
volat
east
saf
talk
daily
ant
joint
forward
district
access
tur
phil
##ads
chain
37
traders
exports
citing
benchmark
vent
bon
single
newspaper
saw
lu
pop
uk
##oman
cars
##bus
##forms
outside
holding
qual
shareholder
lowest
##portun
55
falling
leading
makes
opportun
den
44
discl
arr
38
track
##ipped
comes
nat
divid
slightly
univers
##ips
disapp
pred
repl
vice
payments
initial
##red
fred
design
##acity
compens
getting
canada
##ify
sus
mult
calif
bit
##arters
gross
miss
deuts
released
continued
##prime
##vin
##bank
##epend
stability
##31
resol
subprime
party
seeking
warned
##turn
##rote
challen
californ
maint
publ
independ
light
##athan
mortgages
lawsuit
##ck
advert
fav
dig
robert
goods
kore
governments
clim
california
things
uncertaint
wrote
done
rev
negative
takeover
excluding
care
##erate
guar
##kel
47
star
along
lack
##ba
began
52
lawmakers
39
got
purchase
building
traded
##cc
46
capacity
mexic
units
##stand
rough
er
find
guarant
##abl
stronger
hurt
wid
electric
##oline
airbus
drag
deutsche
angel
##eth
great
unli
phone
partner
##ensive
volume
necess
gained
benefits
##iring
employment
hong
##que
esp
currently
##lia
##iment
wors
borrowing
pull
speak
authorities
##per
##ades
amid
##thern
institutions
acquisition
nom
##ison
48
49
spr
bankers
easing
eas
block
##fs
##craft
42
steps
bonus
delay
enc
discount
respon
##cor
fears
pounds
expert
distr
purchases
90
team
behind
disappoint
ap
wants
internet
##dle
aircraft
mag
different
consult
quickly
##atter
wind
caus
raising
engine
parlia
##ruction
sav
approval
mom
vis
numbers
estate
pros
family
lyn
facebook
favor
cover
kong
accus
address
green
##ns
51
hy
organ
retailers
size
class
bh
##go
tom
braz
41
managing
confir
jonathan
reforms
sust
accounts
itself
2005
existing
43
steve
beat
doc
hope
model
motors
search
300
##ild
buff
property
##ither
prosecut
parliament
social
##oon
ens
uncertainty
roughly
offered
francisco
russia
downturn
camp
##woman
##maker
brazil
defense
tex
ire
charge
##aging
approach
scr
summit
##roit
53
managers
sy
stay
dut
detroit
doing
express
temp
##ulf
satur
docu
common
attract
shift
means
downgr
wa
##eas
hours
shut
ipo
middle
54
mater
##rod
moment
moving
huge
##pri
double
spre
prevent
create
systems
mut
##esh
revis
aud
gi
optim
offs
##iding
##60
forced
items
respons
accept
homes
nation
commodity
closing
jeff
spokeswoman
##lying
pract
ireland
reject
espec
##ica
venture
especially
draw
includes
saturday
margins
hs
progress
started
particularly
parts
kind
##die
##ination
compensation
seven
fair
rally
using
##str
estimate
counter
deriv
security
approved
wells
buyers
##ten
slump
##anced
##ming
65
yields
fo
fight
critic
protection
##iled
##81
land
##ea
slowdown
##bed
something
jumped
##attle
nyse
##orney
area
attorney
division
calls
ministers
sentiment
lift
sched
contracts
##erred
##26
appe
struggling
web
sharply
##ysis
safety
stress
commodities
##irc
##pay
conn
madoff
##ero
hopes
fann
##ried
ability
tele
reserv
emerg
geor
secretary
letter
fees
pref
running
##ari
bull
##ez
response
savings
##ead
jobless
##ently
stra
bott
fre
56
##eline
susp
paris
aggress
cho
sees
##tern
domin
freddie
##force
rule
##ucks
flo
link
##40
material
dell
##izon
expans
orig
57
##itors
##orning
##crib
##ption
forecl
fannie
mexico
analysis
pension
58
lew
decade
sams
##argo
##istic
retailer
lynch
panel
##hi
##roll
morning
##acy
##ha
particip
contribut
##25
stat
included
cann
smart
involved
##aced
present
makers
round
g20
gave
exposure
##arm
advertising
fi
premium
tog
resour
samsung
accounting
lock
weaker
instead
##ape
predict
exper
factory
straight
try
commit
##ci
remained
construction
majority
issued
association
##gn
never
trial
together
arm
cases
customer
tv
measure
##izing
expansion
##ience
##elt
airline
encour
batter
questions
shr
dub
##isions
##aining
taxes
brands
##atively
##ists
85
oppos
subsid
ground
wire
##ithner
policies
##rop
##ery
stabil
weakness
bigger
subst
pers
llc
superv
often
##oup
geithner
##apse
iphone
university
taxpay
origin
independent
##isl
dividend
fire
##bor
life
italian
##ane
##aster
increases
##oung
sil
flat
59
##ipment
larger
##ta
portug
limited
lay
worries
kr
leav
auction
ruling
weigh
##erity
retire
owns
signal
determ
separate
moody
lewis
##yond
evidence
appl
00
coal
election
combined
prompt
fixed
lender
negotiations
heavy
sn
typ
creditors
unlikely
faces
focused
collapse
sure
gasoline
legisl
greater
specific
##24
abs
span
regulator
targets
serious
ple
vehicle
peter
opec
peak
##ivid
automakers
##23
circ
antic
rebound
why
giving
dead
rio
##unt
individ
monthly
blo
derivatives
cannot
center
merkel
areas
extended
bang
afric
vir
ax
equipment
quarters
sk
##ahn
emergency
600
improvement
named
relations
session
##itr
beyond
drive
bost
extra
confident
probe
anticip
leader
regulation
dre
coop
steel
##15
closely
manufactur
##eration
chase
settle
##hen
strike
##apore
announcement
##mo
ensure
implement
massive
australia
lis
penn
##aded
ident
electronics
owners
buyout
buffett
release
brokerage
##ham
##anch
trend
canadian
##29
reserves
repe
agencies
##light
singapore
stop
republican
mal
shows
##itting
revenues
respond
commerce
looks
##gen
schem
mis
nok
trig
austerity
dealers
option
gulf
necessary
rein
hands
asian
billions
figures
##ara
spot
individual
##arily
barack
##ool
##19
considering
##isse
##come
accel
lag
##27
launched
payroll
les
hsbc
largely
77
comput
side
2014
##pper
norm
ath
doubt
limit
##der
conv
personal
hearing
boston
##ask
slowing
revised
##ola
##tty
overseas
matt
opel
##13
eric
altern
positions
consol
substant
seeing
bruss
pretty
base
roy
safe
brussels
##28
concerned
series
korea
ey
speculation
##anks
trades
flight
##sa
##iple
##bm
brief
bhp
##ushing
projects
ready
##eck
##essional
driven
broader
conduct
##rown
continues
##oy
trigger
ult
date
thought
fallen
attempt
insurer
##14
recall
slash
kim
##17
starting
rad
brothers
400
mill
infr
##cing
whole
##uled
guid
grew
equities
martin
telec
leave
feel
tum
reflect
william
##16
ach
eight
pushed
facing
##rought
idustre4
ratio
##ences
doesn
sb
volatility
kar
connect
plants
hill
prim
reading
ros
##to
roll
justice
plc
either
democrats
nar
##way
mess
marketing
johnson
raj
##lie
history
scand
ko
occ
lawyer
mae
directors
spanish
##na
complaint
showing
popular
transaction
##icient
hot
troubled
paulson
##ald
currencies
suisse
natural
##elves
##ateral
programs
tradition
##hire
nokia
thing
compos
consolid
fiat
relatively
regional
##af
disput
cur
offset
resources
tempor
went
lou
wrong
introd
##kshire
noted
expecting
berkshire
quality
portugal
##ats
giant
##ction
##bur
policymakers
fresh
promot
##ster
pled
##ining
##cil
coup
clearly
republicans
spill
summer
sony
flow
##noon
gap
##akes
##han
athens
mus
rights
warr
##west
willing
73
front
##18
gs
afternoon
matth
lux
##amer
increasingly
worked
worldwide
fargo
intel
setting
67
fort
representatives
continuing
council
##erior
quot
strategic
wireless
civ
rap
changed
acquisitions
considered
achie
700
required
moves
pip
idea
authority
course
examp
chip
caused
name
sense
787
treat
trader
tell
##mp
parties
sustain
solid
suggested
dism
##stone
canc
##ires
standards
dj
##aring
dubai
discussions
pricing
prosecutors
certainly
excess
weekend
##ges
webs
paying
purs
andrew
viol
##aign
##illing
##actions
decided
modest
##anged
experts
cle
##box
decisions
chev
brok
##egr
appoint
##iling
bur
nine
proceed
##aft
##ises
plun
chance
cable
##avel
brought
##enses
##ancing
pac
conserv
##ste
followed
simp
nic
mf
##ored
texas
george
##ival
internal
reduced
vict
##erated
adjusted
##atic
provided
surprise
##dr
plat
bottom
alex
##com
ful
fif
composite
##lant
americans
minut
founder
scheme
rapid
incent
##ppers
##going
unve
##holders
actions
aimed
##ko
helping
steady
ack
opposition
sought
74
ho
luc
##ighter
##acle
##uel
bonuses
revers
carol
berlin
pal
barrels
tech
tar
bush
computer
##alore
client
listed
##zy
assess
scheduled
##obb
became
unf
ministry
stemp
nations
bangalore
figure
lisa
iran
mount
rbs
battle
created
##ios
improved
jim
institution
vide
failure
worse
else
63
water
anything
sheet
hp
fully
aggressive
matthew
haven
##sw
hum
example
gary
leaving
worried
lawyers
inventories
rock
lit
prospects
mor
replace
##ordin
your
fifth
64
seem
versus
declines
ways
economics
zero
##oul
pap
##ae
quite
##res
amaz
household
ease
crimin
spend
thomas
establ
beginning
eb
scott
producer
et
seems
competitive
civil
takes
##oth
##earns
speed
opportunity
host
princ
receive
##erald
frankf
accused
##ains
cop
payment
models
kevin
possibility
wanted
wo
resign
rim
legislation
groups
icahn
always
widely
##pect
influ
grant
documents
losing
deposit
recomm
tor
##une
facility
transport
television
##care
inventory
prepared
##standing
exit
##bling
smith
##iy
read
users
offers
site
pacific
caut
turned
nick
risen
write
pushing
76
entire
##mitt
##liance
verizon
potentially
##lied
scale
150
returns
advanced
citi
##ament
operator
##uries
concl
var
thous
##oles
nothing
cautious
devices
successful
alleged
##stein
young
imports
advant
africa
governor
scandal
##ura
##igation
##ots
southern
hund
allowed
compon
corre
email
kept
uaw
##och
##ensus
wide
pressures
improving
ft
ibm
swe
speaking
transactions
sto
integr
idusn0
frankfurt
jose
built
rejected
hundred
royal
proposals
a3
##igan
keeping
school
respect
cand
petro
##ental
ship
uns
shan
campaign
bol
amazon
##gl
advisers
ban
##xon
congr
compar
relief
95
##of
boj
##ented
spent
chris
democratic
##lies
appeal
putting
lines
pc
rig
developing
signed
##essed
criminal
##where
affect
dod
regular
healthcare
scen
momentum
dip
stearns
exxon
western
66
deterior
significantly
publish
ore
##ester
king
room
repay
hiring
arab
boosted
weather
perform
leslie
##ma
sand
condition
##moil
turmoil
jet
travel
amb
##pre
##ersey
spx
challenge
##osures
wil
spl
carr
fundament
jersey
obl
cn
bernard
communications
##perform
eads
seg
defend
restrict
gmt
attack
assist
##ibly
##imum
dutch
deposits
parent
story
##uing
cited
protest
##par
field
alone
website
congressional
##kin
manufacturers
nuc
68
highlight
decades
mining
slipped
lose
##imately
##ts
touch
highs
##uit
shoppers
borrowers
declining
edward
underlying
decide
nik
##onn
##enon
murd
plane
insider
consensus
depr
##zen
##elines
stage
mutual
mix
##osp
sectors
alleg
##apped
##dd
plus
delta
debate
game
##itzer
published
goal
grad
bn
practices
thousands
moved
players
video
telecom
nuclear
speech
worry
angeles
everything
factbox
remaining
faced
##while
iron
fle
climbed
directly
structure
cause
reduction
complex
happen
underw
delivery
designed
downgrade
ham
eventually
describ
##hl
disrupt
##reci
faster
84
##ipping
deadline
##eld
2004
lic
charged
risky
##ida
##uff
sprint
narrow
saud
consist
affected
damage
99
preferred
vo
##ikes
##erring
airways
cat
##nam
millions
appeared
brian
steep
normal
##cast
holds
##ilities
treasuries
thems
actually
flag
themselves
idusl
61
subject
##ao
##attan
suffered
payrolls
candid
atlant
repeated
reaction
advantage
unch
##oke
##astruct
ongoing
infrastruct
##ibution
shock
farm
transf
brown
mostly
didn
mccor
controls
stempel
##rey
mccorm
stable
temporary
##iny
infrastructure
69
confirmed
save
##bles
##shore
requirements
maintain
meanwhile
ven
##ted
insurers
mach
spread
pas
michigan
fal
mccormick
adop
challeng
shangh
##anges
planes
##ipal
urged
institute
saudi
mcd
##xy
inject
shopping
79
music
##bi
##ino
supplies
appears
wood
##eter
terr
appropri
partnership
wel
immediate
linked
##osh
shanghai
phones
##arks
highly
renew
##aa
providing
specul
swaps
object
challenges
##vious
exam
joined
complete
instant
prospect
obvious
study
names
guarantee
62
2015
max
carry
##eed
shed
guidance
##sequ
##exp
blackstone
shrink
mike
##inks
exceed
books
opportunities
murdoch
initially
gerald
effective
fd
##ze
cypr
polled
collateral
expenses
falls
##izer
swap
stanford
##uctions
developed
bell
##eries
committed
foot
critical
sending
##mi
emb
warning
sens
closer
relationship
cyprus
alternative
##berry
250
oversight
niss
charles
##eg
##owitz
hundreds
enterpr
##ani
flor
consumption
##mitted
##umes
##ledge
dream
##ched
##essions
fee
##aled
boom
pen
dismiss
##onda
##liers
##hattan
starts
dji
allegations
spark
##2010
ess
##now
planning
##aker
##oph
pharm
histor
collect
mi
dram
adviser
tightening
weekly
##aire
brokers
##icians
defin
meetings
russian
##inum
gam
publicly
substantial
heavily
bloc
tend
reducing
anti
oracle
louis
crunch
australian
carrier
##ensions
suppliers
surv
banker
manhattan
disappointing
mit
earned
unchanged
digital
mand
lee
passed
nissan
pict
quant
tests
honda
##sy
indian
profitable
divers
squ
##onald
tool
198
libor
##enth
83
appar
solution
road
clean
##gers
expensive
traff
##rick
countrywide
fine
typically
obt
pain
generally
rank
2001
coff
resident
##2008
wach
cheap
##draw
lows
slowed
monitor
##fort
conservative
luxury
##usive
tank
volatile
sport
chann
##2007
scrut
##oring
represents
experience
earth
deput
kenn
unexp
##mann
##tr
##acing
dispute
finances
managed
##riers
unexpected
##ayl
depend
agric
bpd
fish
withdraw
expressed
mun
taxpayers
sel
merch
retirement
thanks
finding
##phones
milit
hen
##aur
priced
##ev
##aph
easy
exchanges
networks
ending
industries
camer
800
suggesting
fitch
acknow
award
ms
rises
extend
leadership
2003
offshore
flex
factors
aims
surged
72
interested
##iem
oly
##emical
police
completed
laws
various
gets
88
unions
extre
olymp
answ
meant
pump
coast
minutes
direction
hk
##ipp
##bucks
##ois
dim
##rid
##flation
##ife
traffic
northern
primary
##cri
kl
interests
attention
starbucks
##ario
##do
dil
switzer
rout
wider
alli
switzerland
om
##usion
irish
##icks
stephen
quoted
fun
##ius
medium
colle
gall
##fall
blackberry
gau
##zone
##wan
##onto
surge
##ient
##ston
driving
pf
expanding
cas
87
enforce
patent
cf
prel
initi
##emb
toronto
optimistic
sant
super
##brid
reve
##iders
traditional
##uster
investing
technical
lawsuits
clar
meaning
underwr
fewer
except
prec
grenon
version
allowing
gauge
##ander
technolog
daniel
##umb
operation
ones
##iation
##fully
cross
##itrust
tabl
alco
gives
carl
antitrust
optimism
mainly
aer
vx
##orter
##2012
caution
trucks
greg
runs
warner
politicians
oblig
dur
##agon
organization
materials
cruc
chevron
medic
eye
unless
overha
stakes
suit
##around
##yle
alum
partly
##pro
pipeline
##itter
86
mech
##cle
98
sam
ball
believes
bi
florida
arrest
reit
##ris
commitment
kraft
turnaround
jeffrey
deputy
applications
path
hor
##omb
foreclosure
daim
ray
advisors
mechan
suggests
daimler
stem
##apital
##illed
contrast
sides
prelimin
anticipated
elections
produce
resolve
lloy
##body
cab
argued
blow
##elle
mail
pi
restaur
voting
goes
swed
opening
brad
motorola
drugs
profess
##fsf
employee
ry
preliminary
sid
brent
referring
##ei
##ogn
burd
##night
becoming
slower
electronic
di
ups
guil
virgin
amr
introduc
eurozone
##east
##izu
indexes
agreements
generation
97
effects
litigation
##ille
settled
ele
branch
recogn
competitors
denied
wachov
tumbled
wachovia
shell
##ique
##20111
slide
ultimately
##ancy
jack
dal
essential
##aries
consolidation
buyer
profile
elimin
severe
possibly
bondholders
robust
resist
changing
ownership
acquired
efsf
zh
##uk
angela
profitability
professor
ixic
simply
banc
##adel
expanded
##fa
##veraged
everyone
unveiled
##vention
##reen
supported
##ctions
##ga
assum
factories
82
picture
mont
prompted
criticism
esc
liber
##wind
da
owner
pending
identified
adler
##anging
71
##agen
ut
england
heart
tack
battery
bord
cv
cad
ol
split
von
overhaul
talking
2000
bac
##urred
contraction
guilty
knowledge
achieve
activities
weight
##anger
lear
dave
hitting
trim
unders
##ana
dest
events
dobb
bills
##iger
##enced
billionaire
compete
feat
couple
appropriate
hired
inn
upgr
dobbyn
invested
compr
involve
##bon
creating
aside
##pta
89
works
wallace
chanc
##ulture
81
incentives
93
##ih
men
##field
ka
berl
##ister
notes
##liner
controlled
##awa
truck
looked
generate
ten
military
94
status
nicol
crucial
chemical
##arko
secure
fdic
alcoa
ts
dodd
##ication
regulations
##arat
##part
pil
tried
es
##ny
delayed
gal
##win
employers
eur
##ef
soci
bund
limits
os
ran
##house
blue
sound
properties
medical
##haps
afford
gupta
##bury
autos
sustainable
wait
approve
##erber
cisco
deflation
simon
attractive
draft
96
correct
##110
valued
headqu
perhaps
opened
alliance
wholes
effectively
##angu
bure
##ously
minor
cards
advisory
sar
volumes
unus
outcome
##ification
acknowled
##inger
mos
manip
##offs
nob
bringing
reput
task
kenneth
bm
perman
seeks
bul
##2009
outstanding
hung
##icut
##ivity
ske
transpar
taxpayer
copper
##ena
##arding
connecticut
comfort
slid
##wart
bob
disclosed
draghi
match
technologies
##otive
carolina
bets
regard
responsible
predicted
coffee
##kei
nikkei
space
2002
hall
jets
calling
prud
disney
coalition
cast
separately
idusw
##iffs
mcc
table
institutional
henry
##cker
recapital
instru
##rock
opin
criticized
##ole
jess
via
##iber
##ps
believed
obligations
##fsky
##ode
digit
##ros
penney
##well
##ika
bub
globally
pasch
boosting
ebay
trouble
nav
tied
factor
trends
solar
wage
platform
##uations
##imes
document
lowered
react
discussed
du
##ateg
##leg
imm
##aram
carriers
cs
silver
##van
##oni
upd
values
pfizer
check
scrutiny
bids
automotive
stabilize
dh
exc
macro
heads
supervis
original
##olf
content
subsidi
##kr
remarks
described
penal
belg
recommend
chancell
holl
tro
##ship
##heed
woes
potash
obviously
foreclosures
convert
multiple
gone
mov
cell
apart
mcdonald
##mond
views
height
displ
##ria
1990
lockheed
deeper
lev
frag
succeed
##plus
chancellor
windows
##pi
appreci
bloom
categ
stick
ill
crack
resolution
hay
refus
reass
steven
turning
##wa
governance
aluminum
smartphone
abn
community
##aratnam
marc
marked
payout
##ute
ordered
##oud
critics
joseph
hoped
##ftc
confl
##owski
##illar
##itative
unclear
##comm
promised
crash
island
perm
##room
cater
sque
##eted
ira
##erating
advance
bnp
##eller
active
responsibility
sells
investigations
##ainment
alan
strengthen
debts
cftc
ell
calc
##aylor
##my
ipad
##uded
damages
cliff
understand
somewh
somewhat
chips
message
wages
join
surprised
magaz
elsewhere
projected
opposed
##ho
founded
producers
argu
##bert
jenn
spring
clearing
##airs
##mart
korean
layoffs
drilling
##gu
rajaratnam
gather
segment
##ua
ruled
edged
##icated
##aling
indones
counterpart
oun
deficits
##backs
indicated
##ete
##cher
illeg
circuit
powers
acquire
collaps
rall
squeez
sarko
pointed
spons
enforcement
stood
sort
##ifying
patrick
nomura
kick
##orm
spin
pursue
eased
involving
sarkozy
cme
jac
row
structural
92
facilities
##onym
##ada
whe
records
combination
cycle
petrole
consistent
##ita
shop
twice
quantitative
conflict
ken
##erc
scenario
sued
supplier
##can
minimum
hyund
cool
moderate
chap
channel
##ecutive
intervention
##ught
ing
allows
appointed
hyundai
hurd
proxy
christop
wake
ryan
backing
##road
##idd
child
metals
mitsu
isn
delays
representative
jean
miller
van
##iveness
persist
petroleum
eastern
##burg
wholesale
carmaker
determine
##ifer
encouraging
vul
slugg
sluggish
tick
restore
olympus
##visions
asking
exclusive
reluct
provides
surprising
overnight
##into
120
hoping
headquarters
hou
upward
consulting
danger
prove
inspect
efficient
impl
pledged
surplus
##abilities
##ulated
plaint
##orp
fisher
##pan
timing
device
ram
rare
##ini
francs
##ked
choice
volks
towards
##phia
##ients
##rain
storm
puts
voted
failing
leak
downward
##ban
tougher
reputation
log
engin
hike
computers
orr
pct
watched
##ren
statements
file
thinking
las
evans
volksw
##aces
component
discussion
##othy
extrem
vow
vod
gar
outs
##dog
##bal
regions
plunged
volkswagen
rod
tai
##oration
night
challenging
entert
pact
##ll
sem
formal
weakening
disp
##encore
transportation
rh
socgen
glencore
homeown
ok
pent
##bu
compliance
consort
opinion
kkr
prison
operators
permanent
##ca
timothy
oversee
chains
##rovers
consecutive
reasons
leverage
##eps
innov
christopher
downs
##omo
extent
age
cham
##eph
##urch
triggered
residential
cooperation
relative
91
900
summ
jennifer
jp
struck
waiting
controvers
influence
##self
slashed
usually
bailouts
watchdog
cheaper
earthqu
rum
merck
powerful
jury
beg
frequ
bloomberg
noting
contact
vulner
madrid
maybe
consortium
ahn
disaster
valuation
discover
shore
tarp
frame
threatened
skept
##araman
pence
anonym
confirm
unable
intended
equival
lp
cerber
trich
establish
cerberus
thr
charter
senator
purchasing
easier
cities
trichet
hon
affili
select
mr
##ecd
curb
absol
metal
magazine
master
shipments
iraq
body
sky
philadel
##immer
fastest
philadelphia
##ustr
taylor
foods
coordin
feed
reflecting
originally
stream
raises
emerged
radio
mixed
burden
outperform
guarantees
warren
distribut
houston
peers
shown
presence
uncertain
taiwan
throughout
cow
##ishi
##sel
fleet
hack
##reg
door
provider
developments
dreamliner
votes
##star
##ii
pool
##itely
arb
pulled
latin
participants
rapidly
laur
introduced
headed
extremely
tap
##isf
consequ
mechanism
ounce
halt
associates
beating
##glom
crow
struggled
edge
breach
conglom
engines
practice
smartphones
cabin
depot
appeals
vari
##uro
exact
##itten
disclose
supervision
aviation
lagard
fro
andrea
##eless
##imony
operate
burn
fox
earthquake
##ado
provision
blamed
healthy
households
##istics
##away
bmw
wave
msc
stopped
impr
joe
stance
median
subsidies
creation
##itedown
jessica
priority
##35
writedown
##ope
##34
played
trustee
sac
vac
##orf
##ower
requests
cos
fid
##izes
weighed
##erly
flows
ches
distribution
##born
established
acknowledged
serve
##equ
educ
##apeake
chesapeake
##erry
ice
##ima
representing
bolster
spir
schae
ties
insight
##iller
type
lifted
dimon
tier
scot
strongly
reiterated
presidential
felt
sheets
delivered
missed
hybrid
##fc
workforce
##ule
tit
resort
returned
chapter
subscrib
pmi
reaching
entertainment
##beat
whit
shot
holland
##enger
downside
mergers
homeowners
stepped
floor
##mt
airport
square
decl
testimony
mel
neil
teleph
##tz
sensitive
##ospace
ranging
##issions
operates
arabia
harder
oh
send
qat
diss
##iro
demon
filings
century
aerospace
multi
##point
thirds
club
driver
holders
haw
wat
##aid
##zz
bav
##ico
renewed
string
caterp
caterpillar
gro
print
continental
assistance
##coming
appet
convict
reflected
eth
begun
intens
warn
wto
130
blackrock
##kins
corrupt
##nes
barg
hint
stall
town
represented
pickup
dividends
shortfall
veter
##utical
cadbury
##xx
soy
instruments
trip
mind
environmental
##utions
rail
##umber
##203
ends
eag
disappointed
##va
##atically
underscor
eval
rog
##mas
abroad
experi
##etts
kat
doubts
equivalent
tighter
##oto
reorgan
emily
robin
fairly
doubled
##wise
##aware
disclosure
individuals
friend
patents
cnbc
hikes
##ties
upside
lloyds
langu
##ene
##2006
##ders
##quir
encourage
switch
##inn
##onduct
obs
son
commissioner
saab
##achus
basel
idusbre88
rallied
ign
placed
respectively
##apl
demands
gaining
argent
g7
##wood
spoke
dealer
struggle
shutdown
amounts
##ele
insist
contributed
gra
sanctions
self
sidelines
ramp
portion
magn
happened
bureau
indonesia
hew
soared
seasonally
charl
finally
##aceutical
wealthy
appetite
cu
##adow
soaring
maure
served
util
vast
assessment
conglomerate
fighting
determined
idustre49
forcing
unpre
supre
tools
dealing
investigating
exter
himself
sufficient
karen
enterprise
grown
##po
bb
maureen
##inated
sustained
therefore
batt
remo
diam
rand
tab
resume
brew
##igence
tran
targeted
jason
##omen
regarding
##ibas
palm
trib
dun
tinto
decre
refinery
orlo
requires
stag
dismissed
counsel
yell
servic
effici
commitments
orlofsky
##uth
depression
ks
aware
pharmaceutical
underm
broadly
telephone
hur
ped
##key
motion
##strata
standing
tour
definitely
ech
##cedented
associated
unprecedented
##apers
proceeds
principal
##dek
unn
emph
christmas
games
##eled
inside
unexpectedly
liby
##oned
mobil
bavdek
197
page
display
walmart
baker
##lein
##ears
sparked
plaintiffs
paribas
lagarde
seat
awa
neither
xstrata
seoul
player
centers
oecd
zimmer
volunt
ftse
##uge
##enda
##iyama
##itory
leveraged
cook
signaled
phase
recorded
answer
pand
inquir
offices
winning
flights
illegal
collapsed
##36
##45
##elling
apply
twitter
##cz
restrictions
diamond
melt
##heim
exception
climate
sports
privately
vulnerable
supreme
barry
##afone
vodafone
repeatedly
mir
qe
bright
external
refinancing
ta
##lined
viewed
enh
generated
massachus
comprom
ads
repurch
tablet
excessive
reasonable
emphas
massachusetts
proced
##oney
ceiling
departure
minority
vw
110
concessions
satisf
miles
climb
##37
##onext
components
##ology
outr
conducted
atlanta
ow
imposed
art
aggressively
sarah
boun
##roid
##apping
questioned
barr
bidders
fly
##iet
live
bidding
pentagon
##enz
visit
dyn
keen
venez
##olog
##otte
qatar
convers
pun
##ague
tackle
venezuel
##ano
reverse
##iles
follows
idusbre85
flash
affairs
bubble
android
##illy
##ket
troubles
msci
intell
obtained
cameron
costly
gmac
idusbre89
unr
dere
##ucker
##ien
topped
euronext
complaints
mention
wy
##eping
transfer
transparency
##ilipp
virt
sites
jacob
350
constit
1990s
slo
ze
text
subscribers
accounted
indicators
produced
contain
reflects
circum
fundamentals
helps
offerings
human
emerge
cancer
##46
recovering
argue
mist
dc
sor
spect
mary
flexibility
unl
##stre
arrange
bulk
zur
##card
inj
reluctant
demonstr
philipp
true
##bler
wrongdo
##eland
wouldn
harm
candidate
preparing
##rew
spur
boss
tensions
##dict
cfo
dipped
triple
coc
enj
williams
rom
tie
##hart
##ami
##39
arbitr
expectation
seattle
lif
park
##umm
weakened
merchand
forum
completely
spreads
sized
toll
corn
strategies
##uble
victim
ohio
anyone
mounting
ron
consp
##umar
##icit
unlike
zurich
##atory
editor
easily
sym
audit
integration
charlotte
##ux
headline
chizu
replaced
bullish
indeed
fueled
nomiyama
defendants
zimmerman
cabinet
analy
written
urg
engineering
visa
notice
iduswn
revealed
macy
mitsub
slowly
advised
turb
treatment
basket
atlantic
emp
weakest
magna
funded
mitsubishi
abb
betting
drawn
entered
notch
##place
paschal
mell
broke
producing
provisions
glenn
memo
adopt
passenger
missing
##embly
deg
brid
##ersh
meltdown
ble
discounts
apparel
wrongdoing
##ette
rush
assembly
women
##use
adm
subsidiary
watching
##gle
strongest
matur
focusing
authorized
avert
cla
bay
##ites
install
distressed
posts
restructure
##58
suv
sets
siem
##pass
southeast
handle
munic
##oked
contribute
ga
fragile
mul
##lvan
##osing
expense
##fty
otherwise
detailed
societe
mine
##la
resigned
branches
##artis
pennsy
utility
##utely
basic
benef
pennsylvan
chances
grand
schw
##lands
pennsylvania
##ansas
acting
restaurants
veteran
##rad
##vant
dish
caroline
playing
rome
ross
aband
err
peps
accomm
disag
downgraded
accommod
##lett
schaeuble
recovered
1999
ep
##group
##59
toxic
shir
secured
surveys
wolf
delaware
universal
kel
##ka
dramatic
##ball
##ultural
heading
defaults
nerv
niger
agenda
lar
leah
idusbre86
##vo
solutions
covered
##kes
##inqu
revive
survive
kir
unusual
##ecks
knight
anonymity
pors
##38
finished
unfair
retain
siemens
bart
alloc
newspapers
treaty
##ourg
purp
winter
supporting
stands
difference
illin
attacks
raw
exposed
receiving
porsche
od
behav
eyes
illinois
credibility
laid
negotiating
doug
tes
walk
incentive
generale
famil
tone
salary
listing
aaa
knew
##ooth
delinqu
schedule
##aking
portfolios
rach
cohen
competing
families
##unk
citiz
prudential
##ira
click
transition
budgets
##elled
sweet
ian
##asion
sometimes
##icate
battered
function
yellen
dozen
none
neigh
advoc
tep
municipal
##uted
christian
reli
arch
adequ
idusbre84
##elli
shrinking
##yer
incident
##gas
forces
territory
mellon
sine
license
finish
feet
1980
sellers
scotland
framework
discip
stressed
##user
fellow
manufacturer
evalu
##reh
##imate
causing
##bia
marsh
shortly
revamp
plunge
glo
rup
##rael
grade
testing
fa
someone
underperform
favorable
##pread
phys
israel
##icki
death
##comed
thin
nich
wides
box
rick
frustr
governing
##iana
guard
dall
##alf
transform
hire
upbeat
##enthal
##lom
shipping
bold
language
hurr
##wor
extraordin
whate
reviewing
picked
suspended
whatever
papers
interbank
allen
widespread
duties
living
iduswen
productivity
concent
revol
necessarily
bair
##abi
businesspro
aa
##iest
##ski
gradually
##phi
##weight
patients
impose
calm
##ares
##rig
anger
fash
rebu
##pin
goals
consequences
prol
concentr
##pg
##izations
interven
circumst
attr
storage
substantially
franch
ally
argentina
systemic
exploration
hewlett
sinead
##water
##cel
desk
anton
cloud
extension
qualcomm
children
##44
##ivan
liabilities
##iture
gh
gib
signals
corruption
##chins
proc
politics
heard
nbc
##apt
absolutely
bish
pitt
peuge
diplom
behalf
chartered
education
##bk
peugeot
bag
wip
barb
candidates
rated
lob
surf
##oln
protests
telecoms
anx
marks
buys
becomes
renault
pret
attend
flood
tribune
welcomed
accepted
bishop
##enty
elev
ak
culture
style
hits
bae
nature
slumped
stret
suffer
##itious
greens
resulting
reductions
meth
esm
mario
##umn
##bev
pledge
durable
premier
arrested
ku
compiled
##orse
indicator
jere
false
pitch
absor
aol
##cow
##encing
##20081
sed
##za
targeting
flagship
750
wary
##iced
rosen
mandate
sudd
era
##ya
fedex
carly
gevir
gevirtz
hosp
##gs
expend
requested
blockb
len
extending
consultant
matters
newly
accelerate
warrant
##hib
hugh
blame
jeremy
manages
machines
mastercard
sudden
##anes
carried
tonn
stuck
victory
moscow
parliamentary
exactly
promote
auctions
reliance
controversial
sharing
bofa
dropping
##aphic
clo
coverage
buyback
tighten
morningstar
maximum
cautioned
derek
dark
hurric
dated
fundamental
highlights
wasn
gun
mas
##iton
fields
cuomo
rely
happy
##onz
buck
iduswnas
compreh
everybody
indication
rub
liability
improvements
subscri
granted
##tc
corporations
##aska
fels
emir
dominated
##resp
miner
##bro
##310
sea
scope
spike
intense
mack
##itness
groupon
submitted
benefited
telling
fill
##rum
performing
totaled
vl
investigators
##mes
exerc
population
hotel
gloom
accord
jew
upon
##rative
alternatives
promin
satell
claude
abu
resili
##itude
structured
geo
felsenthal
##erse
monitoring
imbal
regist
##20121
enterprises
confidential
tonnes
financials
##oyed
lucia
bishopric
bernstein
window
wilchins
##ng
chan
##erval
breaking
gear
ism
##graph
toys
equal
stead
anglo
catch
##neft
feeling
##ores
fines
capitalization
prompting
hospital
blockbuster
rbc
##ature
underval
difficulties
swedish
fashion
timeline
drove
##ikani
packard
happens
mutikani
bps
linc
outl
##55
arms
unw
clin
sixth
##inh
brook
fallout
issuance
method
dar
##ilateral
iceland
dalgle
dalgleish
ric
nether
calcul
##usc
lg
ranks
##hous
accom
delphi
inflationary
facts
idusbre98
mason
adam
encouraged
hungary
circumstances
netherlands
basically
primarily
capt
independence
##pective
cd
carlyle
lincoln
length
##kov
joining
weighing
berlowitz
behavior
ss
handling
seemed
##oda
pointing
##stream
hostile
comfortable
foundation
memory
packages
builders
saving
midwest
squeeze
##ilton
hein
infring
essentially
tn
wild
strengthening
venezuela
##iser
reality
dallas
contribution
headwind
returning
broadcast
mall
##arth
pleaded
belgium
grebler
sweeping
involvement
refer
syd
wheat
nord
prefer
compromise
450
competit
philip
exempt
houses
automob
##koe
merchandise
fost
unp
mood
aapl
degree
benkoe
writedowns
sue
northwest
##anth
##auss
privat
tyco
##vinced
wen
##overs
inbev
echo
differences
postp
caught
##ville
airpl
surround
volcker
santander
wmt
actual
maintained
deterioration
##astic
##ifting
globe
##201206
damp
marchion
hardware
pk
interim
meets
exporters
georg
gill
comcast
usual
libya
shale
gray
balanced
carbon
blank
accelerated
2020
##inberg
lucrative
##ofi
fer
pleased
clothing
applied
vig
shape
idusbre99
welcome
lobb
##vent
1998
beef
fidel
upcoming
entity
virginia
##mill
777
marchionne
nest
##oli
indicating
neut
##igned
slim
jefferies
sydney
convince
borders
bans
##47
divest
normally
intention
activist
##ym
whom
contag
##ront
comprehensive
tent
wang
##inal
indict
corporation
onto
generic
##201209
leaves
kb
uses
formed
alt
ranked
escal
##hner
nervous
ded
dubl
happening
##heuser
anheuser
##aming
merc
advancing
resistance
ware
##den
voters
krist
dublin
shake
volvo
importance
types
dhabi
neutral
code
ton
rupe
dud
pim
sull
ceos
perspective
caney
rosneft
monti
efficiency
##orate
bir
lobby
witness
contagion
hend
##amic
deepening
born
tens
##65
application
##time
##unction
statistics
cbo
voluntary
sullivan
##wire
serving
processing
category
rodrig
inflows
brazilian
wah
125
cert
##n0
##hol
sanofi
fidelity
lse
hefty
solve
concluded
aren
sears
##iconduct
inquiry
pimco
##sson
semiconduct
cam
##unes
shrank
hub
mull
##agr
trem
constr
dominant
##200810
cbs
southwest
a380
refused
prolong
deliveries
batteries
weaken
rumors
##zard
corner
african
##istan
##antas
unrest
##iracy
demanded
##bted
participate
dramatically
update
##sen
plug
strauss
##icken
resolved
##pts
scram
malays
vix
bullard
presented
ead
negotiate
fit
ern
refinance
##vest
sweden
amend
americas
chen
discussing
briefing
outp
annualized
hammer
ailing
operational
appreciation
race
admitted
border
outn
competitiveness
fom
idusbre96
soyoung
jur
providers
metric
successor
underwriting
nort
2016
mexican
pilots
outnumber
dup
##urance
posting
##ote
remove
skeptical
iii
tiff
suffering
kod
extraordinary
hamp
traditionally
##arr
howard
##retion
breaks
refining
quit
costa
davis
llp
737
##fir
electricity
##band
##iters
pra
adjustment
reid
strict
junk
improper
luxemb
projections
adp
barney
reference
billiton
adopted
##adem
##verse
seasonal
sir
vital
fired
fomc
sle
##athaway
marketplace
rebounded
pier
seats
idustre79
drugmaker
##rees
luxembourg
tiffany
lake
repair
milan
hacking
dump
pin
##000
stewart
unveil
biot
##sch
##48
##aki
180
promise
debut
career
lam
tries
##aste
adds
depending
arguing
requirement
cvs
berlusc
tony
threaten
berlusconi
subsequ
feared
raymond
##orio
indicates
minute
eliminate
##itable
reins
##umi
coordinated
reorganization
hollande
wu
sponsored
davies
judg
horizon
##olit
craft
failures
bow
convinced
ah
##mar
swift
hun
thus
checks
entities
beer
copy
bomb
##iang
annually
participation
malone
hathaway
announcing
student
mik
##lan
agricultural
college
repurchase
##67
county
worsening
drawing
stabilizing
implemented
##emark
plumm
recru
alongside
roche
discretion
seriously
##sky
supervisory
paint
stern
temporarily
satellite
mbia
minus
backd
briefly
features
##oma
valuations
cold
crises
screen
subpo
begins
crop
##ills
bes
instance
knock
divisions
brokerages
older
farmers
##49
##oria
sap
##53
tob
aiming
ultra
##millan
##aken
rupert
cds
strikes
soph
ideas
attempts
catal
pensions
##elos
diversified
empire
fbi
gab
viv
idusbre95
implications
hurting
##econom
hud
shield
machin
td
eurogroup
140
idustre77
##corp
##201210
thres
minim
valu
stimulate
voice
fighter
shared
sentence
ackman
reward
##ula
obst
controlling
##aba
##ptions
gallon
outnumbered
outfl
ubsn
idustre78
pretax
threshold
##tha
carew
consultancy
citizens
ast
guaranteed
assume
vegas
correction
manipulation
physical
##57
valley
giants
bin
yes
blog
recalls
imbalances
wond
implementation
dies
turkey
stagn
gradual
nestle
image
vale
resulted
restaurant
lowering
halted
shifting
##sey
courts
unic
omx
hurricane
dudley
din
##esbank
##andre
##zens
##eon
trail
##lix
securit
friends
bolst
comparable
egy
clearwire
professional
identify
groc
egypt
bump
##igible
lawder
yum
##men
contracted
maintaining
idusbre94
##redit
drew
liberal
carefully
kohl
forex
depends
roth
cola
innovation
stif
##akr
secondary
harry
explain
pandit
greenspan
monte
##lai
##kowski
##erous
##agues
polls
rachelle
wahba
kansas
transl
##inski
historically
##fr
##cean
centre
downgrades
upper
politically
oversees
duty
upgrade
##33
recommended
penalties
propri
historic
qantas
##rich
younglai
##udes
attorneys
spectrum
lind
idustre50
homebu
responded
developers
pulling
jackson
throw
##tered
##ops
imposs
##flix
sequ
idusbre90
cope
cpi
perip
requiring
##dom
tosh
idusbre83
##wait
franchise
##erb
herb
7203
hasn
connection
surrounding
dozens
helm
spreading
kodak
##cd
##green
intends
entirely
kh
##osser
netflix
keeps
experienced
bridge
plosser
mines
##ground
##life
##enheim
##201205
##ihood
tpg
##acter
surpass
flu
persu
mm
word
##201207
freeze
picking
weap
measured
##ione
resum
cycl
speculative
attribut
krol
pess
tata
pursuing
tablets
licens
complicated
zhou
dispos
prominent
tons
payouts
issuing
surveyed
ambitious
kuwait
sank
##giving
##isk
##iba
preserve
fortis
krolicki
acted
northeast
deeply
argument
##nel
##reet
berk
idusbre92
stabilization
neighbor
valuable
piece
deepa
a350
frozen
impossible
bailed
initiative
macroeconom
jam
disruptions
gates
barc
160
##osen
corresp
agriculture
nicolas
dupont
lean
drops
deteriorating
##u3
##ars
ash
threatening
##first
##ila
stark
##oses
contained
credits
idusbre93
symb
rent
ster
registered
##b0
submit
tomorrow
curt
##tering
##portion
nationwide
smooth
knows
choose
resource
resignation
colleagues
ratt
replacement
henderson
idustre80
specifically
##88
panic
highlighted
initiatives
troika
##rian
advice
##120
slater
lockhart
anna
depreci
occurred
cru
mattel
faa
capp
juncker
##gg
victims
geller
kahn
##cp
##100
words
repeat
recommendations
idustre76
##onzi
cush
fier
utilities
decis
surging
promising
macmillan
chamber
observ
##oshi
immin
coca
mur
##imp
brink
lots
formally
##baugh
##illa
markit
valet
rou
##ables
##ayman
##kev
papandre
movie
headwinds
papandreou
impair
gaz
inde
##200807
permits
fda
jal
reck
evol
bout
##power
plenty
intent
fails
comparison
disagree
kelly
entry
proprietary
##aut
seized
levy
pessim
##enance
covering
publisher
emirates
ponzi
##icon
unre
consideration
foster
valetkev
##ias
ingr
comply
expire
emissions
indebted
hunt
##ati
greenberg
ericsson
liberty
semiconductor
incomes
##ielding
tender
percept
accident
idusbre87
sooner
unsec
valetkevitch
bod
thail
expir
##olis
##oking
##200809
guidelines
thailand
refineries
dragged
nigeria
faith
##erville
modern
dependent
si
##ali
bailey
discipline
fte
hans
##ales
finland
riskier
##ommun
unsecured
killed
underst
attracted
modestly
variety
appointment
bk
##uy
introduce
awarded
pock
wan
susan
##zyme
noble
arbitration
kaz
nortel
pic
##gm
prepare
stemming
friendly
nv
sak
likel
bln
1997
mountain
##apiro
janet
restart
competitor
violations
exporter
laund
##pus
undert
drinks
schn
walgreen
stap
martha
adob
##aka
ipod
influential
maintenance
##eling
##aves
costco
tsun
user
reinfor
gard
shel
maria
predecess
painful
##iman
lex
##ters
carmakers
hole
##iking
austria
holmes
somerville
robinson
judgment
tag
##gel
##iter
pays
networking
irs
pedro
tentative
bed
character
ellis
mulally
##zh
stamp
##igr
vowed
handful
ventures
##gged
##ibilities
##ishing
##iane
forecasting
walter
##unds
##225
depressed
mcco
bab
peterson
prolonged
cub
##ulate
bio
honey
ual
perf
##ermark
idustre81
overcome
recognize
##egan
barely
indicate
hotels
die
worker
properly
telecommun
jacobs
##more
##aro
explos
##itures
presentation
assistant
nak
ballmer
freed
##pson
boerse
##iann
devast
fortune
##worth
##66
karey
broken
##log
poorn
complained
chevrol
abe
enorm
conting
amd
defended
imminent
rid
operated
thrift
##urofirst
warnings
poornima
alister
grain
medicare
diesel
actively
tsunami
##ques
preced
demanding
supports
##iko
disappointment
recapitalization
ftseurofirst
macroeconomic
likelihood
##ease
##iples
counts
struggles
##whel
unicredit
fault
chuck
briber
closure
northrop
topping
martinne
bancorp
bribery
duke
bry
##load
badly
audience
dimin
sands
boehner
thanksgiving
turbul
ricci
lands
anth
purchased
wins
accusing
chemicals
tem
asp
##ceived
##agu
thompson
settlements
achieved
idusbre97
absorb
vend
##cs
likes
grapp
tracking
flexible
chevrolet
fab
credible
exceeded
luf
##jee
##active
widened
disputes
obtain
##ection
bruce
wohl
gathering
spurred
liquidation
graham
undervalued
inev
recon
eligible
jail
##irmed
##ards
slack
boards
disruption
todd
doct
claimed
adjustments
buyouts
automobile
lash
understanding
tvs
mills
steadily
denn
wife
##etic
##ansa
meaningful
##dam
promises
pullback
##borne
dial
##wich
enact
36pm
summers
bansal
##hs
##ewski
##200811
outright
fteu3
rehn
prescri
barnes
##engers
45pm
cros
lie
belgian
##ians
##gar
##itosh
##usted
paritosh
injection
na
##ram
arn
intrad
virtually
elevated
intraday
potter
exporting
idustre52
positioned
louisiana
stretch
lease
diane
alexand
ky
tail
issuers
##ington
proved
bidder
reviews
negotiated
sandy
##isers
guy
engage
##iot
revision
conoc
##anya
conspiracy
mizu
##hr
deliber
redempt
agreeing
passengers
entering
christine
dv
signaling
cooper
convention
launching
##eb
##eva
mizuho
klein
syn
##69
mccl
odds
650
kan
merge
33pm
handset
alexei
hudson
roles
probes
viable
bearish
findings
msft
convertible
covers
engaged
damaged
socialist
stalled
##feld
midday
federation
##urring
pressed
administrative
gord
subd
learned
unnamed
telecommunications
yang
verdict
rolls
schnurr
band
gott
reop
sof
slip
cleared
launches
##201309
37pm
tranche
##ori
47pm
##arios
que
##stan
##irl
schwab
jewel
cz
ling
##oly
emi
metlife
scenarios
lith
##apolis
marking
seeth
looming
careful
##ihan
alib
manner
idusbre82
purpose
anthony
lilly
wut
forest
##inton
campos
ambac
lobbying
toshiba
flying
28pm
threatens
56pm
59pm
lawr
pressured
52pm
48pm
touched
nike
pcs
gaming
alab
rodrigo
alibaba
##eting
silicon
galle
clarity
analytic
42pm
landing
bg
fate
rental
drivers
difficulty
lasting
miners
casino
procedures
bounce
galleon
salaries
55pm
absence
1980s
03pm
34pm
willingness
simple
tanker
penalty
malaysia
merced
safegu
trimmed
seetharaman
tan
yester
##uki
crime
53pm
yesterday
eat
##h0
##j0
##burgh
honeywell
wutkowski
##g0
##aped
luke
lufth
fat
concept
quiet
##201110
film
affordable
moon
avoided
##enberg
andy
employs
lawrence
fcc
membership
catast
alabama
lufthansa
04pm
41pm
##strom
##emed
##ontin
combat
ebit
larry
mercedes
inch
tow
50pm
##enig
glass
peac
genzyme
movement
promotion
objective
mission
sin
##vey
##ender
guess
occur
##america
sustainability
##state
metrop
02pm
57pm
sterling
##ibur
##erty
outsour
##bos
prohib
32pm
51pm
gil
stations
##illips
regulated
ratios
brow
prosecutor
chambers
gad
##201310
hedging
softbank
##leman
##mental
removed
subdued
##elson
40pm
color
##atherine
misle
platforms
publishing
holidays
snap
##rete
quake
lowe
officers
peters
locations
depreciation
##mex
##arian
loom
15pm
lcd
spic
nl
forb
16pm
22pm
##enna
44pm
46pm
burst
tang
##nc
01pm
##fein
medicines
lifting
aia
##lock
bellw
competes
addressed
blankfein
##oris
outlined
49pm
shifted
pepsico
##68
##ayed
06pm
##30s
enhance
cushion
##mel
brings
spotlight
##itate
##ext
13pm
macau
35pm
craw
places
19pm
decliners
osborne
stepping
kumar
debit
syner
erod
##icial
43pm
mccool
spicer
amster
poised
categories
overseeing
tnk
weapons
##d0
adverse
clinton
ordin
##201211
##ella
##endon
jane
05pm
dicks
redd
##ifications
considerable
sight
prince
leads
##201109
dealership
##iburton
scient
interesting
##inder
idustre67
54pm
exercise
halliburton
heightened
zeal
programme
idustre75
##201204
hawk
gift
mumb
##acerb
exacerb
evening
##201306
suspic
conclusion
bundesbank
amsterdam
mumbai
##ht
##olic
maturing
27pm
23pm
palmer
compact
apparent
peacock
kent
edm
38pm
premiums
cooperate
fis
ana
evasion
ticket
relevant
correspond
cb
pose
graphic
insured
herbert
tracks
derivative
##a0
signing
succ
expertise
canceled
frequency
cboe
dai
##urer
shadow
studies
39pm
vision
##q0
14pm
calend
entit
discretionary
##gang
##vi
joy
clark
idustre70
acquiring
testify
##201107
##recy
31pm
idusbre91
emails
casual
depth
25pm
oversh
wagon
##acco
12pm
jointly
sitting
hep
overwhel
underpin
mature
26pm
journalists
addressing
convicted
academ
brist
hourly
responding
approached
thinks
secrecy
##italia
pared
##bridge
constant
finalized
##kovic
love
30pm
schapiro
anticipate
gamble
idustre58
mild
insisted
servicing
underperforming
steam
releases
urban
suspect
deferred
idustre66
staples
enormous
##kle
##ilding
schm
outflows
fan
ruth
24pm
typical
violated
pressing
beats
##wey
##ashed
automatic
##gio
amro
concrete
fx
pione
supermark
##asonic
##ube
58pm
undermine
shortage
divided
panasonic
1995
hopeful
wear
spa
10pm
merged
derail
predecessor
dickson
##uese
levin
29pm
portuguese
ring
generating
hir
yielding
##p0
kohn
bust
##print
warns
constitution
bartz
##wd
reviewed
blocked
arguments
affiliate
averaged
##acom
##ollo
helen
desire
booming
briefed
navy
dangerous
declared
alert
##20131
approx
advanc
idustre69
map
favored
audi
blood
acceleration
hersh
##vard
##ids
matching
lin
##greg
fried
17pm
elected
entr
revisions
paragr
07pm
08pm
geneva
extensive
##k0
##ortun
harris
explore
unfortun
survival
pitts
paragraph
fulf
##pc
enable
corz
##show
teams
decrease
gordon
bak
father
##itsu
sev
examine
assuming
nr
thorn
alitalia
sole
contributions
routes
calendar
bilateral
##bow
perceived
supposed
imported
investigate
iranian
stoxx
hd
##gren
barro
1970
longest
21pm
corzine
lad
tenn
ziem
meg
glax
warrants
20pm
ensuring
hurdles
busch
eager
machinery
kerv
##64
##ocol
contest
surprisingly
furn
##o0
##98
stages
ores
stockp
mini
barron
wolfgang
kerviel
lng
ipos
backdrop
uae
##pa
##ken
jamie
taper
##gies
interf
1930s
flaw
##201304
oppose
damaging
widening
recalled
klayman
##raine
patch
##pret
##mc
##hm
borrowed
engineers
awards
perfect
catherine
province
apollo
repayment
feature
intervene
tact
00pm
curve
successfully
reassure
hershey
siv
champ
strup
keith
lacker
##lay
##aci
harvard
respondents
proportion
soros
barroso
traction
training
disast
smallest
woods
##thus
totaling
idustre56
delivering
column
strains
11pm
deploy
francois
intellect
strupcz
dbk
river
unique
##vency
cement
organic
rajoy
narrowed
abbott
##houses
laundering
##e0
##ador
##201305
compares
regime
advertisers
nomine
nobody
strupczewski
isl
##ekom
legacy
braden
tobacco
##itol
fixing
550
##oning
finra
##endi
reversed
affecting
adequate
wagoner
dbkgn
726
idustre72
idustre57
oreskovic
diver
hart
##get
idustre63
##201307
##mos
##54
##fj
stayed
fluct
bernie
ns
roberts
drawbaugh
merchants
persistent
bombard
tun
depositors
suspected
implementing
ride
sessions
yout
recip
relax
deepwater
nonf
exploring
zieminski
##s0
league
agrees
propose
proceedings
waterman
a320
reddall
##nell
slowest
severance
extreme
ti
accur
roch
lane
##bit
retired
remainder
18pm
lived
xom
supportive
curbs
immelt
licensing
senators
idustre65
cypri
sink
tested
idustre74
principle
recapitalize
sticking
misleading
bankia
periods
bain
giann
elab
consultants
cooperating
bound
##vea
employer
affl
elements
maturity
youtube
hang
advising
edwards
reveal
##c0
kaiser
bristol
pittsburgh
involves
restricted
idusl0
speculators
ordinary
aide
rak
pattern
formula
gibbs
shin
viacom
pharmaceuticals
analytics
chave
##itte
transm
09pm
chavez
hbos
brib
##axy
talked
powered
idustre55
channels
clarke
vigor
wish
##ded
loose
##roller
seller
slashing
zealand
approximately
intellectual
##m0
input
170
##market
suvs
anderson
backs
grab
protecting
builder
ranking
brewer
herbst
##311
volt
replacing
berkowitz
cele
informed
handed
idustre60
notably
##00000
construct
organizations
105
bankof
sedan
##ox
##anim
az
ferr
##iety
##arie
panels
oppenheim
anxiety
gor
etf
society
dol
##augh
##eria
##200804
versions
kingdom
owed
##77
##f0
unanim
employed
##committ
ours
telekom
##00000pus
compt
negl
label
richest
lackl
silv
examining
##200710
overshadow
grim
auditors
lauren
lett
##theless
deemed
moyn
##neapolis
##racted
voiced
impress
advancers
dry
##rison
##pmg
angry
threats
victoria
footing
3m
kpmg
##de
##bell
leong
minneapolis
nevertheless
consolidated
rus
##pal
##sold
delo
realize
labour
##i0
##bel
115
shifts
bombardier
proven
cripp
fuk
moynihan
##l0
##kn
whist
junior
##200806
gsk
files
contributing
relationships
underwriters
delinquencies
##gon
##pers
stein
tepid
##cat
##igate
strapped
regain
buybacks
creditor
slows
greeks
muted
shocks
oliv
dat
gut
##achan
##201106
##201007
outperforming
cup
##burse
lithium
comptroller
cargo
##akota
trump
poland
teach
confirmation
##yal
probability
bour
pm
leasing
drink
locked
historical
destro
synergies
lackluster
deloitte
protected
idustre59
segments
fsa
gate
execution
numerous
turns
idustre64
idustre51
accelerating
miwd
hepher
element
theme
paschi
mentioned
stifel
das
vet
implied
platinum
unusually
gotten
hide
##riel
##icop
sliding
messages
cowell
psy
##inate
forms
agents
referred
cyber
mgm
##r0
##space
idustre68
biotech
carter
columb
dorf
##zbank
industrials
##200907
plea
miwd00000pus
rab
fores
monop
spo
planem
scre
setback
dorfman
gsp
retreat
helicop
entre
rebal
specialty
slumping
awaited
giannone
expires
creates
disclosures
medicine
battles
shal
conven
fitz
wing
##dale
##iers
##bour
##emic
subcommitt
commerzbank
##63
##ertr
franklin
mu
##held
resh
imag
insol
##200812
strip
recoup
##prene
amort
entreprene
pure
reaff
heat
tightened
electrical
morris
petroch
crackdown
enthus
dubbed
##ulating
streak
brett
staying
compensate
tremend
seventh
bip
cart
g8
hort
pour
megan
crown
q4
##gt
novartis
##201004
movies
##ropri
dex
meat
##lining
hearings
explicit
fraudul
columbia
beach
conver
##ichi
plays
saty
dhanya
kbw
coke
ihs
##isation
assem
glitch
##ronic
billing
charging
conclude
decisive
sentenced
shops
subcommittee
##aig
##aping
##astel
idustre73
precious
links
ufj
##aly
forth
decent
branded
misc
##ixon
##ariachan
skariachan
alexander
iphones
fined
overt
swings
limiting
error
subsequent
nice
##uz
##ovo
santa
##astelica
idustre53
urging
snow
##oulos
csgn
nichol
gabriel
##ji
cha
repaid
availability
maxim
vlastelica
stam
##akawa
heating
arth
firmly
attach
idusbre8b
harsh
maturities
vivendi
lone
##onest
twe
combine
interc
dougl
challenged
esa
rot
stated
golden
regardless
dent
fs
disease
discour
carrying
##inational
cox
schl
unemployed
ger
sie
svea
##sj
##aints
louise
wilson
collateralized
hughes
ps
rack
haul
edition
context
donald
subsidiaries
douglas
lives
chile
load
specialist
multinational
magnitude
romney
##ingly
distort
##200904
stempleman
gru
iea
pnc
##ainable
##ellation
ablan
interpret
baert
55am
obligation
rebuild
##udy
##ahan
175
manufactured
1994
dates
partial
##ogue
projection
students
lisbon
popularity
##czak
##oen
##201105
title
deciding
feinberg
serves
preventing
letting
woo
rolling
winners
mcclendon
pile
##eded
imper
schwart
macqu
transparent
baertlein
aver
##ple
##eding
alw
manuel
delhi
structures
idustre4b
underscored
schwartz
macquarie
accum
michele
judges
dodge
wyn
##racy
##adim
striking
idustre54
procter
ernst
##iner
wills
carney
crew
440
organized
##olaj
principles
surface
##zner
embr
uncon
passing
integrated
consistently
carlos
infringe
mikolaj
shalal
fold
broadband
accusations
greenwich
elin
incorp
deleg
escape
conflicts
mikolajczak
##jo
##istair
headlines
##core
##rimin
alistair
##201212
kill
sx
eventual
inevitable
psych
##liners
located
speaker
regularly
mistakes
vist
##etch
backst
remed
radical
route
bankofamerica
hess
ion
idustre71
noneth
vienna
subpoena
bah
##ghegan
geoghegan
celebr
kam
ward
##alco
weid
viet
computing
expenditures
oppenheimer
nonetheless
oak
zo
anim
unsust
elinor
sab
##veland
valuing
doubling
handled
causes
transo
ebitda
fert
##mon
##etime
alcan
190
##alsh
##201104
daimlerch
permission
aar
timely
assert
facil
cleveland
gradu
nicolaci
##idden
expiration
transocean
dual
dealt
##achi
##bean
ethan
thor
enron
shirakawa
amortization
bipartis
daimlerchrysler
##52
background
commentary
tells
lion
##umbo
##ounded
definition
mccain
intelligence
evaluate
bis
dair
kath
wend
##oop
restr
schemes
q1
walsh
zucker
##enson
maz
belief
avoiding
##essee
tru
milk
anticipation
diligence
defe
##anne
denom
lagging
partnerships
##32
53am
army
sirius
cypriot
ter
alaska
##ordination
vowg
resilient
indictment
##ora
##eton
conce
##amics
##eman
##aires
satyam
cot
cum
##intend
andreas
surprises
profession
comlay
51am
perception
waste
insiders
rolled
picard
nonfarm
iv
##idt
wars
360
websites
reversal
abandoned
letters
##inations
stiff
tra
flah
prepar
predicting
##201011
tepco
revolution
flaherty
rice
chakr
##avis
calpers
transferred
##pet
##t0
##essing
outlooks
communication
##200704
##iami
47am
conviction
injunction
cro
##upp
unh
autonom
realt
marshall
barbara
plummeted
miami
edwin
personally
uncertainties
gregorio
##lish
criteria
secrets
whistle
bayl
lac
##met
developer
##dell
##62
dewey
cooke
nextel
protesters
succession
jerry
##200909
coupled
vill
##onica
##osn
craig
##endum
studio
responsibilities
dairy
coordination
guys
donnell
fortunes
urgent
accommodative
pad
stub
trick
defect
kristina
veto
nes
##cer
##74
##ilo
singh
frankel
grounds
snb
allegedly
weidmann
station
##outs
##awei
bargain
arrangement
tesla
dxy
##eca
##ache
softer
lent
holder
grip
guide
huawei
challenger
subscriber
bipartisan
bsky
pd
wong
connected
diversify
pilot
explosion
bayliss
bskyb
jer
##gence
stum
beverage
defensive
shortages
putin
chipmaker
publishers
assured
41am
freight
dismal
agricole
vs
##tel
54am
triggering
woodall
counterparts
aven
##89
##usions
##imited
ori
root
strengthened
penny
assumed
wiped
gloomy
unsustainable
cere
##car
##nan
##aha
retirees
unlimited
fierce
mol
##opoulos
officially
contacted
bolstered
grocery
vin
##drew
thain
loyal
##iked
referendum
##mott
stuff
wfc
withdrew
strain
reversing
hurdle
archit
warehouse
schmidt
kre
##illance
surveillance
campbell
59am
hoenig
eyeing
##dy
ananth
##ige
withstand
arizon
realized
claiming
performed
arizona
fia
##making
hyd
learn
turbulence
vietnam
dire
##arely
peer
prevail
dominance
lynn
piec
vik
defined
tremendous
##bons
stun
seed
partially
moz
barn
21am
hardest
orderly
prosecution
skills
occup
bellwether
tennessee
##84
overd
##health
formerly
52am
mercant
hires
##ala
##abeth
attended
latter
conducting
nicolaus
crowns
hammered
lingering
pb
##ifies
##200905
myspace
completion
licenses
devastating
iber
produces
##201006
46am
auditor
dominate
rigby
arrangements
outlets
##heral
maryland
juris
peripheral
pair
ont
weber
justify
36am
tesco
besides
nut
tiny
youn
intend
scar
steering
147
45am
ftc
airplane
##icter
##chi
sud
abrupt
stricter
discovery
wynn
denominated
850
2017
merit
announces
sugar
legislative
bleak
allocation
pessimistic
mazda
tm
##yt
##outh
240
bitter
experiment
rupee
persuade
1970s
mercantile
bent
cant
zu
leap
talent
galaxy
supervisors
curtail
collar
20am
##ema
18am
legit
reneg
promoting
intensified
georgia
forbes
nev
##rous
buoyed
caps
proper
balances
##201005
tumbling
fare
gol
hell
ii
indirect
intact
insure
motiv
closes
negotiators
ourselves
stamford
died
##51
financed
caremark
resur
backlog
hsba
jurisdict
##war
##uous
unsold
leases
##ouri
scandals
nickel
hes
slam
contractor
42am
56am
conocoph
tam
##ito
##104
austrian
sanford
julie
kyle
saph
insp
worsen
eli
xia
nex
constraints
ontario
ml
refiners
astra
homebuild
cyclical
saphir
##ometer
gov
servers
50am
##200805
nht
##front
##anto
airshow
17am
wyeth
foresee
nhtsa
q3
##aras
ide
opens
##inka
##overed
##200712
##holm
renegoti
##acc
endors
superior
23am
##200906
##neider
37am
worsened
realtors
##hood
retr
retre
retained
contractors
ports
mcgr
spiral
tips
chosen
clare
takeovers
bald
premature
bargaining
catalyst
resumed
dexia
mud
##gate
##math
finn
08am
##200707
blocks
zhang
weighted
conocophillips
##41
aggreg
aftermath
announcements
tumble
functioning
expenditure
islamic
eia
anch
expired
mineral
booked
58am
frequently
discovered
lenovo
sall
shy
breakdown
greenback
stone
##ationally
icon
kinds
mba
##202
##loat
##appropri
32am
48am
promoted
gathered
printing
laden
##61
fraction
slate
belt
antig
embarr
underscoring
conventional
monopoly
embarrass
yinka
##estr
builds
27am
delaying
rigging
cooling
mistake
cass
hom
train
valid
richmond
promotions
cameras
##king
##think
correl
allies
##ernand
06am
staffing
44am
landmark
peaked
spots
binding
zyn
##cape
##enkins
adeg
coinc
slated
appearance
communities
participating
zynga
n225
ott
pear
##ede
empt
schneider
collins
plunging
etfs
adegoke
##gent
stonest
##opard
capitol
earning
40am
##123
nikko
recommendation
eagle
fertil
stonestreet
horn
wsj
##pton
carey
11am
totally
freedom
vest
questioning
editorial
unfortunately
financially
##ashi
favorite
determination
rakoff
hals
sara
owning
norway
16am
nationalization
similarly
synd
57am
q2
tends
##zo
notion
param
03am
russell
kindle
upgraded
##rist
##tag
##lyn
##tick
28am
english
communist
woodford
exceeding
battling
privatization
vendors
overwhelming
het
##erately
34am
pumped
echoed
posed
##c1
##75
##aine
101
10am
##liest
lazard
1996
buildings
##ato
lawmaker
39am
diluted
emphasis
symbol
##hann
peg
35am
accepting
introduction
deteriorated
collective
corrected
updated
nevada
slipping
avon
closures
09am
02am
communique
royalty
rural
dean
hairc
afloat
anywhere
walt
idustre7b
krudy
##201010
wonder
##ocal
server
multib
##201012
collection
watson
han
##igar
arcel
restoring
14am
1992
##200705
affiliates
doris
gens
pages
publication
##201009
ultimate
dvd
enab
chiefs
26am
##beit
dynamics
hast
nad
##ja
##onents
missouri
counterparties
fisker
##79
chocol
##ighth
improves
midst
mainland
##net
pras
spy
outc
##rupted
turnover
##eway
##ova
residents
philips
pumping
waters
airplanes
attributed
multibillion
lapt
tapped
drives
38am
mandatory
enjoyed
arcelor
dixon
ted
##prom
feast
recei
objections
kw
mcl
##opular
overly
loos
15am
topic
prudent
selection
climbing
shaw
suz
hels
regulate
considerably
exclus
readings
cc
xinh
considers
amgen
nationalized
1991
unpopular
amendment
crawley
prius
barriers
bny
skeptic
prescription
##ona
##205
schum
07am
digits
49am
sponsors
gart
otc
wine
##fi
theft
asm
aging
##ghan
timet
testified
priorities
transfers
postponed
hunting
wer
##gor
fuels
amex
refr
01am
laurence
hug
albeit
quad
##ifeld
minds
gene
unitedhealth
grants
passage
3g
uptick
25am
grid
22am
05am
controversy
gaunt
##olitan
kro
ral
sher
investigated
43am
##200711
answers
capped
dennis
shak
doha
blu
memor
##200709
gunna
nig
psa
##cies
chose
finds
135
focuses
buffer
bubbles
observers
##entech
##endorf
genentech
13am
franco
deval
jonas
correspondent
##amu
33am
nicole
fn
til
##rc
sacr
stricken
19am
denies
burger
oregon
klm
regarded
adoboli
impressive
##iary
##43
spun
swing
cul
jed
shorter
29am
urges
scrutin
##ymac
xinhua
einh
##esc
paypal
peace
##inki
chairs
idustre62
losers
integrity
procure
einhorn
afghan
redes
##ahoma
suspend
bias
lidd
ifr
##86
theory
inher
shipped
##ibr
subm
realty
interviews
lights
worrying
okl
benefiting
outsourcing
relating
supporters
consolidate
airports
removing
dialogue
oklahoma
exclude
finalize
defendant
lloyd
islands
akerson
sophistic
##ipe
fled
classes
beaten
oriented
ando
##ager
securing
temper
subsidy
recognized
lengthy
jcp
lunch
ish
chicken
steph
confirms
qe3
calculations
transmission
helsinki
mile
##nn
busy
mirr
##eu
##used
indymac
shouldn
31am
##auer
bing
certaint
kub
##agn
##opf
extends
collab
jeopard
milest
greatest
functions
rogue
planemaker
mural
rans
##tim
##charg
couldn
underway
restructured
havens
ellen
elaborate
song
##bach
##aco
chinalco
preference
convinc
appreciate
marri
firmer
internationally
##107
rupees
ousted
toni
stir
overhe
capable
pledges
datab
noda
theod
relied
##andu
lien
underc
24am
informal
associate
charlie
engineer
aj
fernand
myers
metropolitan
overshadowed
bt
lure
##42
##esa
reed
##etes
##isted
ecu
colomb
ukraine
decreased
praised
cruise
entitled
##izz
reasonably
squeezed
urgency
frustration
xero
##iac
toler
##agher
fares
softening
747
pitchford
timetable
xerox
lip
revamped
pierre
pioneer
backstop
sallie
ppi
rational
##200903
choices
destroy
certainty
jay
sr
alph
##201201
trials
please
##profit
inspectors
conversations
##bush
##ils
alcat
suitors
intc
counting
04am
industrialized
emailed
##200910
##orated
##odes
##ussen
distill
loses
erica
travelers
camera
aspects
anantharaman
##caster
##gd
stockholm
disord
eliz
discrimin
nominal
machine
##gb
relying
##idency
scri
laura
acceptable
eliminated
7201
fought
lang
inade
mcg
broadcaster
attracting
00am
fluctuations
gensler
inadequ
aber
tops
parall
hitachi
advisor
fiduc
scientific
tension
forg
mny
lever
feels
impacted
sergio
opposite
##othes
mnyandu
mitt
##otic
##apra
109
anybody
soured
30am
apolog
mounted
gambling
lacapra
kot
nancy
##pn
shiller
moreover
movements
location
rebates
grounded
horton
architect
elizabeth
gidd
ritsu
sonn
unwind
wedbush
##weigh
generous
rr
##zing
##berger
bankruptcies
watchers
lifetime
##2008100
resilience
stubborn
ritsuko
nin
cord
goldstein
kraus
flowing
fundamentally
embark
capture
professionals
schumer
reim
registr
backl
processes
##town
noah
concerning
protracted
safer
coupon
highlighting
anxious
cbot
gorman
billingham
nintend
##kopf
effectiveness
yu
##yr
outweigh
credited
blast
##board
lineup
whitney
satisfied
impairment
baldwin
blin
##di
##inter
stal
102
oilfield
##ikumar
boosts
personnel
disappear
speculated
reliant
muralikumar
##atlant
##owa
munich
ghosn
gazprom
baby
alexandria
lut
pes
packaging
discounted
cancel
dealerships
alcatel
##atlantic
tenth
##ality
capitalized
winding
nymex
skepticism
kia
rain
peru
alar
regan
twist
brother
privacy
generates
approaches
landscape
nintendo
eld
##una
outline
autumn
##sons
firepower
assumption
doctors
scaled
popul
telef
retiree
ethanol
##era
sadd
crimp
ample
rauch
dominique
burton
benefici
securitization
gett
hut
pu
##asan
severely
225
rescap
alleging
satisfy
stockpiles
iberia
bj
pause
incoming
##ardt
governors
12am
belong
excludes
reinforce
shocked
heinz
ji
lange
picks
interactive
treated
qualified
##ui
##isons
exec
hav
##abe
imposing
##iano
realistic
harb
##ippon
##known
filled
tara
##isms
##illac
##change
##version
arrived
freder
tariffs
rubin
abc
selloff
stories
argues
array
reconst
##kb
##99
##vak
##aran
isol
ships
103
equally
continent
powerhouse
calculated
servicers
backlash
mt
moss
##vals
##liquid
stakeholders
baer
diab
um
##cm
##olo
highway
teen
illiquid
artific
demonstrate
telefonica
230
compelling
##ppy
indications
trusts
achieving
unknown
contend
fuj
endorse
idustre6b
selected
iowa
pir
##56
monster
assurance
##liances
barometer
graph
legg
deepest
cadillac
exceptionally
outrage
fertilizer
pul
##rett
boy
appliances
photo
##201303
punish
##2012100
fiduciary
krauskopf
pover
roman
incred
##agan
jeep
cvx
hayward
misconduct
whistlebl
bce
##run
##82
##asek
##acker
financier
##holder
injections
graybow
nigel
poverty
##edia
unac
##uman
claw
royce
philippines
sophisticated
batch
ine
modifications
##200911
apartment
pools
awaiting
fraudulent
cic
eighth
urge
axle
pepsi
dumping
lies
chart
dana
faltering
procurement
anemic
shrug
##liver
section
mode
lagged
aversion
sok
tip
##itation
invests
upfront
doors
glut
darling
lexus
enacted
prasad
dwind
clock
grows
relies
directed
medi
michelle
studios
##zeneca
tenure
jewelry
astrazeneca
unaccept
ker
mend
##sten
carries
evident
germans
hopefully
evaluating
nam
##hill
presidency
science
instability
juer
mississ
rejection
pharmacy
balloon
##200612
giddens
woman
##fin
##here
register
dragging
stabilized
##ombie
exceptional
arnold
safeguard
cdo
dick
alber
sex
coo
withdrawal
kauf
rogers
dynamic
joyce
imagine
##itively
alter
maest
baltim
qualify
laying
introducing
minimal
redemptions
##1v
7267
km
explo
seal
europeans
##108
michel
frustrated
thorough
weren
shaky
golf
hus
xbox
##right
##92
parker
corrects
illustr
jar
lal
nippon
##atz
eliminating
friedman
inadequate
mississipp
baltimore
vic
placing
parents
lau
settling
davos
patient
combining
##201108
scrapped
yao
proof
somebody
allied
approvals
spoken
hpq
improperly
reopen
2nd
saved
spare
dece
##itters
drastic
transatlantic
metro
recognition
notches
dmit
##auc
##otny
##ounced
dov
bread
slew
screens
##78
savers
unle
106
nowotny
uncom
poorly
approaching
logistics
jord
ox
##marks
capabilities
erman
idustre4a
conservatives
skype
afghanistan
##lx
##lers
thrown
unint
barkin
insuring
geely
rescued
banco
temasek
truly
ottawa
remember
falc
rattled
bribes
bmo
cio
##oding
##vy
##alle
fruit
chunk
command
1993
objectives
convincing
wisc
##puy
threw
##echn
wasendorf
relie
approves
suspension
tackling
outperformed
kirk
##oil
asks
sean
holly
steeper
reinforced
tapering
juergen
bases
cinc
agr
stockholders
idustre61
##200706
absolute
flynn
abandon
understood
pieces
finnish
antigua
asmussen
nn
therm
clara
drill
165
walker
rejects
##mington
purposes
acker
##iciently
fol
##asse
spell
elan
##306
specify
##aux
pierson
chocolate
welf
chol
mons
boast
overh
mega
145
issuer
##onsin
viability
##innati
wisconsin
cincinnati
sas
scaling
parks
##weg
reinvest
morator
sparking
rosengren
sophie
welfare
pav
##db
##anda
##olds
advise
uran
scrap
axa
tripled
supermarket
zoell
mississippi
hing
lor
##asb
useful
lucent
tracked
flooding
proceeding
##hlich
flagging
mitsui
receipts
ralph
zoellick
hod
118
resisted
slovak
wheatley
scrambling
mitch
rucker
##wall
neill
clues
brun
insuff
matched
protectionism
float
shedding
samuel
##200611
younger
cp
xm
unwin
108
nearing
merchant
emphasized
diplomatic
gartner
htc
nw
nard
##bing
##acles
accountability
winner
indiana
withdrawn
vacc
utilization
maestri
##enom
##acre
clash
sov
117
huw
prospective
samaras
brows
infringement
jordan
decides
jumps
rompuy
jr
unt
exposures
sumit
hardly
pipelines
omaha
inspector
tourism
fitzg
unwinding
heels
noon
carib
studying
kicked
reliable
endorsed
tide
##oric
##otal
##iegel
belar
instruct
resolving
excell
tx
##roph
##acon
##uses
##allow
clout
112
frankly
escalating
vikram
monsanto
moratorium
fans
yoon
agent
warm
wilmington
assumptions
gardner
aggregate
ransdell
aet
##ubs
sage
##aga
clothes
grum
listings
constellation
confirming
cholester
lenn
sz
##lb
bever
dealings
policymaker
hamilton
lasalle
cholesterol
terry
##pool
##204
repo
mobility
explained
accommodation
concentrated
crosso
diabetes
sokol
kaufman
##95
thai
plag
mahlich
##roughton
legally
simpl
misre
tankers
olli
lalor
migr
yam
##cw
##urances
ark
undis
##strong
muk
##elo
stays
truth
hasbro
overl
amended
committees
aides
digest
rebuilding
ingred
furniture
sumitomo
jagu
shelves
eni
cablevision
apparently
reluctance
malls
cubic
##iaan
concert
collected
patric
kras
resorts
yun
##b1
chasan
yearly
soar
incremental
myan
armstrong
southeastern
baird
##ontinental
sonntag
complement
104
wrang
##214
christiaan
hetzner
exiting
abuse
guang
contracting
julien
gallagher
brooks
edmund
reaffirmed
stave
exha
##obal
lessons
visited
cautiously
1987
bureauc
outpacing
alwyn
nardelli
##will
##conn
##208
retention
benmos
schering
halved
deny
blocking
syria
banned
ignored
##ological
enjo
czech
bourse
attached
mozilo
jaguar
benmosche
aub
cigar
##at00
defra
hummer
tycoon
mcgraw
gaps
killing
##wr
##cap
##een
##76
##jet
spiked
##anson
reminder
clearer
breat
widen
hills
pfe
##zn
pratt
idusbre8a
##201203
##604
floating
dreamliners
duncan
caribbean
eps
rover
tgt
##leans
##imm
suic
intensive
375
pershing
karl
liter
##200912
hinted
towns
conversation
hind
kell
pill
tempt
wroughton
##71
orleans
intermedi
acts
##phy
hyp
ambitions
accompl
330
wag
crimes
mayor
rebuff
lesley
deteriorate
facilitate
ald
recovers
assign
inflated
ahmann
pockets
nicholas
hollywood
2018
##athon
disputed
meantime
experiencing
contingency
hawkish
casualty
##mine
##asc
##ellations
##avor
114
merely
respected
famous
sufficiently
##baum
prevented
myanmar
sip
##91
citadel
paulo
jumping
explan
dale
##itis
seize
##graphic
probing
responses
cancellations
silvio
pork
vess
mayer
moham
emc
bars
enjoy
avenue
gersh
kelle
##u0
hem
##207
##erney
underest
provin
webb
handsets
koh
disrupted
certific
database
parallel
kelleher
carg
overst
apps
##angers
schult
readers
##mittal
unsolic
wheel
foxconn
enhanced
unwilling
reconstruction
unsolicited
pak
sits
inappropri
##thi
bea
finkle
brka
fundra
##901
suggestions
idusn11
distance
##books
sensit
supervisor
antonio
clinical
methods
legitimate
arcelormittal
dating
kate
sask
##omon
alarm
succeeded
dissent
advocates
fukush
sabm
##empl
liver
107
idusb
scan
parsons
openings
madway
speculate
leaked
sakthi
insufficient
patricia
sabmiller
mk
##urry
suits
cutbacks
minnes
processor
adjusting
mailed
whitacre
virtual
##store
stu
ali
premarket
democracy
adjustable
bullet
##itrade
attempted
acknowledge
innovative
exacerbated
overhang
tally
##advant
sentencing
idusn15
##201208
arranged
rothacker
krasny
cogh
subur
touching
reacted
disposal
##gi
maid
affirmed
schools
distributed
tourre
vladim
tonne
accurate
constructive
fits
mish
nathan
##oe
##feng
abd
##anted
##ffer
strained
roads
accountable
creative
suggestion
lacked
misled
cowen
katz
warranted
zuckerberg
minnesota
bor
tame
##raic
rede
determining
220
tipped
##let
##enas
blaming
benz
affects
packaged
violence
flags
sounded
burned
spirit
suddenly
nordstrom
diego
disastrous
wendy
alpha
vladimir
##93
##etr
itunes
nebr
roots
receives
drugmakers
explor
televisions
##ihara
affiliated
doll
mired
wamu
##nick
##idas
marathon
luis
comparisons
intercontinental
unintended
coghill
fel
##roft
shun
disadvant
##urray
steer
schul
##attled
complexity
embattled
menu
errors
swiftly
##bourne
ackermann
bx
pelos
tj
##n1
##hall
##theon
supplied
shoes
blowout
nominees
unacceptable
nebraska
lets
manageable
phoen
colin
upgrades
impression
catastroph
constitutional
gershberg
##mith
##eters
remark
presidents
marginally
acceler
vigorously
ecuador
sad
whirl
##uda
##closed
converted
cellphone
incidents
rocha
ineff
pelosi
lump
##85
saba
goodwill
##iction
format
peaks
hartford
phoenix
nelson
rarely
##oa
arct
idustre5b
axel
bunds
hospitals
haircut
##lach
##akh
##iva
preserv
discounting
summary
arthur
##idy
##uri
##ams
##206
nearby
subordin
founders
401
##129
honor
rushed
installed
abercr
##station
repr
economically
pare
walked
nomination
offsetting
foreclosed
performers
fukushima
abercrombie
cath
##ulative
##ancies
enfor
centered
defer
immune
translate
unreal
padraic
##yl
##oko
remote
terminal
diagn
destabil
kihara
vary
##esford
##adh
leika
clamp
##eken
anyway
keb
math
davidson
mainstream
soccer
rena
specifics
frequent
arctic
ditch
lighter
tapping
##ran
##uo
dei
firing
liable
quotes
describe
lifeline
zuill
lilla
##enk
euan
raft
citro
mckin
doubl
##ewan
##atchewan
tea
340
revived
revival
voluntarily
fulfill
autonomy
bite
daign
##94
##fo
##uting
plough
ameritrade
##rophe
morrison
ripp
##ahead
thro
##iti
reese
rethink
##rect
##cles
foreigners
amounted
##guer
heineken
citroen
reeling
interior
earns
norweg
greatly
respective
contingent
diminished
catastrophe
dolan
bot
##icating
buoy
brain
weekahead
reaches
idustre7a
snapped
baseball
ernest
saskatchewan
bat
fem
##count
##ean
##omin
marine
earliest
ampl
merriman
violation
roger
precedent
rebalancing
tmx
sao
saks
##orty
align
##amin
suing
seb
midnight
revise
voter
wol
##scale
##iasm
soviet
jin
plumb
indices
##ertz
confusion
mats
denmark
drags
inquiries
procedure
undisclosed
jak
nag
saic
deere
unsp
##209
kee
##501
shutting
dependence
enthusiasm
##bag
rex
##idth
shaken
corb
##109
veba
sharpest
protections
telegraph
bounced
##frame
norwegian
hob
##top
##73
ansh
invited
consent
allian
execute
113
blunt
termination
opted
commissioners
austin
raytheon
belarus
schultz
allianz
eve
nan
##person
crest
##ileen
custody
##icaid
underscores
pboc
##cious
##ray
permit
joins
fared
broadcom
oversaw
pushes
knowing
denver
tomas
obstacles
dict
lid
##riz
maneu
gainers
medicaid
mcn
260
idusn14
completing
weighs
heavyweight
collectively
theodore
gav
hilton
##83
##awn
111
wellpoint
streets
wayne
winds
illegally
neighborhood
##iotis
dovish
tire
##izelos
deter
activists
##201308
specializes
venizelos
##ridge
unnecess
defeat
outgoing
##etta
helpful
systemically
departures
proposing
strategists
lacks
establishing
tangible
petrochina
ronald
##aina
admit
applying
justified
trillions
##215
reimburse
ay
fend
##through
newer
upscale
impasse
##103
##105
laz
playstation
bookings
##319
radar
royalties
##ref
##oted
trough
toyoda
excluded
sometime
applic
cno
rhet
melbourne
subpoenas
maximize
aaron
jitters
neal
notified
idc
##press
moore
lawson
blown
teva
renmin
materially
##borough
bancroft
cdos
reckless
daiwa
lennar
josh
lately
pit
##hiko
##aria
inability
##itung
##uccess
approving
deepen
kravis
unsuccess
stuart
touted
##roads
sag
fullick
##trust
glaxo
bracing
##hery
##ogether
importantly
breakthrough
reduces
ellison
altogether
reinsurance
champion
md
yosh
##hu
drain
merging
##201103
declare
##waves
spiegel
emmott
starr
graphics
cnooc
whale
##izable
mcm
bearing
ilaina
rebounding
hosted
conversion
spooked
mbs
leon
citic
opponents
breakup
accompan
subsequently
colorado
looms
mln
bbc
liv
ot
##pf
shen
compound
earmark
grue
##304
affair
##elfinger
infusion
favors
absent
skin
violent
tablo
vigil
minimize
dot
ig
##alat
##utes
expands
gettelfinger
misrepres
chatter
somewhere
##ughter
choppy
conclusions
rigor
trimming
adoption
stretched
dampen
chakrav
stubbornly
##tech
##ician
##amann
distin
harper
##200908
turk
starmine
anticipating
terror
renewable
##ventional
whitman
##author
racing
##uent
##eda
##real
##ecl
unrel
##opolit
doj
anymore
beresford
violating
princeton
clinch
witnesses
vista
stephenson
colombia
gruebel
yan
shenz
geopolit
opposes
upwardly
periphery
hydro
nate
##wc
unile
noyer
123
turner
desperate
benchmarks
levine
unilever
##inos
##anz
##utt
cov
showroom
headcount
##ystems
solvency
klamann
outpaced
excellent
##fast
adult
mah
automatically
borrower
prepares
firewall
counterparty
rhj
distribute
roumel
roumeliotis
bos
ug
##sk
revel
conso
tri
liana
slice
emma
skilled
assessing
scripts
renminbi
bath
ea
klo
lme
rds
##ording
ecl
cryst
steepest
eaton
retreated
console
dir
conscious
##iki
fueling
cracks
unlock
##unkers
##world
traject
bsc
##las
##lades
##stad
plast
scores
wrest
modified
bullion
banglades
chevy
gibbons
postpone
surpassed
grappling
vangu
wi
##mont
##master
cher
overweight
forecasters
##106
poses
##307
##rell
325
gses
flagged
crowd
dunn
bkx
redemption
arkansas
vanguard
fals
kur
##alak
sack
alison
##ondo
trademark
score
##305
jui
tehr
movil
breached
eroded
unconventional
bats
hid
nab
##yf
##212
idusn16
##200803
massy
6758
duration
bryan
whirlpool
shenzhen
au
##cal
##funds
##mented
##ishnan
spokesperson
##ushi
##mins
choy
linkedin
##echnology
rdsa
tehran
##arity
dear
crum
##agger
119
wrap
appealing
narrowing
namesake
ignore
experimental
fernandez
gang
hul
forr
##check
spree
##ibor
injected
collecting
inspection
streaming
subscription
suzuki
##aise
##even
##ener
##atri
item
samp
meyer
juan
270
irre
##201008
1989
initiated
adobe
chakravorty
auch
marguer
##ello
bohan
brake
assurances
elli
longtime
merits
##114
refund
idusn13
hester
kerr
##year
decel
liu
##identified
relation
joanne
goodman
niche
intentions
fsb
dong
##lakota
##osis
contempl
recons
executed
advertise
pursued
campaigns
appropriately
bbva
iconic
sensitivity
marguerita
##e8
##kline
##chester
##ules
incurred
##abao
recording
##vens
twin
##ucky
extract
negotiation
troubling
easter
##318
lucas
undermined
murphy
210
bil
yoko
eder
clunkers
treasurer
##lington
italia
idusn12
##2012070
danone
distress
kocher
titan
##stanley
trajectory
kocherlakota
cm
##ti
unidentified
downlo
newsroom
##appy
windfall
attempting
occasion
constrained
waning
rhetoric
##pany
notable
deepened
pleas
libyan
320
gina
lmt
##wina
##imoto
alger
edwina
flurry
johann
##atts
##316
nominated
connections
honest
punitive
advocate
transformation
dinner
slammed
gle
nap
proving
##aked
upheld
carref
genu
youth
mccr
marginal
pharma
selective
copyright
shields
evolution
academic
correlation
carrefour
erupted
hanging
jens
##bn
alive
becker
termin
##phere
bailing
rigs
leaning
entrepreneur
jurisdiction
minerals
harbinger
116
##ords
##wards
275
dismissal
adequately
disorderly
reconsider
##hoo
perry
##oting
looph
wright
morganstanley
suntrust
##castle
withdrawing
immigr
contentious
wyoming
diplomats
##2013100
crippled
vocal
##mad
##inen
overturn
intr
##kew
courtroom
standpoint
frierson
complain
freeport
tempered
embra
indicted
mulling
jurors
helicopter
fnm
mast
pg
por
##bin
reyn
##osmith
solely
lists
##213
messaging
advantages
coordinate
biotechnology
##zhou
milestone
accompanied
herman
nish
##gets
loeb
canon
chaired
mechanisms
upset
auchard
embraer
gd
##ye
##72
chronic
amzn
situations
cowan
plagued
herald
##mec
##eker
barred
##wealth
##115
patience
clarify
glaxosmith
empty
glaxosmithkline
dented
tamp
permitted
unity
stripped
124
founding
liquidate
explaining
olympics
contacts
linda
cassidy
pakistan
earmarked
akin
##illi
unauthor
billionaires
capability
attending
777x
rewards
ninth
hover
##nik
exped
colon
taip
schwar
insolvency
eba
iac
sber
##vm
alb
fires
salar
##icted
moderately
##507
##200708
searching
horowitz
##umberger
knocked
schlumberger
gig
lined
##iors
productive
petition
rocked
conditional
zhu
titles
randall
sinking
ike
compare
##rup
##201311
mother
stef
draws
##onnell
georgi
pinch
stagnant
tactics
grumman
bangladesh
taipei
salaried
kpn
##onia
forfe
adidas
139
##azer
toyer
##atories
##bride
football
mitigate
reactors
bayer
surfaced
dedicated
undercut
registration
jiabao
uncomfort
mied
rud
sino
##charge
soup
uncovered
idusn19
reviving
mandated
cvc
indonesian
kentucky
cumulative
ais
finger
ferc
##fund
taxation
advances
playbook
##125
pollution
floated
##zzi
randy
geopolitical
aided
cer
egan
fetch
tets
##rd
##aser
askew
##awling
demise
gund
multim
symp
echoing
ferre
kazakh
fundraising
lining
##iona
contrary
##128
arrival
visible
1982
##canica
##aplan
capping
erode
schneiderman
inappropriate
naming
reval
sty
byd
finmec
acre
processors
ramos
arbitrage
##5930
cantor
fh
miy
thwart
armed
orange
acres
salv
122
newscorp
modify
colgate
sovereignty
dena
guaranty
terrible
turbines
gadgets
finmeccanica
hidden
murray
##iga
newest
clause
balancing
##601
footprint
metrics
cork
jumbo
kaplan
ras
ranged
tall
wound
##orating
sealed
annika
mcbride
healthier
visits
commonwealth
simpson
examined
examination
utx
sloven
demonstrated
unfairly
catastrophic
tabloid
280
lund
rav
sif
##len
##irable
recessions
155
clearance
idusn24
describing
plaintiff
leahy
disagreement
tjx
lop
ther
implies
inspections
tremont
unanimously
aetna
kil
vat
##nj
inched
adapt
brisk
elaine
reps
##week
##101
pressuring
positively
passes
deutsch
modelo
rejecting
##rosion
husband
cargill
qing
##hd
##isan
indicative
grounding
005930
snack
787s
bnpp
narrower
okada
sends
##wear
marques
containing
brakes
##aval
startup
##308
soften
debacle
quotas
withdrawals
concentrate
kohlberg
shelby
reynolds
cir
fay
##gus
##97
##fg
beers
##imated
##astian
##andum
##ibank
costing
sci
keating
reporter
positioning
richardson
apec
pipe
superj
unauthorized
mga
nud
pall
vz
##96
##elman
marie
##quared
klaus
burns
bbb
characterized
memorandum
mckinsey
ferreira
fading
appra
##shire
nyx
sandra
nadia
liddy
lightsquared
wre
##isely
withhold
unse
enl
refined
##athy
##ushed
idusn17
##2012080
districts
shrunk
rallies
walking
alexandra
sacrif
cel
yhoo
##ecified
##otion
##uls
##ouni
regret
delever
breidth
missile
rocky
appealed
segreg
burdens
excited
reshuff
saddled
370
aqu
##bors
##var
##entin
reign
monet
stripping
##ultane
enders
pegged
grains
##ornado
simultane
##2011080
audits
narrowly
logic
promotional
hat
##221
##etcher
chi
remind
whereas
idusbre9a
bodies
cotton
breidthardt
kid
ocean
##aunch
##cg
##sters
##ndra
depl
extr
allevi
##603
naray
curbing
painted
spyker
unspecified
pron
##artered
additions
businessman
retro
terminated
hedges
epis
lobbyists
slovakia
lax
tune
##cf
##atures
forge
shah
##olt
##olly
brut
assure
##ogic
restate
viswan
##605
nordic
recruit
suspicion
aubin
surr
##inely
hea
fink
cole
howell
citibank
basin
bears
misses
##perfor
sprawling
checking
exclusively
niel
##itution
chand
margar
uneven
mog
##raid
visitors
unfold
adopting
stringent
female
sick
tape
##eta
slips
121
confront
fletcher
maintains
nicos
rubber
adams
maneuver
gps
yoshi
##aya
126
##bras
venues
cells
ramping
osh
zell
##j1
hazard
##andia
##istar
commissions
justin
schey
customs
everywhere
horr
barring
neighbors
ajay
explanation
tomasz
kloppers
heller
wings
##stat
##asi
##oken
amy
wanting
postal
##atha
holton
##313
recalling
hungry
##enzie
accompany
faulty
foreseeable
##gdorf
falcone
certificates
gundlach
coul
jenkins
kal
##inov
quota
needing
##ronics
generics
harvey
bottoming
reassuring
leaks
feedback
sinop
artificially
gir
sany
##eco
stoked
##illo
altr
sums
##emer
aruna
resched
brien
autosh
defending
##vised
discontin
##iken
rebate
designs
##314
whistleblower
rebuffed
boc
mant
nod
sg
sister
ons
sues
carrel
majors
182
patri
##2013090
defaulted
viswanatha
autoshow
sons
##aque
orch
swung
janowski
joel
supplement
walden
julius
alleges
supervise
qe2
##graphy
crosse
crossover
unnecessary
mccrank
fiona
kin
ly
##a1
drum
grass
farn
ratch
setbacks
##200808
hook
reader
delinquent
redesigned
scheyder
##87
##via
arena
upturn
damouni
##315
##attered
flowers
omn
leaking
pce
semi
##unct
afraid
blanch
conceded
circle
reflection
granting
ftn
##eldon
surpluses
bolstering
gifts
dwindling
drought
girl
beige
shi
chern
fuelled
##ousse
downtown
flitter
##301
##111
visibility
violate
tarn
petrobras
prospectus
definitive
preca
destination
iduswbt
garner
ethics
revolving
hesit
gao
horse
tcw
##wal
##aris
buick
brics
##blue
133
douwe
budgetary
broaden
sharper
placement
montreal
czar
affluent
unhappy
lipitor
dmitry
farnborough
peregr
earners
phot
restored
##inda
##ikh
departments
##701
##urty
harley
requesting
engineered
skew
unravel
cornerstone
obstacle
teachers
animal
stunned
sizable
##211
pru
god
vald
reloc
ratified
saturn
derived
thousand
casinos
intensifying
deleveraging
sinopec
bird
##iques
##hal
amass
##102
rulings
storms
oversupp
rounds
frontier
burgdorf
sloan
sedans
unrelated
peregrine
burgdorfer
##steps
elite
avandia
##502
##503
judicial
baum
api
fairfield
exagger
entic
coven
quicker
videos
neighboring
recipients
poured
mcgurty
disadvantage
fhfa
altria
cyn
fade
footh
tear
poly
releasing
proposes
sovereigns
objected
variable
bargains
israeli
##aughlin
helicopters
mclaughlin
nielsen
ib
xl
##400
appliance
##504
anonymous
hybrids
homebuilder
hann
peck
fren
##amb
sogn
ratification
##309
##506
administrator
ipads
radios
kenny
cooled
lambert
disasters
gspf
pdv
tarm
forever
aligned
edging
clubs
thereby
feas
presum
##rah
idusn25
tyson
searches
1983
##2007110
learning
displays
citizen
nominee
dakota
grav
evercore
researcher
macondo
##317
hostess
permanently
csco
rumor
sweetened
pocket
lcc
piv
subt
reportedly
films
##124
instrument
desktop
leveraging
elderly
breathing
elliott
iduswbt00
pwc
rm
##bp
##burs
##f1
##alon
reap
fract
##abel
outfit
parry
advises
handing
visiting
diversification
mcconnell
dampened
beverages
slovenia
hog
##gic
##uv
##asia
noel
anytime
listen
predictions
identity
bmwg
disagreed
renegotiate
anshuman
780
daga
till
wii
ypf
stol
##acies
impacts
solidarity
publishes
diverse
buckley
loyalty
overheating
kuro
nand
##ingu
exits
quentin
assumes
imply
annivers
poison
poole
separation
owes
nrg
entrepreneurs
##kor
whis
##aks
##uma
##emex
moral
chaos
suicide
kids
pian
##onf
##stores
usage
lef
reset
uphe
idusn22
communicate
oldest
assessments
rankings
undermining
crystal
##d1
perpet
prest
assigned
##ava
technically
irr
problematic
lifts
colleague
updates
delinquency
mackenzie
rite
##hin
##igent
##ocking
loosen
define
rivers
meters
engulf
idusn27
nominate
acceptance
plead
nok1v
lawsky
navistar
brewing
##arthi
hirsch
nutr
kroger
georgiopoulos
miedema
aarthi
bby
pillar
##idu
prak
incons
sooth
phenom
laboratories
rebek
deadlock
hints
beneficial
xin
reh
##oco
loades
stealing
idusn29
papach
precip
kaj
blueprint
manipulating
exemption
undertaken
##ristou
pdvsa
rebekah
bend
iata
pelo
yuk
##rina
##tronic
onshore
healing
doom
idusn18
##227
##redited
addresses
classic
emerges
thomasch
influenced
boxes
supermarkets
sivaraman
margaret
papachristou
pelofsky
4g
cultural
##mun
##vine
anup
##arty
fuelling
downpl
raf
##ews
bergin
idusn23
reacting
repurchases
edmunds
russo
sciences
kuroda
lanc
##isio
##irier
pride
acute
modification
poirier
##228
0053
flee
##brook
anniversary
inconsist
bumi
kfc
mx
##idable
##elon
##igley
heated
desks
##122
##401
answered
burning
unveils
denny
suspicious
graduate
ci
##yss
thir
##omi
##enter
comsc
##ptive
replied
132
juice
paperwork
460
erik
pursuit
mfgl
jetblue
alliances
laurent
hampered
naked
unanimous
cartel
racked
comscore
iif
mys
##h1
##olved
caren
backers
goodyear
researchers
forming
accuses
emergence
admitting
gillis
bahrain
mers
##si
##table
adj
##blatt
redund
##orne
negatively
complicate
harbor
unpaid
barnier
fitzgerald
cav
lon
riy
thank
##alto
presents
flip
preview
185
##116
##708
##2012090
##2013080
disclosing
instantview
pictures
sequential
wm
##qing
##chen
suitor
heath
seab
accent
worris
directv
##200703
buffers
consolidating
piper
trott
stagnation
##iskill
flaws
flawed
subordinated
sberbank
faded
porter
##fax
##irm
chop
spate
glen
##302
##117
softness
baidu
materialize
stops
regards
katrina
quietly
nwsa
##ni
##ulse
outsp
##erved
127
swind
posco
farms
medtronic
##works
##219
roundtable
applies
kimber
cleaning
manipulate
terra
outcomes
redeem
johannes
worrisome
950
ct
##ilich
reactions
staged
shaped
driskill
143
##2008090
shoe
freilich
##403
eyed
fortress
bottomed
##tran
diplomat
nexen
marriott
corker
cens
lav
##mic
arising
envis
airwaves
nowhere
generations
idusn26
speaks
integrate
repaying
technological
throwing
destroyed
isolated
ugly
nutrition
005380
dangers
lub
merv
##sher
button
crb
disburse
dried
benn
attitude
detect
mck
macd
dominic
swept
hutch
heavens
kajimoto
bode
jaff
##rin
stems
chron
glad
unite
drama
parcel
137
nascent
frances
polling
differenti
repayments
amendments
maple
afflisio
distillate
repsol
290
##enh
notices
##encer
raz
scuff
131
##ratic
questionable
statoil
dilem
tetsushi
blanchard
gust
##uits
##mers
plain
indef
##izers
capitalize
timeframe
metall
interviewed
freezing
icbc
choosing
##404
cnn
stemmed
brettell
foothold
rbi
riot
##eer
##orth
##obank
fuld
repos
shorts
223
rescues
designer
bhatt
bulls
switching
warehouses
birth
fabric
deliberately
eases
ndaq
vit
##7p
##130
rey
prize
plastic
outages
##ocks
lique
nook
##isher
underlined
paring
134
patter
independently
hurts
idustre48
nicola
clearinghouses
consequence
mcnerney
pianalto
ought
##adium
mars
unif
##iev
crim
unionized
studied
specialized
philanth
erased
steelmaker
stopp
daughter
blew
fluid
prescriptions
tower
underpinned
bentley
keefe
turkish
sanyo
philanthrop
bert
jitter
pado
taint
vio
##itage
##still
stro
##osa
lawler
##303
standstill
sheila
liquidating
##409
crops
accumulated
folks
##sman
##reuters
download
10th
furl
formation
denying
civilian
smithfield
rowe
streamline
impressed
certification
sudan
alberta
##performance
mervyn
cib
ivan
nu
wb
##zes
ink
##arti
leeway
retiring
programming
idusn28
handles
defaulting
participated
examples
blind
lutz
vioxx
##lman
mariano
arts
contam
anne
maur
swallow
##ahi
settles
1000
domestically
##216
##222
intervened
scrambled
trailing
anchor
liquef
jittery
ew
native
tand
##gc
##m1
##eness
##itating
beaut
newark
incom
arise
buzz
equipped
biden
##201003
debated
reinhold
shortfalls
garden
negligence
plastics
precaution
##pat
##onal
defl
chad
##iful
idussp
airtran
blt
shoulder
talb
organisation
bhar
fairfax
virki
morale
crowded
bosses
interference
tarmo
cushing
hiding
menon
wise
##how
spd
imcl
sway
ilfc
##brand
persistently
verm
##with
##210
##isa
outage
greifeld
auth
internally
##121
sustaining
weaknesses
bells
rothsch
entrench
insolvent
maiden
dwar
lomb
mere
sow
federated
implying
baro
##ashing
repairs
publicity
medved
refuel
fearing
##neo
exceeds
hawks
injuries
admission
gaug
multinationals
nesbit
laptops
wrangling
outspoken
##atsu
##enton
##icing
consuming
blair
phr
nears
##heel
performer
wealthiest
rallying
stevens
biogen
accelerator
upheaval
rothschild
aston
cod
hers
nair
##urally
cry
moff
verge
evade
cease
representation
harr
apoth
consultation
frett
lags
torch
##2009100
distributors
idusbng
indefin
gul
kash
tipping
##hes
stack
trips
greed
delist
prosperity
coastal
refusing
underperformed
disagreements
thornburg
glitches
embrace
diagnost
phenomenon
groom
ri
trop
##uated
##bb
##erg
##urate
churn
##ulous
trav
unav
##unia
lipper
remov
heritage
##226
freely
dreyf
curbed
767
##kinson
dilute
spinoff
intensify
enabled
kimberly
medvedev
apotheker
##ses
anad
##idia
fritz
acer
clip
cutler
locally
irene
thomsonreuters
exists
erian
milliken
quoting
unsett
sandler
examiner
precise
remedies
shrugged
##rix
##220
##erates
exert
craz
lasted
##ifield
feder
concession
overseen
harvest
almunia
classified
stopping
perceptions
synth
aisle
erosion
kue
lod
piling
##oz
##bec
##start
aspect
##ullo
bove
idled
136
comeback
##405
axp
opinions
ticked
tabak
disposable
nvidia
kamalak
vicious
brutal
dilemma
kamalakaran
wis
alast
leung
##antly
clay
cooney
glas
##etsche
##113
solved
authorization
opposing
marcus
spirits
gilles
bgc
discrimination
alastair
430
piled
zetsche
busiest
dog
128
tooth
micron
arrive
##609
layne
treatments
dismant
papadem
headquartered
boutique
accidents
rabobank
petrochemical
seeds
embarrassing
hovering
papademos
fusion
hott
##o1
##hk
##ju
toon
##using
confron
gras
wrigley
moderating
complac
supplying
##atorship
##607
obtaining
ingrid
ishares
owe
##wer
sains
incur
allstate
debtor
1960
boardroom
##709
waited
statist
1984
cycles
jerome
vessels
patterns
hertz
odd
siew
orland
129
elop
toughest
##217
##218
wiret
copies
underwriter
marcel
venezuelan
forthcoming
preparation
scuffham
anadarko
eg
gould
jiang
##alo
sha
shaping
unaff
##emen
claus
signature
157
##ogg
ordering
fiber
euribor
reassured
wipe
recruiting
##reeta
assembled
molson
stolen
anupreeta
sainsbury
orlando
hors
muf
##rot
alike
marketed
opaque
creditworth
benign
##112
severity
engaging
cheer
danish
icap
rooms
deflationary
evaluation
reliability
nicosia
filling
hiro
##oran
##akers
proud
weil
clou
bru
dispar
##exchange
confection
##indos
pave
guindos
sanction
idustre6a
herbal
existence
differently
a330
incorporated
abruptly
romania
##0000
##manuel
liz
pricewater
standoff
idusn10
reforming
lacking
expressing
##mingham
##402
statute
sponsor
birmingham
orchestr
fc
lions
oliver
rico
##oro
##roding
##illie
##ayer
slides
evac
##127
hedgefunds
##224
vonage
katya
urgently
brooklyn
ideal
collaboration
furlough
hr
lvm
##con
##fire
##hard
wholly
spencer
bric
lofty
158
warming
##entials
##508
entail
merrifield
stars
undertake
linux
kerkor
vaccine
schwarz
lvmh
kerkorian
feld
jint
tense
##ook
idle
carn
##ucca
showdown
bele
callus
predicts
matthias
refusal
philippe
camry
conoco
haviv
browser
kazakhstan
removal
hatch
ost
##orin
##isb
2019
##iper
energ
##509
appearing
substit
spillover
routinely
calculation
calculate
pessimism
reinforcing
rigorous
eclips
tremonti
mogul
oversupply
toonkel
mufg
380
kurd
nd
hailed
153
benj
lesson
possibilities
packed
softened
sbux
attacked
documentation
bodes
sakari
turbulent
huntington
unsuccessful
fest
gse
shum
chat
chem
alv
algor
branson
rohm
144
halting
legend
infin
ergen
reservations
idusn05
attendants
mulls
frederic
noonan
jintao
beleagu
algorith
mig
piz
tires
##bas
##fu
##acular
shep
spitzer
overcap
downbeat
moh
scare
sheahan
accountants
petron
depress
##eiro
ahmed
vendor
gilbert
hornby
beleaguered
fb
mans
nec
wes
##g1
##e7
##oninen
suoninen
##abody
liked
dres
peabody
##asson
leske
idusn07
diet
jacqu
tickets
lifest
scramble
lexington
nakheel
convenience
indirectly
kellogg
benjamin
580
dive
eating
gay
##rq
##p1
##t1
##kind
reel
unprofit
incumb
abuses
##oga
146
evap
judged
irreg
tightly
splitting
flew
zeitung
deaths
broadcasting
silvia
herbalife
eroding
sul
##dh
##mq
##zed
containment
manpower
robb
##606
practical
fights
reserved
freeman
venue
fishing
##2011100
tsb
melander
dumped
petronas
##wig
##pd
itc
spear
disgr
##ernot
steinberg
gui
enters
panama
successive
prepaid
contributor
bloated
1988
fierc
algeria
hutchison
liquefied
nah
pep
vini
##itated
eurostat
accredited
##issa
blake
terminate
industrywide
eva
specialists
circulation
##trac
pumps
spiraling
railway
geographic
infringed
surpassing
laptop
sebastian
kuehn
pizza
irregular
goll
tanks
##city
##cade
##ritis
##orious
##uten
##agra
overtime
138
divide
labels
hardcastle
breakfast
##223
chatterjee
superjumbo
heathrow
overcapacity
jacqueline
unprofitable
viniar
jain
jucca
wool
##q1
##hack
stell
##aghi
repatri
laf
bharti
##408
supervised
humer
logical
confidentiality
imperial
homebuilders
realtytrac
incredibly
pronounced
radioshack
hirschler
hence
kurt
marvel
eck
##arta
##ardo
defunct
gmc
headache
##126
completes
freeh
snapping
olympic
casting
nigerian
a320neo
discourage
enabling
imclone
hank
zte
inacc
##isen
aspan
perkins
leis
parm
harmed
safeway
wholesal
declar
lopez
gonz
neck
pinc
##eure
##egy
##mony
seiz
contrad
##118
underscore
cocoa
masa
census
ds
vicki
##dner
fra
##antic
brighter
downstream
idussy
162
##rators
charity
speeds
guaranteeing
destruction
procedural
thermal
coveted
talbots
bom
topp
hey
spends
##eme
clam
##acking
lips
bros
##gery
griff
charities
lagorio
acknowledging
troops
insisting
nervousness
petersburg
leisure
diller
noc
rousse
sier
##cia
prized
offensive
##sea
weakens
desirable
##gina
talf
automated
closest
processed
##602
joblessness
##2007100
allocated
deduct
interpreted
##the
shine
exelon
conj
abac
inclined
scored
staffers
renee
accessories
ambass
iraqi
watan
rousseff
aileen
gernot
jnj
kicks
pult
rents
vyt
foray
expose
ort
aggr
retaining
##erner
##erto
evang
receiver
##ewich
teamed
freifeld
##iyoshi
idusn09
##2010110
ryanair
efficiently
dynegy
decisively
diminish
misrepresent
dresdner
ghan
kmart
pie
rut
tucker
##aj
reilly
unst
spurring
exported
refiner
greenhouse
pledging
unveiling
dais
collapsing
vacation
randewich
bags
deliberations
pivotal
pont
##uke
##p3
##pac
##itudes
hair
##arte
salt
beck
peup
confer
195
##phis
activision
##813
##817
##816
georgina
upgrading
mrk
frost
safeguards
coulson
tarnished
spearhead
vytorin
jv
kros
rear
205
seam
barrick
specter
##downs
harrison
muscle
penetr
1986
merchandising
##bursed
shepher
dipping
ouster
py
salesforce
polish
risked
denial
restrictive
##tsb
distributor
railroad
stagger
catching
hamper
macdonald
masaaki
cock
punch
wet
xi
##bid
anecd
suk
##ported
advers
boch
meals
allay
allison
portable
committing
singled
doubted
routine
hungarian
emphasize
wondering
sequestr
golub
overlap
sagging
chopra
parmalat
530
ping
yas
##wick
##oh
beech
unoff
intercept
endow
emotion
remun
##608
##cribed
humana
emirate
rebalance
ingredients
abacus
sequestration
kos
kitch
##systems
##herjee
instances
detained
magistr
commonly
countered
subsidized
legislators
tricky
segregated
pincus
##edict
##ecoop
incon
##ocked
envision
libr
measuring
openly
##707
borrowings
##alez
drugstore
accuse
##406
assessed
idusn08
daly
establishment
hawai
##housecoop
securitized
purely
cigarette
intercontinentalexchange
ripple
pricewaterhousecoop
gann
qwest
waves
##e1
##131
##agm
##pra
ammun
regulating
goldberg
memphis
negotiator
##2008080
##2011090
##2009090
sounds
manipulated
smoothly
shinzo
delegation
inspired
bharara
bochum
oust
##low
##instein
##orah
##ieder
avent
foundations
combines
replaces
applaud
##comp
cleanup
textron
cooperative
inherited
uranium
showrooms
alleviate
gonzalez
hm
##igious
##ystone
prodhan
152
148
aviva
nonprofit
##iji
deborah
turf
##trend
##respons
beneficiary
beneficiaries
gustav
bhattach
stellar
pond
tas
##function
suite
orcl
retailing
refrain
##cov
caf
##2007080
quote
transferring
concentration
baghd
outlays
fergus
rattner
relaxed
sudip
mudd
architecture
mukherjee
buoyant
riding
wir
##try
weiss
##ights
brunt
distant
##under
replen
anticipates
limitations
seemingly
dilution
dissented
floods
enthusi
uncomfortable
refueling
gest
naim
va
##b3
##stant
##uling
##ffe
##sohn
contends
##2012010
##brell
##ovan
designated
hyun
precisely
rachel
angered
flooded
siena
towers
motivated
pearson
pesos
txu
concerted
jakarta
pricewaterhousecoopers
ammunition
3d
dips
hild
khan
nt
rash
##rik
##vail
saga
asean
butter
coach
undergoing
underlining
executing
remod
accordingly
recoveries
commenting
##819
rollover
solaris
hackers
##2006110
arthritis
##eclick
420
##uate
##no
##xgn
##odh
overval
sechin
grey
carmel
joan
factored
yielded
cheered
irrespons
cheaply
##door
mccarth
breaches
analyze
automobiles
snapsh
preparations
schulze
episode
mccarthy
bals
vie
vague
imaging
gainer
168
shorting
215
breath
disruptive
nobel
await
sweeten
finishing
constantly
rabinov
ceremony
songs
exhaust
gavin
tainted
naimi
mpc
ural
suez
##ackaged
intesa
scared
keystone
manufacture
##815
##407
integrating
scenes
arrests
iduswat00
spinning
ramped
punished
dereg
devaluation
joshua
fake
ja
kall
ticks
##pulse
##etal
chal
claud
privile
149
halve
continuation
originated
civic
kickbacks
switched
privatizations
licensed
sx7p
gannett
bhattachar
310
lord
tiger
toby
overlook
twenty
phillips
sheer
greenlight
victor
readiness
spectacular
machinists
outcry
johannesburg
entrenched
a400
ni
rushing
ridden
stig
chiang
clsa
##ucus
desai
subodh
##505
##screen
identical
identifying
hambur
sporting
illicit
##banese
doctor
restraint
rrr
umbrell
explorer
simultaneously
crimmins
shumaker
balsillie
rabinovitch
625
cai
laps
vid
##blo
##vas
tol
upstream
recurring
counted
providence
brandim
presenting
deadly
revealing
refuse
1974
crippling
chaotic
kwok
gugg
##uity
##atisf
quo
##oker
scant
keegan
steered
investigative
multiples
scratch
##814
outlet
rusal
averages
watanabe
guggenheim
cattle
kra
ntsb
##good
##jud
compounded
hee
##alla
##boy
multilateral
deadlines
1985
hayes
implicit
froze
veterans
sorry
##ventions
evolving
wanfeng
miyoung
deutschland
frenzy
myself
brandimarte
boris
dbs
jc
karm
lured
vornado
##sberg
##yon
##kali
theor
anz
overb
interventions
cohn
blenkins
refocus
solomon
teens
sizeable
sny
fragmented
barrier
refresh
precautionary
aventis
blenkinsop
piracy
taps
##onent
adrian
butler
dogged
smoke
delicate
parked
prevention
spendingpulse
finalizing
prediction
sensible
alumina
##riskey
manipul
navigation
ghriskey
rosenfeld
malaysian
tobin
retrench
stalem
fang
##osys
notched
##oded
enrich
##acher
142
179
wrapped
viewers
panick
watches
baic
starwood
coffers
harmon
metropcs
puzz
mitchell
matsush
distinct
colonial
remuneration
480
hil
jian
##wine
##rx
##i1
##mob
##etown
notorious
oran
##avier
valent
lesser
keycorp
trustees
profound
auditing
dominates
conservatorship
mails
deductions
hampshire
tactic
visteon
rationale
accompanying
fm
fenton
##mlin
uphill
swelled
sentin
charitable
distraction
yourself
featured
printers
shutdowns
tables
absorbed
unwanted
praise
lieuten
terminals
uniform
fiercely
ortiz
##je
##lements
##ieve
pepper
159
grace
141
medit
sheikh
linking
alcohol
reorganized
outflow
kremlin
hugely
revelations
apprais
4cast
dio
rin
boat
cof
slots
##itty
flatt
relent
shepp
contractual
closings
teet
bottling
##hiro
snag
lucy
jackie
mindful
quebec
overtake
overwhelmingly
mittal
hesitant
bhattacharjee
dp
lum
##tb
##bh
##enstein
beazer
sham
sharma
agu
overre
##ennial
##818
unfavor
depository
idusn06
drafted
downwardly
cosmet
wiping
olivia
outweighed
applicable
a400m
aro
nim
##k1
##fisher
forint
chong
##astically
##emax
enbridge
contender
braced
attitudes
warburg
transcri
fearful
madison
debating
tariff
injecting
cseries
troy
feeding
icelandic
divestitures
jailed
sponsorship
rescheduled
bun
##acted
partisan
172
runner
##aveen
brokered
encoun
kingfisher
remedy
vigilant
patriot
soothe
matsushita
sentinel
mediterr
hoff
iger
lud
sizes
##oard
##fner
##idler
forese
neely
unaware
##ostar
contains
defence
barker
blessing
##ixis
phased
646
succeeds
gareth
gaap
attributable
engagement
deployed
ferraro
explicitly
##enhagen
crazy
conjunction
dah
kit
sut
sib
wak
##etically
##urings
leigh
stringer
##etti
embed
airf
airliner
moderation
shrinks
groundwork
promptly
underwrite
navigate
markedly
krista
gridlock
doubleclick
lifestyle
umbrella
a123
mental
rt
##ais
##yen
##kosh
shipment
liquidated
restructurings
##anean
##onnected
gregory
exemptions
lobbied
cuban
inevit
wearing
nrf
apologized
accomplish
oshkosh
ki
lem
patt
##far
##alone
conagra
loaded
roe
believing
peaking
missteps
immun
echostar
disciplined
nichola
depths
paving
unrealistic
inconsistent
dwarf
cosmetics
cote
mam
nived
tpp
##omet
stump
sput
arrow
##ageo
##aved
##idental
additionally
roiled
veget
shortened
bearst
multip
prefers
bradford
diageo
tasked
castle
excuse
##piece
stalling
hurry
adequacy
subscriptions
moodys
scarce
intermediate
snyder
mediterranean
astr
cac
##gart
##inding
##eden
##asma
##rog
shim
expiring
uphold
##eyer
assault
impending
reperc
##web
standalone
renov
occurs
spilled
arguably
outsized
obsc
artists
zeidler
accommodate
allocations
rentals
temperatures
sierra
nivedita
bearstearns
repercuss
dust
fha
nfl
##gical
##bini
rewr
##roe
cheng
dress
##indra
beneath
reception
distur
audio
hintz
symbolic
prohibited
discontinued
berman
gertr
sig
zinc
##list
##idis
##asions
##urers
whitt
##oty
hab
spar
usda
abund
manchester
doe
joerg
##otted
##2009080
shook
infosys
scrapping
protectionist
landed
underwater
enhancing
franchises
execs
mfglobal
sheppard
gertrude
pig
pelt
ranges
sri
##eo
married
leo
underweight
delivers
condem
microsystems
idusn30
angola
shopp
lighting
composition
fdi
destinations
argentine
constitu
creditsights
lionel
loopholes
immigration
glasenberg
caz
gyr
herm
haas
outlining
retool
underground
capitalism
showc
##iov
##wei
clears
possession
predomin
kraw
rosy
cheapest
transformed
extraordinarily
paramount
stalemate
rang
##igating
incor
quell
##onds
strips
noise
somehow
##dafi
advent
##702
richwine
natixis
steelmakers
raju
tarullo
1979
conspiring
understands
gaddafi
jurisdictions
scania
adults
vermont
ambassador
3par
clement
lull
zar
##bru
##orox
exited
albert
clorox
overr
accountant
politician
poorer
monitored
skyrock
unlaw
tnt
stunning
coincided
##letter
corbett
stefan
exaggerated
phrase
ferguson
repercussions
kerber
lamp
ski
sdr
wpp
##law
##ouch
##ican
##ayashi
sume
eddie
##actory
mann
demo
##ullah
laud
##119
##atham
strategically
##workers
oversold
notebook
downturns
mccann
sonali
averted
templ
underestimated
depleted
riyadh
overvalued
krawcheck
sumeet
fus
myst
pom
rd
tree
tink
##ping
##anan
forget
exod
decree
handels
hero
occurring
burlington
breaching
##heimer
loosening
provincial
dearborn
baghdad
incorrect
exodus
gaff
rift
yemen
##rs
##bard
stella
##estag
asx
chasing
orban
novel
loews
newsletter
powder
suntech
compensated
fool
williamson
messy
copenhagen
pfgb
bundestag
graff
strictly
reopened
enjoying
wisdom
seizure
pfgbest
gum
kft
lank
mair
##d3
##ls
##ku
chel
logo
drift
surgery
portland
balked
deepens
administ
coles
##elters
burge
basketball
sivs
hilde
ios
##4s
##arch
ingers
shoring
franz
exhib
chee
church
spat
bra
recl
schol
strengths
allege
##ethers
fronts
rockwell
excite
wheels
dissident
huntsman
megaw
langi
ingersoll
hoy
kerry
##r1
##fold
##itous
##stock
##storm
saeed
heir
ifo
##kee
whenever
blk
173
ratify
refunds
motorcy
socialists
scene
earths
aerop
suitable
magnate
removes
bouncing
captured
namely
##covici
hildebrand
520
sfo
hai
willard
eds
resid
##ockey
officemax
inclusion
genome
significance
tumult
ambition
mercury
moffett
410
oman
##eni
##thia
unres
arc
aged
decker
boots
images
pricey
surges
treating
knee
donna
serge
##beans
misman
papadim
fdx
overhauling
soybeans
guardian
methodology
kathy
conceal
endorsement
fretted
390
cmc
foo
kas
nac
nisb
##pine
##etical
##esty
unreg
brick
backup
insists
cream
21st
testifying
lehmq
##folk
silva
coupons
##2010100
tendency
precision
durables
prohibit
##charges
relieved
linger
pumm
##a3
thyss
##icc
wash
trains
leff
##ieu
brilli
timed
phlx
roof
mediation
245
walmex
everyday
315
ermott
540
landesbank
malaise
excesses
traveling
pasok
weighting
cracking
constitute
bleeding
gearing
bumpy
mkt
yoshihiko
apiece
nisbet
ermotti
vaux
##alu
##teris
alf
plasma
brace
bruy
hedged
colum
skilling
occidental
occasions
appointments
escalated
gabelli
discouraged
ccb
mohammad
preserving
reshuffle
inaccurate
vauxhall
bruyette
mub
rost
##rep
##utory
shu
chu
spdr
leaf
156
runaway
##706
##2010080
hyper
wachtel
comfortably
epic
hurricanes
geared
chakrab
overdue
pulte
hovered
oz
ober
##bw
##eder
retains
goodrich
solving
martoma
awful
heaviest
eastman
natal
kinder
statutory
burdened
certified
steinbru
ps3
psychological
stirred
mahindra
clayton
lipsky
shepherd
dd
dorm
sv
##york
anast
##oway
##ests
marius
##unting
##oper
brkb
##achs
1981
poorest
cheese
histories
repeating
koenig
pca
touchscreen
allegation
carlsberg
##process
galvin
##arthur
unreason
convergence
kotz
circles
eckert
unfavorable
unresolved
jia
##gary
##uum
shelf
conrad
sharon
timber
disin
##asser
probable
##breaking
refers
265
listening
ullman
trusted
425
##unted
##ega
gallois
galloway
cfc
vacuum
pickups
installment
culmin
mohammed
cynthia
lefteris
clouds
robbins
kuehnen
cult
kob
nieder
thick
unease
##uez
propelled
factoring
##705
idustre5a
##229
consoles
rhys
vacant
bellwethers
kubota
provinces
grassley
gulliver
nc
tort
##aic
asahi
##apy
archer
quinn
bug
millionaires
juniper
steal
proves
considerations
solicit
lightweight
surely
blogs
embro
resisting
moscovici
schaeffer
taiga
lamy
backdating
shelter
grupo
hastings
overstated
pontiac
diox
inevitably
moll
##ras
##yers
##oral
ina
##owers
neu
prone
markdowns
##ancio
transit
164
hubs
##aleed
disappoints
magic
radiation
unfounded
josef
tankan
kenned
ignoring
sights
perfectly
alwaleed
redesign
feasible
accenture
lah
pach
##a2
atkins
pragm
unjust
##anded
##uced
sourcing
smaghi
furthermore
technoc
235
##ontent
stresses
axe
substantive
rampant
devastated
bennett
nahb
kennedy
dose
##asted
##itted
166
macarthur
patel
525
espn
falter
melan
injury
##iraj
fatal
gerard
psi
imperative
ballooning
uranaka
entice
schwarzman
papadimas
steinbrueck
duff
nail
rlx
yi
##burn
##fer
##chio
compat
compli
spikes
abusive
##etted
guine
acquir
microch
jeans
leftist
##aua
savvy
groundbreaking
deputies
lagardere
converting
hesse
anchored
marriage
wreck
tandem
cafes
3com
cary
lying
npd
uaua
alfa
##ibb
##angle
calyon
strengthens
avoidance
hirai
amassed
cibc
incumbent
replenish
dioxide
foss
vor
##comes
##gol
albanese
##andro
spite
org
oral
plains
clashed
booth
dispro
##suko
##ikoff
goldmans
passive
separating
##scope
stressing
kicking
mscief
advocacy
rochester
thrott
photos
oat
zain
##oj
##dong
##uet
##hp
##erie
fore
plate
boon
##issance
midpoint
baseline
desperately
pete
secretive
christoph
cancellation
answering
cubs
dcxgn
bryar
diminishing
contested
psychology
scrutinize
embarked
indefinitely
1960s
evangelos
burgeoning
bors
borse
##bul
rever
anders
stup
##ective
defends
taxable
rohan
complicating
thomasson
##banks
waive
predictable
maler
footwear
gallons
correctly
reassess
bowl
##ertrak
exclusivity
mirror
tolerate
abdullah
heavyweights
ikea
tropical
declaration
shoppertrak
ace
dill
fon
poul
##fare
praveen
##endered
bratz
slipp
canal
##avia
paymaster
1950
regulates
blames
smel
topics
novell
475
domino
resigns
sandisk
##onnect
agee
antonis
cdu
sterne
grapple
stretching
deliberate
scientists
cordial
mcmoran
forrester
clauses
bini
nurs
rie
##public
##asa
perks
resumes
##iani
11th
drastically
192
trev
discontent
285
bernad
calgary
richer
martell
booking
debates
embass
underwritten
affordability
jessop
barbie
autonomous
prevailing
##accord
quadrup
acreage
##patrick
mohamed
pcaob
bild
##l1
##eich
##iley
whoever
canaccord
detri
171
169
broadening
##annon
philos
##anches
crashed
satisfaction
frustrating
exercised
resumption
jeopardize
remarkable
hulu
bendeich
tasks
wakab
goldmansachs
iam
##banc
##zou
##vable
stoking
investec
resem
claire
outbre
enroll
##loaded
##ached
valero
suppress
unsure
void
featuring
insistence
shirts
attendance
sleep
recipient
averaging
exhausted
habits
niederauer
cob
cite
hos
lyond
mask
foref
unified
spetal
meager
servants
flint
propel
seng
subcomp
177
proposition
rupt
malte
reinst
koch
recommending
pascal
comprised
streams
broadcasters
unleashed
dreyfuss
wakabayashi
kear
wim
wax
##yx
##kok
##bee
##vig
rekind
forged
##apest
resent
dise
businessmen
taxed
scoop
takada
163
halstr
budapest
##ennan
petr
widens
skitt
cooperated
moran
sanders
welcomes
embargo
elimination
mosaic
sorts
infringing
rewarded
explosive
siegn
hugo
puerto
enjoys
lavish
fusel
aeropost
bernadette
lyondell
halstrick
kle
kol
ripe
##anov
##otes
##ancial
bare
directive
187
geoff
##annin
distingu
##busch
gspe
clearinghouse
injured
degrees
guarded
academics
amplats
chronology
authors
embroiled
730
cure
daw
fdp
peng
sass
tended
##s1
##eh
##ela
saum
alto
noticed
##unori
surcharge
##orda
##riak
baes
survived
conflicting
summits
abandoning
egyptian
berkrot
aggrav
relentless
spetalnick
maltezou
dob
hyn
kss
kai
taco
##wau
##aqu
##lr
##jiang
plot
plum
overhead
disl
##uchi
##ierre
uncover
milwau
burkle
exxonmob
nightm
vulnerability
vacancy
##200610
pandora
syndicate
scrutinized
yoshik
genuine
skewed
claudia
chelsea
skittish
milwaukee
490
630
cay
hov
oc
waki
##bd
##vell
##ompass
albaugh
semin
##aghan
outst
interrupt
wallets
writes
recessionary
commissioned
worthy
irving
cylin
suffers
natsuko
encompass
bangkok
##after
renewal
hydra
hobbled
aeropostale
exxonmobil
560
620
ale
mouth
ots
vm
##yade
shaking
sheldon
convey
hass
resale
outdoor
##irez
exchanged
protocol
fixes
substance
lucky
jetliner
ethical
harmful
disposals
ingredient
bureaucracy
##rizol
lubrizol
library
peltz
chakrabarty
forefront
saumyade
saumyadeb
##rayed
##iere
##gard
##xa
##igated
20th
chung
ard
interchange
impat
credentials
underp
donovan
prote
heavier
roberta
worsens
accepts
fighters
karol
idusn03
shipbu
fleets
upwards
tourists
liberalization
resuming
bouton
sieg
stumbling
downplayed
lancz
statistical
outstri
##edge
##asil
aboard
cites
wraps
huang
idusn04
recognizing
mosk
##2009110
reactor
northeastern
leaner
grapples
unfortunate
liddell
pullin
incredible
##stantin
embedded
disproportion
dax
gent
lpl
maps
oats
##rac
##iop
##areness
##astin
unpr
##ante
outlines
##olla
thereafter
undergo
151
janeiro
restitution
awareness
apax
landl
bottlen
slashes
mandates
chancery
ounces
squeezing
thrust
parking
epa
nerves
ridic
vested
alarming
sexual
multimedia
kitchen
lapses
mw
sob
##g2
atmos
tranches
unman
unsc
payday
opportunistic
consultations
concluding
educated
unlisted
advocated
kazunori
botched
downloads
diagnostics
lauder
hydraul
fasb
gerry
hect
rol
tac
vying
yong
##iq
##gie
##zheimer
stoke
altered
weinberg
monitors
overpay
regained
##ensively
##rupp
janney
guided
176
181
christina
multiy
suspending
shocking
outsider
declaring
kirsch
borne
reinsurer
exploit
stoppage
irregularities
wholesalers
hawaii
irresponsible
hamburger
multiyear
vel
##frey
##alis
sting
wegel
trac
##ource
##agement
##agh
154
##ricting
gralla
estimating
importers
##sha
##2007090
encana
##oyi
dampening
##ggett
thornton
tunnel
subpoenaed
##nikov
snacks
gauges
torchia
anecdotal
nightmare
atmosphere
wegelin
vault
wade
yach
##nut
##eel
##alc
##acas
aso
uneas
edges
##aving
importer
globalization
##rica
smoking
inflate
guzz
spokesmen
microprocess
harass
shuttered
giul
nationally
voic
municipalities
hunter
roubini
divergence
breadth
wiess
sacrifices
outfitters
swindler
censors
philosoph
gurr
kang
lun
stint
bez
alien
arca
leased
plav
##manis
financiers
idusp
surcharges
restrain
emery
encry
organize
hillary
bradley
tsmc
lasorda
switches
bolder
pitched
##akrishnan
mmm
thrifty
kleinfeld
vigorous
boasts
revaluation
beauty
unstable
unpredict
gurria
plavix
cin
caw
gft
giles
vance
##rus
thaw
asc
##cht
chest
##imer
##ivable
##occa
agbank
lied
consists
##ucht
phel
descri
retails
178
167
portions
##dsky
angelo
djush
speeding
squibb
recognizes
oslo
##2006120
pedals
plummeting
fraudulently
assemble
cereal
fayen
federally
creditworthiness
technocrat
fant
nel
oxy
pink
##note
##f2
##elil
2030
fracking
prada
tract
afl
coors
firma
shareholding
lends
holt
revital
sandridge
diversifying
squarely
utah
##canada
innovations
scotia
soybean
mirza
demonstrates
massey
khelil
literally
mishkin
delisting
subcompact
diseases
470
ccs
jor
lan
mint
qcom
##wo
##say
207
aless
alzheimer
trained
unload
euph
abst
lowers
barcel
earnest
headway
##703
freeing
turbo
apache
favorably
cannes
naroff
loud
quantities
rumored
grave
calculating
translated
ipods
interpretation
stumbled
ishig
snapshot
uralkali
guinea
djushb
barcelona
averse
ebs
pec
sik
##pit
reagan
##elect
perth
alois
##orsky
indig
##ptom
analog
##kson
##ettes
defenses
brodsky
chairmen
automation
corporates
massively
fairness
silent
treaties
##swing
gregg
silverado
apartments
ramirez
taiwanese
arbit
convictions
dunkin
tuning
txn
daisuke
rinke
chongqing
columbus
aeg
##mons
thayer
##enburg
anil
sherman
##istically
offload
##agers
strings
disbursed
amc
policymaking
186
laugh
lessen
rebels
bookrun
consulted
rajan
papacon
sandwich
efficiencies
symptom
clinched
escalation
entrants
resurgence
hinges
destabilizing
thyssenk
##stantinou
papaconstantinou
gault
kik
##b4
##alid
bypass
complied
marketers
buc
##iah
payback
raided
scor
1500
188
domain
218
rene
naturally
origination
describes
##2010120
surviv
curtailed
retreating
coogan
suburban
lonmin
substitute
ishiguro
thyssenkrupp
##cock
##enic
##edar
##atia
##icates
shannon
newyork
edf
##anco
enables
bron
##ifi
regaining
valerie
flour
##iffer
goodwin
solvent
impacting
idusn20
serbia
favoring
##roduct
appease
munroe
reorganize
sequester
##paolo
distortions
simplify
palladium
toothp
aley
ccc
fbr
iw
welt
##rent
##uer
##eney
staunch
friction
##apj
##email
abol
twx
impet
airbag
elp
243
cremer
breast
circulated
triggers
athl
palo
persisted
garcia
##enza
bumper
##zhar
sofina
inches
gadget
hodg
gigab
hermes
voicemail
aleynikov
azhar
cave
dab
hinder
sven
sober
##bar
##alia
shank
shame
ensu
recy
##reeze
restricting
medco
specializing
hogan
hosting
comprises
##ihad
ticking
logged
streamlining
warehous
instructions
ineffective
withholding
girsky
bakr
kg
qa
zy
##omed
sticks
saito
trending
##acters
brack
capex
callaghan
##hew
moderated
##riend
francis
congressman
loser
characters
christie
journalist
arriving
nickn
oreal
sidest
montana
dissatisf
pedal
plummet
translates
agrium
defrauded
reimbursement
disbursement
hynix
660
aero
bunch
lh
mps
oles
wai
##gom
##mouth
##vb
##eds
proactive
##imb
##akis
orth
##ounce
counters
##claim
risking
desert
##rolled
commented
mcsher
acquires
nationalize
sunny
##insured
antib
thoughts
militant
provisional
revamping
barbier
incorporate
delegates
pearl
guangdong
advertisements
recruitment
chernikoff
confectionery
melanie
toothpaste
mcsherry
cayman
dye
fret
hi
yos
##gx
##jt
##iler
##acious
hag
boyle
##izzard
##aches
##ucci
merkin
firming
##athers
##ception
devoted
journey
schedules
random
container
undervalues
brookings
ashley
overdraft
rafael
overbought
##ression
##kj
##anche
sah
202
wass
tracy
##antec
contention
accru
capita
deserv
prevents
174
importing
latvia
wilkinson
##2007120
##ukawa
montgom
intervening
thresholds
olivier
fitzpatrick
kathar
defective
prakash
emotional
pummeled
impetus
kov
sich
##d2
##b2
##omberg
atom
mari
uninsured
ecos
sparks
crt
##rows
##intosh
carsten
rah
relate
farming
183
commentators
##aze
petrol
rescuing
365
forceful
pulls
parliaments
candy
matches
impaired
academy
pouring
alden
unaffected
fuselage
berm
taste
##yard
##father
invers
slap
##ksil
insid
tundra
restated
basf
protects
shopper
priorit
banning
fleming
symantec
shirt
accordance
tonight
persuaded
peso
charts
hinge
lahood
iasb
kay
kout
##cott
##hand
##elco
atlas
unilateral
planet
beth
parity
schomberg
desired
guiding
161
custod
changer
mcgu
228
complaining
hopfner
sunk
detailing
##scar
supervalu
reinvig
speedy
piech
dieter
equivalents
preferential
cambridge
preceding
fulfilling
embarrassment
disappeared
albany
maurice
immunity
montgomery
gucht
kinn
nol
pinto
xta
##tree
##zi
##onding
shuff
idusse
##flow
evenly
famously
295
formidable
temple
santos
drafting
downsizing
coordinating
compromised
satisfactory
weapon
observed
dvds
nsn
azumi
olivari
crumbling
enlarg
valdmanis
mersch
stroke
outbreak
kearney
kiyoshi
pt
tsu
inhib
##iron
printer
##ocation
##allo
##ppe
crick
salesman
endured
emea
dressed
idustre8
flush
postbank
purported
negishi
solic
453
##2010090
baucus
rebounds
##american
bulgar
exciting
hacked
brookfield
ballooned
alberto
##fuels
warehousing
dor
kun
nets
ndr
##uay
##hy
##erical
inroads
marub
quits
##eko
brushed
##forward
confessed
elgood
brock
inflow
paraly
deserve
##brey
develops
##aza
bremer
holes
excessively
feeds
brewers
1973
##rews
geograph
semiconductors
reinforces
cuba
biofuels
exacerbate
nexus
ghana
natalie
bone
xu
##warm
##ocent
##nor
##kers
##stin
##terra
##ista
##ellan
##oka
corolla
elusive
policing
swan
184
walton
broadest
499
campus
dominion
6000
solidly
recommends
voices
resistant
2000s
trails
corresponding
impairments
aspir
lukewarm
doubleline
##onference
baroin
unregulated
ketch
ment
osp
tong
yann
##c2
##nx
##pb
##ml
relin
stom
##cture
##berra
canberra
sworn
inflating
transpl
236
billed
shoot
tracker
contributes
crossed
contrasted
dissip
magnowski
intentionally
rodriguez
embraced
restrained
forgione
havoc
corbat
unfolding
covenants
ewald
kurdistan
compatible
ndrc
marubeni
omer
##pu
##bound
##ilon
##utch
##eties
##ested
204
chatham
newmont
upswing
capitals
defects
bondholder
firmed
restoration
warsh
##ahoe
avastin
sentences
macintosh
pleading
sonya
contrasts
excer
warranty
kaneko
golan
destabilize
forrest
deceleration
##0000pus
tumultuous
unreasonable
##ierrez
yosano
relinqu
hays
hca
osw
yates
##g3
##t3
##tor
##taylor
##m2
##j2
##jan
perez
wean
arsen
##agate
hadn
mayumi
blizzard
basics
stephan
totf
sanpaolo
handily
slumps
straightforward
silence
skir
guido
roadshow
hollinger
watchdogs
minded
vastly
emphasizing
waned
jeopardy
##charged
punishment
clashes
reprieve
kroszner
deregulation
manipulator
hydraulic
kirschbaum
codes
naft
##utz
##acked
anntaylor
longstanding
philly
departing
basil
continuous
winfrey
lightning
persists
weathered
faltered
miapj
ballot
comprising
reputational
magazines
collapses
gutierrez
parameters
relieve
narayanan
hottest
fossil
dij
mbi
##q2
reeb
##urity
##onoma
soars
corus
emerson
mainst
aids
safely
taro
humph
obliged
kaori
imbalance
wildly
faulted
interconnected
village
guangzhou
sipc
lazar
##onalds
transcript
quadrupled
elpida
oswald
reebok
825
lung
pix
ritter
##yk
##ader
bean
wei
weill
aca
boats
##segg
corners
flies
steward
redstone
famed
##ovich
handheld
infine
moments
##tenstein
##tsman
mcdonalds
innocent
esiner
hubbard
murky
exacerbating
submitting
blasted
cigarettes
tempted
shunned
renaissance
jaffray
complacency
carnival
infiniti
inaug
paus
rhe
vaugh
##dl
##i3
##gling
##alysis
##itories
seizing
##emia
##ourt
agn
overrun
carson
capitalists
opting
specified
divor
judging
ips
breakers
takenaka
explored
resolutions
centerpiece
henri
overhauled
banca
##ihiko
soundness
jesse
conglomerates
derailed
pmis
##bourn
distorted
overdone
magistrate
nacchio
koenigsegg
fantastic
waiver
570
ces
cough
ez
hiked
vitol
##cont
##rise
##e2
##fargo
##ilt
reich
##ayama
##otment
usd
##odo
##ardi
clc1
##eking
debtors
retires
194
scam
seconds
grips
passion
secretly
wealthier
accessing
preventer
wellsfargo
individually
palest
scottish
muni
##iemae
appreciated
crashes
semgroup
experiences
naoto
bursting
tunis
oakbrook
milestones
instructed
##enkamp
staggering
waxman
bezos
avis
luck
comex
chester
comparing
trio
##ivans
lik
loop
doering
##uala
##aterally
roast
takeda
everett
pickens
erin
575
etihad
##ofer
speeches
leary
instrumental
##buy
tribun
yellow
reckon
queens
##901c
iduspek
miapj0000pus
aon
kor
kuala
tuss
wint
##gp
##aters
##idian
stip
onerous
alper
subler
notify
##anca
contents
##loading
##iborne
centro
glimp
minivans
emission
donations
##enney
forwards
grossly
outpace
modernize
ferrero
chadbourn
herself
embassy
censorship
glimpse
fgic
iz
taf
##lf
##e6
##enko
##ilm
alico
eurob
##odox
acr
soly
dealmaker
assu
farr
transcanada
##ssel
formats
exploded
ruff
discounters
criticizing
565
rigid
pharmacies
daniels
idusbre88901c
bryant
fischer
daiichi
guttsman
tilt
vaccines
unrealized
overturned
rudd
unsettled
legendary
lhag
dijssel
4s
aam
cus
kass
nast
zam
##rates
##hail
##invest
##eson
compress
##andi
##abank
##people
##ausch
mered
swipe
respite
labeled
##ewoo
authorize
liquids
environmentally
eastham
fortesc
exceptions
aerial
reiterating
checked
illness
stagflation
iduswnab
errone
feroli
suburb
lumpur
synthetic
mcguire
fortescue
720
bausch
eis
zach
##words
##celli
##fw
##hir
##erable
inland
chun
chilton
##ainen
usher
##gham
overto
stockbro
##ibu
prejud
caracas
##ertino
reposs
publicis
halo
doubles
hardship
martine
colony
julian
stimulating
rollout
dismissing
##2009120
##xxxx
elaborating
cupertino
terrorism
reelection
excitement
katharina
bermuda
infineon
solyndra
kant
nond
zones
toul
##oubted
##utive
##aying
thatcher
shih
##osc
newcom
edison
##enders
dealmaking
fever
undoubted
carroll
ende
equals
swell
shortcom
activated
standardized
415
kris
reining
narrows
escaped
cellphones
owing
punishing
admir
undertaking
occupied
syndicated
artificial
applauded
##bloem
unlawful
handelsblatt
jiau
idusseo
dijsselbloem
shortcomings
dna
jong
kom
lul
pemex
vans
shave
suited
afterwards
##block
idushk
presided
restocking
213
receivers
calmed
memories
idusn21
##places
skies
cancelled
subjected
daewoo
recapitalized
rampton
educational
entitlement
nesn
fujitsu
thoroughly
leonard
rmbs
hoffman
insidertr
overtook
henn
sinks
##d4
##b5
##aliation
reais
##elin
sacc
conform
marco
weir
orient
##anta
stockton
busvine
amn
retaliation
196
flot
##suisse
relates
phib
directions
halts
189
generali
##athed
226
viewing
muse
quantity
diversity
roadm
cables
railroads
attrition
kristen
valeant
overtaken
lentz
resurf
cathay
deferral
sacked
wiretaps
fraught
cairo
enrollment
unpredictable
tribunal
meredith
fizz
iksil
nil
nn0
panc
##cially
##f3
##ilst
sax
fright
unthink
fuji
brady
##ipaska
alltel
creditsuisse
jung
employing
farmer
realign
233
claimants
##ewing
commercially
andrei
drugstores
deripaska
337
335
profiles
infant
bonn
designing
encourages
hoard
princip
casey
fragility
crowds
leahey
beset
deceptive
tampa
arose
rewrite
pragmatic
wiessner
phibro
680
hood
kbc
##ril
##fighter
toled
##uti
203
shld
shattered
chid
areva
resales
precl
regrett
equation
disconnect
ministries
##ahl
programing
##ikan
portal
techniques
247
##spin
totals
212
teeth
starved
revising
bottles
##hams
reinstate
musk
attacking
olive
##hoe
satellites
escalate
interfere
psycholog
kreij
fledgling
tolerance
cricket
insidertrading
fict
gur
iag
jolt
mets
teng
zap
##iqu
##uzzi
##orus
complying
leapt
abating
proponents
verbal
desc
budwe
355
renamed
luv
necessity
pensioners
koz
luciana
objection
surviving
cellular
wondered
accuracy
irrele
omnic
lieutenant
undoubtedly
unthinkable
fictitious
cg
lur
tad
tired
vows
watt
ye
sapped
invitation
adap
##ondition
loading
swatch
juncture
delisted
likewise
respects
controller
oversho
worthless
missiles
espion
layoff
##gene
rocket
performances
rhodes
okay
conspir
wolfowitz
mackey
a380s
evolve
tailspin
underpinning
graduates
##hanna
distillates
hydrocar
surrender
cayne
aamrq
kreijger
budweiser
bach
fek
g4s
hip
vall
za
##i2
rework
##isch
##eston
aboul
##orski
clive
buch
carve
corps
smfg
relaunch
dougan
##teen
cyl
designers
erasing
alternate
##afia
readily
tenet
levied
sempra
ethiop
owens
##agram
catalog
obstruction
reshape
bretton
accomplished
museum
toledo
espionage
aboulafia
615
dru
fence
gt
hain
istan
nano
tying
##rice
##p2
##fm
##zu
##opes
highland
brocade
chairwoman
simmons
uncont
maine
critically
##itorial
infect
accessible
lisle
banana
caters
speculating
##street
bridges
unwound
##holz
reckons
crews
occupy
populist
frederick
vessel
liveris
conferences
shepherdson
hodgson
mainstay
ipsos
istanbul
bs
cou
dys
fuss
jwn
naz
wik
yale
##watch
##c4
##jas
##xi
##onna
##adia
##otle
conner
neel
spaw
spared
spying
airasia
taxi
parad
255
##index
talented
differing
227
216
299
muster
345
krishnan
sandle
embold
munger
durbin
kelton
knocking
submissions
populous
enforced
salvage
nudged
shankar
roadmap
dw
dard
fcp
java
lj
male
yank
##dling
##n2
##iners
##arious
206
shall
##anti
braking
conserve
meh
loes
aired
reply
whereby
6019
existed
teleconference
##iya
essence
collections
dilutive
skeptics
norton
homebuilding
browne
coty
suzanne
alarmed
forfeit
perpetual
spearheaded
640
bba
ices
lte
pod
sided
tav
xavier
##d6
##gold
##lim
##n3
##post
##zan
##enove
##irms
isa
ate
atul
##amm
monde
##ourn
coeure
slm
##ianne
inflicted
joaqu
pressman
posing
##aho
##icting
storied
baltic
bafin
universities
greenwood
jefferson
775
rhode
homeowner
textile
reconc
fatig
cups
celebrities
revolutionary
vincent
crimped
sacrifice
reminded
chandler
differentiate
nimble
cazenove
590
cemex
fah
jes
pam
sonoma
##c3
##rb
##ring
inception
##elogic
comed
##esta
leather
abi
crdi
contended
keiron
associations
stimulative
seasons
separated
westport
nato
susque
partnering
bottler
measurement
spani
simpler
montag
catering
dispel
demonst
hewitt
analyzing
thinner
akio
rosenberg
crafted
kuwaiti
defections
fitzgib
siph
##aloosa
duffy
uneasy
deserves
bulgaria
susquehanna
dawn
kon
yves
zak
##fk
##erver
##etched
onstad
bew
trapped
newport
##ailable
idaho
##ibles
corrid
minivan
elena
verify
##wego
transitory
halpin
openness
##boe
uncomm
aiding
debuted
prosecutions
oswego
succeeding
vale5
curtin
cruze
suspicions
croft
memorial
boyd
multimillion
lundberg
mantega
lampert
gaffen
stupid
fcpa
icesave
9202
nb
rac
vind
wl
yard
##u1
##n5
##pian
##ometers
stutt
chery
##ivo
newman
##ffi
##okes
interact
confined
probed
marched
##arkin
##704
##anni
madeline
##tenberg
resigning
tendered
bureaus
distributions
grandfather
deduction
crafting
khal
##zhong
absorbing
stockpile
fukui
lorenz
engulfed
rehabil
retailsales
lb
pang
raced
tus
##o5
##uhiro
##k2
##j3
##ecca
208
exposing
##outing
induced
sox
##izoph
##ounding
imped
counties
defying
1929
schizoph
extrad
meter
virus
precarious
recapitalizing
dupl
ageing
feeder
claiborne
allocate
cdma
grocer
groceries
restarted
thrifts
champions
##warner
cherok
sample
gravity
gaynor
penetration
schizophren
dines
graft
jgb
##du
##har
##orr
inequ
##itarian
##icious
##ecurity
dearth
##essen
webc
trap
marketax
plac
agius
enem
analys
corelogic
slapped
amanda
##aching
193
##ogen
faring
supporter
realization
urqu
tommy
progressing
connor
layer
trucking
outsiders
asserted
sukuk
phelps
fy
hig
##dk
inexp
byr
isabel
orb
clog
##rowski
governed
wording
slot
backb
##xture
blaise
warpl
midland
creeping
singer
locals
myles
westlb
piles
katie
servicer
ks11
revolt
nordea
fanned
averting
accumulation
bisch
xiaoch
redundancies
goller
idussyd
teetering
dawson
description
toulouse
joaquin
marketaxess
duck
sigh
##gage
##k4
asda
chik
##agawa
liech
loads
carp
##ruple
grind
walls
writers
234
##minster
harro
##bright
universe
suspects
supervising
boliv
louisville
routers
daunting
demonstrations
khuz
ingram
guttenberg
delegate
concealed
quadruple
##ylene
onset
thirty
contamination
karolina
dinesh
khuzami
1st
920
gem
oy
tast
zandi
##g4
##bol
inex
inaction
##roy
onyx
alix
mongol
invalid
residence
ages
outd
overp
articles
genes
rohner
systematic
facto
furious
creek
##otten
huff
amounting
##hae
pleads
chipmakers
##aeus
csrc
heights
implicated
displayed
larsen
ferrari
whistleblowers
oxley
cioffi
dictate
narayana
oatis
unscathed
enlarged
stomach
demonstrators
725
cing
h1
stab
itt
agust
britt
appell
disab
dove
12th
depended
raid
##assum
flir
flesh
305
##ennium
defici
cheung
##unders
floors
observer
1975
diamonds
stifle
negligent
nichols
sherin
startups
envisaged
showcase
fonterra
lunar
aloisi
ensuing
inversely
##haeuser
cingular
kap
ls
mold
##q3
##enbach
##idav
##ecret
withheld
marvell
weyer
unad
crom
outperformance
buen
preet
doyle
##uca
worldcom
##cling
janus
mortar
dived
affidav
calming
berg
administrators
protective
massocca
lightly
417
misd
millennium
wrongly
hosts
varied
arabian
##prexa
examiners
reassurance
vacancies
hammering
repairing
contemplating
amylin
francesca
neuberger
zyprexa
bore
bick
tat
vanc
vtb
wick
##oir
##dt
##g5
##f4
##arco
topr
##itives
##mento
chorus
atm
seagate
abk
boock
recess
emmanuel
defied
swir
centralized
gran
donors
mcad
teamsters
##oyama
675
influx
campaigning
sarban
rodney
keenly
epfr
judgments
lindsay
mueller
aubrey
##micro
compliant
philosophy
weyerhaeuser
toprak
boockvar
sarbanes
eileen
harg
kud
kbr
wti
yee
##capital
##py
##ouver
##icable
##aders
prox
##ivables
##ellini
brasil
accret
##loo
payable
wellink
relatives
parach
juk
realizing
amongst
receivables
405
avoids
399
##esha
radically
conservation
##resident
diapers
dunham
recruiters
dinallo
expiry
hometown
illustrates
bruno
harriman
zargham
cherokee
vancouver
4th
ek
fades
kdb
penc
##wort
##rine
##ped
##pot
##joo
##inis
##ono
##atil
stating
beas
ablin
aller
undo
confused
flare
detected
mids
244
hardy
balk
nonresident
shooting
suscept
robertson
erase
speakers
chipotle
jimmy
traveled
cleaner
ramifications
admits
sixt
tailored
overwhelmed
nutri
kroes
apologize
sasy
porcelli
horrible
boca
bruising
eclipsed
appraisal
disinflation
unmanned
appellate
cumm
dash
tse
vip
wig
##cb
##420080
reits
##idou
##lew
##thouse
frug
expression
crist
induce
liffe
manila
paych
presiding
dracon
flan
steen
courage
wrench
##ikov
keys
wald
seniority
michelson
##shmi
skill
misappropri
reinvent
radford
concludes
precurs
cabot
comprise
sticky
guards
tycoons
boutiques
queen
gateway
mileage
cmbs
covenant
hyunjoo
kraemer
mentality
ruptured
bottlenecks
amnesty
webcast
xiaochuan
accretive
bios
cec
db1
gears
ich
nfa
rs
rust
wow
##r3
##del
anc
##etia
peril
reckson
appaloosa
centrist
allge
annuity
defining
191
popping
investigator
##atchy
harrah
infusions
ensures
burberry
rockef
##ochem
biomet
dangerously
unnerved
predecessors
naj
mcclatchy
assertion
skinner
ravaged
sifi
riotinto
unavailable
orchestrated
neligan
irrelevant
dysfunction
loescher
##boeuf
cummings
cage
dl
hate
pains
riley
sangu
##gier
##lu
##l2
##meyer
##hara
##erer
##onaut
##atus
rew
##elia
##estock
pert
heal
marketplaces
usb
abused
plaus
lipton
mangan
logan
##ramento
vertic
topham
##arez
britons
berenberg
entergy
breaker
apology
organizing
optimal
freighter
bostock
nicely
liters
sacramento
prominence
tentatively
tagaris
kleinwort
sinochem
baked
overheated
otellini
distinction
##ambaram
osterman
harassment
overruns
chidambaram
urquhart
inexpensive
nonresidential
draconian
sanguine
egg
ikb
kep
mendon
sesc
zenger
##rt
##kis
##j5
##entiful
shapiro
neuro
marque
spee
##006
orph
plentiful
##igna
onex
regling
chiefly
actavis
consume
taxing
swoop
discrep
matures
powell
macl
##cient
legislature
rajat
##mps
hamburg
cfius
bmg
csx
decreasing
kelvin
roubles
accurately
planemakers
jcpenney
bureaucrat
enforcing
bancrofts
vigilance
loophole
sequentially
dismantle
adversely
notoriously
residual
olesya
ospel
spaniards
liechtenstein
zengerle
speea
8604
jager
mp
pens
qtr
tl
##iant
##fie
##vr
inad
chk
chua
choking
gloc
imposes
rao
longs
scler
roes
raton
fiscally
stored
affirm
generators
projecting
successors
shoots
charm
465
progressive
sideways
flowed
conditionality
appropriations
easyjet
##partners
ranb
abnorm
thrive
lauria
slog
advocating
gibson
gaza
preceded
kleiner
levinsohn
restraining
defeated
kotok
belonging
unleash
unofficial
hoyer
slippage
kikukawa
martinez
cagr
jans
lak
pits
poker
tian
##e3
##e5
##220080
##jm
##imming
weinstein
goffer
##ellers
crushing
soh
downfall
estates
polo
impede
endosc
barrett
realities
stanch
macfie
soldiers
passport
necessities
practically
countervail
reservoir
bolt
steeply
territorial
coffey
santi
crossing
achievement
dugan
consequently
winterk
muller
##olyn
bourses
destroying
discouraging
migrant
intrins
bombs
lazaridis
fatigue
jukwey
gic
sith
sne
##a4
##r2
##zio
##icy
##isphere
sapping
pervas
alpine
sei
spelling
edu
eurofighter
##actively
downtrend
whopping
amp
carolyn
swanson
instagram
provoked
239
ministerial
holwell
455
climbs
nomin
teaming
435
determines
banner
ironically
territories
tourist
noticeable
thorny
wishes
recouped
haircuts
refriger
submission
defrauding
garnered
stumpf
megawatts
tracinda
fitzgibbons
bischoff
susceptible
precursor
pine
tiss
zhe
##dc
##d5
##gbs
##sis
##tom
##m4
##270
##h2
##vs
##anza
inner
revert
chies
traged
adher
leboeuf
stride
##quis
coates
oneworld
undue
consumed
19th
schiller
numerical
extensions
##ikawa
halfway
217
italians
judici
constancio
327
branding
395
sprecher
bottlers
choi
idusn013
flext
tenders
horm
sidel
zheng
cookies
ridley
bakken
catalysts
##ascular
endowment
reclaim
alfred
wimax
vmware
schizophrenia
winterkorn
chiesi
judiciary
bind
dina
mop
nash
##aq
##i5
##lich
##f5
##ecom
stung
exotic
##imo
##imon
unil
adec
queries
soo
cogn
##awal
##ensen
underperformance
whatso
swamp
swelling
smbc
effic
instin
headaches
walnut
rivalry
russians
socrates
##justed
mutually
expansionary
tumbles
introduces
##fields
railways
bucking
kyriak
cargoes
rotation
bulletin
occasionally
sanctioned
cockpit
acquirer
erroneous
stuttgart
allgeme
flextronics
coking
dte
og
ying
##ooga
##kar
##320080
##icia
whilst
chattan
##amoto
unim
untr
##allister
spurn
invite
abenom
decor
##ighted
lib
##inta
capitalist
insulated
swoon
flocked
tread
schney
dowd
harman
arranging
revisit
counterbid
connecting
spills
stole
acknowledges
semel
nonex
clouded
attendees
kanj
drinking
kambas
jerk
resurgent
photograph
championed
livestock
riots
smelter
distinguish
outdated
rockefeller
glocer
santiago
whatsoever
allgemeine
chattanooga
abenomics
fing
lch
mick
vibr
##c5
##o2
##e4
sake
shallow
##umen
leila
eurobank
overbl
coat
retali
308
rato
midamerican
changan
222
activate
hua
nonpublic
cafe
derives
downgrading
counterfe
fanniemae
amazing
dimension
eleven
illum
environmentalists
1976
tait
barrage
bolding
pinned
symbian
jeweler
audiences
maximizing
hellman
sacrific
mtv
piraeus
sympath
##uvila
griffith
envisioned
kalluvila
ridiculous
db1gn
830
cull
ding
jank
joked
kc
lect
viter
wield
werner
##c6
##iments
##product
stents
sail
sagged
##acio
beans
perino
maruti
notwith
eui
quitting
##ourse
##grim
blitz
belts
smok
repackaged
standby
##ructive
214
billings
282
collects
##ups
caugh
refinanced
467
widest
modeling
televised
participant
spilling
depressing
meaningfully
eyeb
sounding
garment
masay
captain
references
recruited
schloss
##nanian
homeland
##bacher
sriraj
registrations
dongfeng
unavo
abundant
mismanagement
throttle
hovnanian
giulio
countervailing
schneyer
viterra
notwithstanding
211
840
cna
dass
eib
jas
jol
anemia
##ecar
209
chub
heins
unfor
invasion
adb
plaza
brus
##liff
##atero
norils
##azz
simao
##coe
nonc
colvin
noteholders
explains
##arians
achievable
waterloo
hostage
disrupting
bookseller
reiter
reiterate
saras
rhee
melissa
1971
mirage
homebuyers
shelved
##immers
wheeler
inefficient
sifma
incompl
brilliant
tengzhong
zapatero
isaac
zakaria
adecco
caughey
510
760
cigna
igor
jgbs
lays
lbo
mism
pp
##mate
##h5
##h4
##eski
reis
##thy
##usal
alcon
compuls
trent
eure
edited
editors
straw
envelop
salem
##encia
##avan
##keep
merkle
smugg
holdouts
306
grades
subindex
312
julia
forcefully
dividing
replicate
485
preferring
expansions
fios
layers
hotly
appointing
6300
militants
initiate
horiz
escrow
castro
dispose
distributing
printed
lenihan
bucked
persuading
staple
fledged
##immune
hemisphere
##skis
stefano
restatement
subtract
woolfolk
panicked
ludwig
mammo
mystery
cmcsa
bakrie
flotation
unadjusted
kanjorski
norilsk
incomplete
lm
nit
tilton
tivo
yoo
##uating
##1203
##520080
##friend
##zb
toss
##utta
##leas
beam
isupp
frade
chill
chiac
unans
##ocur
notification
abram
platts
agm
manif
draining
newsmaker
254
potato
249
prototy
simons
thomsen
handbag
rebecca
planting
erratic
messenger
fortun
frankfur
copied
cnh
funnel
colleges
reveals
pilgrim
philippine
romeo
lobbyist
furnish
convened
tillerson
riversdale
gesture
nursing
landlords
wasser
ritterbusch
vaughan
paychecks
orphan
kyriakidou
overblown
unavoidable
chiacu
aah
dhl
kurer
pel
vu
vass
wiss
##m3
##fn
##h6
##j4
reapp
chow
interrupted
governmental
disk
disarr
doina
1969
termed
wellington
301
schuster
condomin
berkel
safest
shutter
seriousness
misunder
hoarding
candidacy
superstorm
understandable
jacques
bbdb
analyzed
paints
teacher
ivory
vinocur
prevailed
belongs
pfeiffer
dolls
ayesha
falsely
fekter
spawned
unilaterally
efficacy
frankfurter
disarray
condominium
hiking
mapping
tins
vatic
##col
##j6
##inand
##inity
neiman
unsu
finma
##union
coin
corning
amt
endang
riskiest
grill
halving
optical
putnam
bestbuy
bookstore
refinanc
muto
splash
hampton
tenants
##ulemon
1978
romer
gillette
transmissions
skyrocketing
lululemon
zhejiang
vatican
ef
emanuel
fim
jugg
kaw
vick
##wered
##a5
##sett
##mut
##k5
##food
##vale
##erle
anf
##elho
stym
adhere
##oped
coins
cohes
greeted
##opley
phen
leveling
detention
presses
donuts
bregier
445
deutschebank
waived
hsi
639
##iemac
funn
magnet
kirstin
bowles
##iannual
tanaka
patchy
oilfields
dmitrac
rascoe
sgx
presumably
confronted
sputtering
bewkes
tragedy
unanswered
berkeley
dmitracova
610
dt
gis
gel
luring
pard
siber
tt
##don
##s2
##k6
##bourg
##icially
##elve
##ulin
##akk
newell
seid
##ueger
sozzi
growers
preempt
caret
##urrence
worldbank
confusing
scary
chairmanship
mcle
333
greenfield
fremont
585
fiesta
dreamworks
osaka
corrective
disciplin
babington
6502
tactical
isolation
thermo
sonntags
varying
fcx
evaporated
770
dic
iq
wished
##o3
##jones
##xp
ofhe
##stens
reaped
fray
##ustomed
##emoth
crushed
strive
brag
intang
doggett
twelve
drained
elig
insert
grinding
##brecht
hopkins
issa
irvine
behemoth
322
communicated
freefall
popeski
tomtom
repeal
malibu
bushel
resignations
touches
prudence
pacts
mistaken
demonstration
kirby
walkout
unwel
pocketed
naomi
rotating
motivation
monetize
enthusiastic
template
euphoria
pancreat
uncommon
intrinsic
ofheo
dans
egent
hoc
hockey
races
##r4
##diemac
##bara
##hbacher
##vance
##rea
pern
##imura
##ammar
##ellac
arter
##sein
afterward
amerip
0005
scour
merk
sword
neared
257
themes
donation
mcallister
##anny
##atched
teal
westpac
denis
apa
locker
6752
niklas
objects
painfully
cfpb
intensity
hinting
battled
guns
trickle
rooted
peaceful
mirrors
binge
masters
lundgren
viehbacher
constituents
yoshikami
impatient
likened
sclerosis
eyebrows
isuppli
wasserstein
egenter
8306
gerber
pug
psh
qan
rwe
wold
anur
sherr
prow
haunt
adel
##ancock
plight
mayo
glimmer
workweek
netbooks
falloon
phos
themis
complications
263
communicating
freddiemac
resolves
organizers
conducts
hillis
rosal
wilbur
splits
paso
renewing
cleaned
crucell
zhong
undersecret
refuses
vowing
variant
tabassum
beefing
freedman
visionary
pioneered
legitim
culpr
townsend
applicants
kinahan
prestigious
retrenchment
dwarfed
kobe
pancreatic
ameriprise
fog
kane
puma
rask
sinc
##mn
##uto
##uration
2022
shots
##umo
adelson
##obel
upro
##see
saluzzi
cape
costliest
surgical
redirect
takah
shareholdings
donahoe
dowsett
myri
gspm
deteriorates
indianapolis
hewson
dallara
elevators
##petitive
retrace
mendel
overlapping
dirhams
hidey
fleeing
contaminated
remodeling
sassard
backbone
jankov
690
dart
eked
fao
gins
hancock
jos
pinn
zaf
##q5
##n4
##fb
##hai
##eny
##icity
forging
##ols
##apes
spurt
aram
usair
acura
bogged
##enden
salmon
brave
disreg
paycheck
drilled
##ucher
justification
refuge
232
237
238
##shares
chrome
whitehouse
organiz
presentations
identities
paltry
humili
criminals
squab
trims
heightening
diamondback
evaluated
channing
birken
hunger
trailed
casualties
villiger
defraud
breathe
misrepresented
gdf
therapy
fmcc
obscure
divorce
omnicom
mammoth
refinancings
disciplinary
unwelcome
pshg
undersecretary
pinnacle
050
bisc
lia
mank
oude
##kas
reaping
##asers
perce
ats
unorth
clutch
slope
workplace
paynet
backtr
submar
##azin
nyt
ici
multif
erwin
criticize
radler
##afee
wrongful
establishes
abboud
transforming
ghosh
bumps
franchisees
truecar
hesitate
tamo
agrawal
compounding
confronting
furloughs
motorcycle
accrued
transplant
arsenal
mongolia
myriad
oudea
670
dock
jbs
rens
vellac
yog
##wb
##920080
##zer
##ziger
##inent
thesis
##aty
##rogen
shaft
fratt
chuk
choked
marit
arby
offline
##pted
brig
slick
undes
underfund
actors
remit
flared
joly
detrick
wherever
divides
refiled
continuity
generator
awarding
599
blooming
doubtful
ambani
maxwell
##zeitung
quantify
dimmed
clarence
heartland
hawkins
hinton
mulraine
modernization
restarting
colorful
tweak
populations
boasted
unsuccessfully
bosley
karma
tinkler
protein
sichuan
idushkg
ranbaxy
organizational
vellacott
3rd
bauer
dos
hiv
herr
nz
sinn
tannin
yr
yara
yrc
##gone
##s3
##lon
##t2
##bill
shuan
##essler
##apoli
accustomed
cozy
##pex
intim
##awk
dealogic
profited
barani
valhall
flown
tui
courthouse
##media
mcafee
268
simmer
dowjones
berger
periodic
sucked
##riere
326
separates
renown
careers
static
absurd
malta
mounts
criminally
mechanical
potashcorp
subscribe
qatari
katainen
larson
witnessed
dinapoli
indebtedness
bodman
bedford
outsource
prohibits
fnma
cicc
oxford
sympathy
lodged
golubkov
lumia
poultry
ecosystem
reinvigorate
tussle
pervasive
unorthodox
shuangh
dag
fum
gv
yar
yel
##wski
##l5
##l4
##nr
##jit
##erica
##onation
toil
propped
##pps
boies
##ollen
receded
disgu
assort
000270
genetic
paralysis
evading
wring
departed
telus
circulating
##inox
terribly
sensors
pilakk
##innis
rupkey
pinched
stagnated
stagnating
arno
weary
bahl
vinu
vicini
crossovers
mathem
pitfall
feldman
alvarez
seminar
shipbuilding
guzzling
disabled
jankovskis
birkenfeld
820
dashed
kad
mistr
mush
riz
ranch
tif
##l6
##bod
##hou
touting
##asco
##esson
##ambi
weeden
trium
goel
heid
newedge
boys
intuit
underline
howley
mahm
holden
tub
258
303
matrix
##heit
guo
portrayed
purse
##elsheim
collusion
balter
winn
knowingly
##ifty
badri
drawdown
criticisms
floorm
muslim
pipas
superintend
eagerly
compromises
prolif
akzo
ssec
pierce
kyodo
deployment
viktor
refrained
lienert
hypermark
throat
masterm
contradict
theoretically
braun
tunisia
inadvert
funneled
eligibility
hideyuki
cess
lup
ming
rf
tanya
ved
wad
##820080
##edep
oft
##idge
##elis
##illes
spiro
crush
clot
liikan
##axi
259
sections
13th
subcont
guests
505
powert
##enne
calam
constrain
rebel
devitt
529
ericb
rosn
##tsch
boomers
clarification
mechanics
blowing
bmy
stevenson
taj
attraction
##555
southwestern
reopening
wearhouse
reshaping
mclennan
swinging
inherent
outrageous
wagner
neighborhoods
titanium
kilometers
algorithms
stigma
assuage
inequality
sithole
sidelined
liikanen
740
ahold
cedar
copley
tud
tib
yeon
##rie
##dann
##vl
##jc
##atable
perella
##uli
markey
expedia
##anyi
quasi
##ounter
##agne
strange
##manship
loft
carstens
##etty
defines
probation
swath
smelters
276
macinnis
6013
forma
successes
charoen
invented
spanning
roller
pipes
rapids
clarified
##ukh
unused
distributes
rupiah
characteristics
nakagawa
barnett
rainer
reinvestment
dissenting
detergent
##asiades
seabed
reposition
foreseen
administered
sikorsky
maritime
##edepot
powertrain
880
iku
jmp
mb
nke
rib
ting
tant
torn
##rom
##zin
##aney
##aru
##arak
stt
crane
##antani
needham
reminis
229
264
nasa
317
engel
patented
dane
bites
disappointments
steelworkers
readying
##dray
cnpc
assisted
protested
installments
iduswen0
hospitality
beefed
divesting
divestiture
pinpoint
hunters
islam
stumble
beverly
migration
dotcom
hulmes
pleasant
jaffe
codelco
disgrunt
resentment
psychologically
danske
pilakkott
superintendent
ikuko
aure
fen
kend
rife
ubi
##iw
##s6
##tw
##t4
##m5
##b6
thie
choke
alst
compass
##alled
coelho
cordray
autod
barlyn
needle
##rics
valencia
guilla
technicians
labeling
legs
sung
443
originators
auctioned
trendy
##afumi
campaigned
banque
essar
zhdann
dispers
ethn
awaits
conspired
hansen
bedminster
fabrice
assembling
hastily
hypoth
windsor
revelation
prakken
griffin
encountered
demographic
anastasiades
sunnyvale
izumi
receivership
lorenzo
alixpartners
deficiencies
roesler
phenomen
wolde
shuanghui
guillaume
etic
gases
ist
sod
sks
tin
zale
##wt
##q20090
##most
##h3
##hem
##jets
theater
##olph
aft
co2
##ensity
insign
flound
justices
kebed
seniors
30s
schro
leveled
electoral
donoh
purchasers
restructures
colao
notebooks
angst
debuts
342
journalism
distract
418
progresses
##hao
wireline
promotes
broking
mountains
watered
immense
melinda
mozambi
borg
ratchet
prestige
alvg
repatriation
microchip
hoskins
plausible
noncash
valhalla
zhdannikov
kebede
donohue
mozambique
311
cors
dold
eig
fas
hicks
nurt
tid
##o6
##nar
##k3
##f6
##ilibr
##acent
chyen
##center
##umann
sealy
finmin
##abs
plung
encl
recourse
coher
centr
feud
##avik
carphone
grouping
aires
topix
gripped
evan
18th
267
296
locate
jeb
ltro
staffer
buildup
electronically
erbit
syriz
scheduling
##boro
applause
sketch
replacements
permira
anonymously
grover
tesoro
archstone
guessing
warsaw
underestimate
kidney
girls
unraveling
sutton
lanka
alessandro
buenos
frugal
flanagan
eduardo
reminiscent
##ilibrium
plunges
erbitux
syriza
aib
gec
gender
kors
lc
rug
tug
##ql
##p5
##hg
##itex
saunders
nem
##amax
##amura
compel
##ells
abate
decoup
autonation
blend
256
publications
farley
getco
condens
powerhouses
idusnat00
novak
appearances
367
382
shutt
landini
wojt
tsco
dissol
decreases
hurley
demonstrating
turbine
disagrees
diplomacy
##rums
blanket
##6570
737s
praet
unicom
montebourg
cushions
loomis
celebrity
mediator
philanthropy
mubarak
reinstated
furnishings
wojtek
bou
foul
kats
nos
rude
##a6
##o4
##git
##uhiko
##s4
##sz
thiam
toe
onus
##amine
gop
heed
seba
abide
bog
overcoming
buses
##ibi
##ibus
implant
undergone
backward
pean
307
donor
mcne
221
##ilians
martina
robo
nova
angus
devi
deposition
prepay
368
444
erich
489
prosecute
responsive
dominating
rimm
routing
thriving
cooking
shielded
ticketmaster
grabbing
eliot
looser
danaher
assignments
surrendered
energizer
privilege
rewarding
stanchart
dtegn
boul
baux
nons
tz
upped
##qiang
##i4
##m7
##m6
##kari
##720080
##fx
##jin
##oru
##alk
reall
reint
forster
2021
##ocial
cler
pricier
##ibal
costlier
barret
confed
longstre
swapping
knees
runway
272
breake
fuller
298
066570
313
314
novn
caix
deposited
pope
advertised
distracted
hypo
dubious
firef
axed
cleans
irons
consisting
875
santosh
owen
concentrating
darren
gilliam
trumped
muammar
distorting
nudge
ratcheted
barofsky
unofficially
reverber
bookrunners
dabrowski
rheum
dassault
anurag
uproar
bauxite
longstreth
dia
gile
lans
ldp
wane
##qi
##p4
##120080
##jing
thales
##inian
##anathan
onc
##adle
fraser
propping
##ffen
##endahl
##olders
polk
carne
15th
swapped
junko
14th
guill
medimmune
donnel
mcge
crept
273
266
allowance
293
playboy
##team
ulrich
barclay
safran
388
bitco
favour
partnered
searched
533
waitz
bottle
stabilizes
morib
varley
sandberg
dismisses
osamu
categor
##onymous
implication
garmin
##cards
registering
northwestern
reinsurers
hanson
recipe
hellenic
##finance
hindered
intermediaries
##energy
relocate
birds
kashkari
scholar
epicenter
cylinder
microprocessors
eurex
renowned
gilead
biz
eq
ficc
jod
kull
mpg
mgic
nose
pant
witt
zetia
##q4
##oft
##lings
##hua
itv
shing
cherry
##amily
compelled
trian
##occ
##unte
quin
stranded
firest
mead
stocking
regimes
ammann
airgas
1967
blip
remitt
scutt
insult
proponent
##rolux
electrolux
volunte
mcke
sano
##rator
harsher
typh
shopped
cardinal
##ilder
586
##apeut
krueger
mori
influencing
idusl14
bundle
##ologist
steadied
siri
gilts
cementing
monopol
sabot
cummins
kubo
fracturing
doomed
trotta
grasp
paralyzed
excerpts
doldrums
moribund
860
bcm
fuse
jill
kabel
meck
rba
wiring
##yte
##fly
##jr
##j7
##idan
stourn
##adden
##acola
shores
##chler
##aman
seated
edith
clips
##oples
bother
brend
peoples
equilibrium
religious
schuet
##phin
raters
divul
refine
242
thund
continuously
319
awk
judy
363
344
accessed
385
##isoned
apb
433
waivers
subsidize
depositary
examinations
implos
streamlined
abbas
kirsten
divestment
obstruct
homebuyer
sakhal
denting
rackete
##charging
mtn
contemplated
vegetables
disturbing
predominantly
dissatisfaction
tastes
kepler
schlossberg
disregard
confederation
stournaras
960
cma
hft
ned
sely
##r5
##s5
##nk
##pack
##fee
##eri
##at0
conceived
alina
abra
plow
intra
disgor
allan
glance
##erne
timewarner
backfire
genworth
insures
252
rests
tale
lauded
277
keynote
##lessly
calstr
hui
packs
pollard
##uana
charism
338
expressions
giuse
635
conditioners
consistency
hormel
utter
naval
haynes
permitting
circumvent
kbh
hampering
sleek
kylie
forestry
mildly
drying
oaktree
loosened
samples
ciena
reykj
complacent
disgraced
clamoring
##lowe
wirtz
outstripped
indigen
schuetze
sakhalin
reykjavik
auss
pv
rory
wied
##q7
##320070
##bage
##orms
##arin
stod
conor
##ulu
##emost
indians
cove
backf
souring
swine
nearer
norms
furor
potent
219
listened
352
357
358
harming
rebr
328
toughen
prepackaged
ruess
384
audited
bottled
smartest
shriv
millan
745
insights
constitutes
philippa
abbey
thinly
zuckerman
scrutinizing
collabor
##financial
felix
schulz
jinping
gavilon
condemned
queensland
overshoot
bickering
phosph
pitfalls
triumph
calstrs
aur
cgt
cede
gan
lec
ngu
pawn
##wald
##cell
##r6
##litz
##1201
##anick
anp
##aschi
saul
forgo
foremost
congo
marred
##umab
arre
ader
butt
orcel
##ghini
coleman
estee
carlo
impala
mover
signings
equinox
pares
grady
grilled
preval
filter
246
288
solo
##ovsky
passos
321
tempus
della
layaway
idusl26
cfm
tackled
autosales
1972
pandemic
antony
jewish
heinrich
fostering
lithuan
alerted
interface
hangover
bribe
reaffirm
tweaks
celebrate
colombian
##presso
wrestling
downloaded
forfeiture
feasibility
razor
sowanick
athletic
eurobonds
kotoky
retracement
fratto
##tschaft
giuseppe
hin
huss
jk
nwa
##iance
##yang
##md
##500
thier
##enb
tourn
##elight
stent
##urig
2025
##imating
##umstad
willumstad
spelled
##antive
commands
slaugh
config
scat
jana
keurig
medici
geico
donziger
231
wales
allowances
404
loaned
liquidators
tyler
mylan
freezes
debra
331
346
376
bonanza
##haven
videog
coping
farmland
santo
##umbos
balls
semiannual
brewery
outraged
rubenstein
exercising
shakeup
lamb
correlated
##atoid
quadr
aquantive
hirosh
bunge
sergey
##electronics
naftalis
pixar
ruffy
beasley
compulsory
rheumatoid
awkward
selyukh
ruesselsheim
5th
925
aite
lapse
mp3
pon
rip
xie
##uities
##l3
##nb
##xl
ito
##term
shao
supri
##occo
sewer
aba
uptrend
lasts
nooyi
undet
polans
endanger
actor
baron
flav
251
knife
takayama
euroscept
extingu
portray
241
mcnam
##azs
keyboard
286
calder
calibr
cajas
tightens
buffeted
offsets
##eroy
copying
integral
montep
encouragement
##innie
ignited
taboo
installation
bgi
fulfilled
grabbed
jerusal
inspire
##ubscribed
mkm
rethinking
uncomfortably
unseason
wirtschaft
puzzle
vibrant
caretaker
legitimacy
indigenous
arrears
dhi
larkin
morse
mhp
##rance
##yth
##mount
##620080
##jb
##athe
reined
sturd
stmicro
offenders
upmarket
inditex
soap
##erta
underlines
underwhel
dressing
majeure
deserved
cashflow
##veloped
refco
261
sato
relevance
authored
##shop
devid
compensating
bhatia
413
cannon
misek
fifths
riggio
ambig
catz
omt
oligar
destructive
fragment
tripathy
lenient
recruiter
rattling
biovail
lieber
grabs
teaches
racking
curtailing
pearce
hanover
mirrored
contenders
untapped
recordings
hatoyama
eggs
lafley
karmazin
enrichment
nasty
emboldened
khalip
sonntagszeitung
disgruntled
phenomenal
breakeven
implosion
polansek
jerusalem
bones
mide
nixon
oscar
vas
wink
##gado
##uly
##bie
##found
##isive
##adis
shied
chak
##gement
monu
abound
##unctions
acs
##eki
##erton
##icking
concord
headh
discounter
matar
224
breather
limelight
372
denise
495
modeled
buffalo
malfunction
couples
##hananov
clegg
sweep
dodgers
outset
provisioning
titled
ignite
taught
installations
aa2
lindsey
picc
ringgit
furnaces
constructed
snowball
stumbles
kuby
embarking
browsing
baton
yukhananov
toppled
endowments
astrid
rdm
dillard
##imonious
sympathetic
tinseth
multifamily
reintrod
devidutta
940
bmps
cbk
ichi
lite
ng
pills
qnx
rink
##dah
##g6
##fd
##zw
##zt
##asund
stadium
##adore
trace
upstart
strides
##qual
##ails
##priced
##awed
coron
sayantani
##flot
termeer
schwe
deterr
guer
248
##elsen
271
284
limbo
locom
cheats
devon
environ
luko
arrives
accusation
hype
suspends
##swear
restriction
assisting
normalization
welch
pena
##aurus
installing
mikhail
diners
nl5
cemented
recouping
avenues
govt
complementary
clampdown
mathieu
livings
gdaxi
confrontation
metallur
miguel
unjustified
saharan
aramco
subcontract
lukoil
aal
cout
fca
kab
lens
ov
##wires
##sm
##nz
##estop
##irming
shear
deena
##anked
gopal
habit
##ocity
##obanca
##outed
cram
deck
##anshu
##veneta
centric
allotment
doves
amar
veronica
phases
309
17th
poster
##ilyn
mco
274
labs
uncle
sitaraman
persons
colors
457
ruin
361
cardillo
cardiov
info
turin
392
396
syl
rulemaking
influences
shanley
idusl17
falters
mixture
withdraws
pooling
titans
antonveneta
fillon
gillam
divestments
reckoning
evolved
unrevised
entrance
accumulate
scarcity
stephens
disorder
photography
mediobanca
killinger
hinds
iosco
humphries
kudrin
nutrient
intimid
hussain
matarise
cardiovascular
aul
cair
dy
dull
gy
kfw
lly
paw
wasted
##rone
##df
##lowski
##park
##720070
##xf
anom
rejo
staging
##akumar
##amont
##ab0
overc
interd
highways
##avin
prescribed
netjets
concede
302
publicized
402
408
periodically
opponent
456
waver
televis
misuse
scandin
kook
burke
conditioning
penins
gamestop
aeronaut
durfee
nobuhiro
roddy
innovate
intensifies
sync
##feldt
concepts
bakery
divert
diverted
##uzu
gruber
benton
coincide
ecuadore
tenths
saddle
styles
adjacent
synthes
theoretical
valentina
nflx
relinquish
analyses
maclellan
fingers
autodata
carnegie
montepaschi
bc
bass
dance
dphi
fifty
gb
pema
rit
tul
vos
##qp
##mx
##eser
ree
isuzu
deem
##olive
neha
seas
ecof
##artz
reson
centex
##ksen
elzio
raids
takeoff
##clusive
newsday
joh
maju
discern
homework
evaders
##onsik
281
292
ballew
suncor
argus
figured
324
devil
374
texaco
syron
responsibly
choonsik
contributors
locking
krish
specifications
conservatively
varin
quantum
utmost
tenzin
casts
heighten
skyteam
palmolive
##ieto
referral
grappled
relaxing
fsf
animation
animals
stalking
illustrated
precipitous
petrochemicals
1950s
revitalize
aeroflot
cusp
barreto
mideast
environments
livingsocial
dphiq
790
bcf
hins
jen
jost
lap
tornado
vil
vitt
wast
##q6
##oor
##ohan
##neck
##km
##inium
inh
##atkin
stl
sapg
ise
##usters
heats
unatt
unpro
##arton
##ours
##orkin
outsold
interiors
meister
beta
1965
tube
specifying
clearest
conduit
creep
seekers
356
552
designate
missions
428
416
432
attracts
progressed
armor
bhpbill
sportswear
msn
destined
tripling
jewkes
calculates
ahmad
citizenship
fatca
convene
unconvinced
citicorp
thwarted
##zeski
##jeet
pachter
koranyi
acrimonious
orphanides
hypothetical
peanut
cbkg
nester
vect
zew
##d7
##fuel
##arc
##atnik
##rec
##leen
##iris
##ivas
abt
##opoly
bogd
brin
brzeski
coated
##gram
oils
remot
flock
304
schoen
guild
positives
##apple
writer
laiki
johnston
##ushy
continually
409
403
involunt
cyril
789
373
digging
widmer
ensn
roundup
etc
normalize
subjects
pharmac
975
bacter
iduswlb
updating
1977
pandl
noticeably
grandson
catalonia
barcap
kazuo
ridge
gilt
relaxation
chilean
wonderful
##runner
kirkland
exploratory
padoan
dobuz
bucks
atomic
admiral
vertical
bureaucrats
spurned
mismatch
mathemat
televisa
ecofin
hinsdale
bhpbilliton
411
9th
boll
benson
hens
hana
hicc
mou
mits
oste
pab
qia
ruc
sark
##ws
##gun
##nstrom
##esco
##ativity
##ioni
recharge
ascent
shul
expropri
seating
arta
##arted
##abas
critt
##bern
soxx
estelle
commence
capit
##avatnik
endure
##ango
profitably
idustre82
blavatnik
newswires
shoulders
phill
avaya
##landt
motions
ruler
278
macbook
mainline
soldatkin
himanshu
herd
##inskis
andreessen
prosper
infected
predatory
countering
##mohan
laggard
aluminium
##ships
slogan
privatized
echoes
bumped
converge
wendlandt
##ytes
ideally
pillars
stewardship
coupe
nashville
tudor
enclave
nonsense
thierry
rinker
##asundaram
hindsight
dobuzinskis
artajo
cue
ptt
sfr
vij
##lor
##220070
##farm
##rove
##igently
prostate
##ulates
##ako
trone
stranger
##ighton
salvo
corriere
backer
elis
maers
equates
##iffe
grud
mathew
##ikers
##ai0
262
297
lotter
winchester
332
555
appoints
variations
scotch
undermines
shirbon
expirations
synergy
fanfare
harrisburg
laneve
overtaking
coincides
kwek
bingley
temptation
certificate
nishikawa
therapeut
chengdu
detrimental
hassan
preclude
enemy
##keepers
coherent
aussie
kookmin
peninsula
baff
cbr
fiction
hue
ioc
jae
kios
mum
mock
nib
nieto
tci
##gment
##nt
##mu
##mb
##bj
thre
##idl
fring
frantic
dey
##usa
conway
chim
neidl
alain
brass
recre
##ilee
##ileaks
stockholder
polar
##express
deferring
scape
steak
stealth
stronghold
##indust
warmer
farge
volcan
shorted
ceased
modifying
berne
##coors
solv
saleh
316
balazs
paterson
601
breakneck
devote
tightness
341
versa
371
447
angelika
axjo
skadden
briefings
pali
litig
underwent
obligated
documented
duess
entertain
resorting
bureaux
charleston
capturing
mercer
herbic
joyjeet
nrk
azn
graduated
muddy
crimping
illustrate
szep
mantra
gollner
roster
detriment
overpaying
kozlowski
wikileaks
mankowski
oncology
gopalakrishnan
kweku
scapego
egreg
kron
killer
lps
mim
wand
##oi
##south
##nay
##kon
##f7
##uter
##rov
##etics
saint
##menthal
beemer
asb
##olov
traced
abort
##uehl
##quest
manmohan
##forth
enduring
emelia
demet
demarco
maver
flam
delighted
policyholders
takesh
courting
everbright
settings
midterm
##azed
creator
breeden
##otty
lima
awad
459
tylen
323
442
designation
423
515
saturated
straits
originations
kranz
unfreeze
dodging
##egger
bundled
mccoll
sweetener
darkened
clinics
divested
rodrigues
grocers
liberalize
rattle
understated
nl1
fanning
##deen
leapf
brunnstrom
tempting
jakob
dirk
genuity
porat
##binding
##basell
hmrc
disproportionate
survivor
palestinian
extradition
marquee
illumina
ubiqu
tzolov
metallurgical
rucinski
crittenden
egregious
tylenol
ahl
dz
dining
nf
rif
rte
##p7
##02
##sta
##stal
staked
wharton
##irito
ispa
perk
shaved
neumann
marilyn
prat
spiking
##osteel
##oku
brenda
receding
##ipa
allure
twink
amf
##ishman
callan
secondly
redmond
wallstreet
cald
oversubscribed
sera
##sheng
cybers
364
336
specialize
icsc
espirito
##attering
scrushy
progressively
personality
violates
845
idusl19
uncharted
siddh
summons
vulnerabilities
stallard
pitching
adamant
bowed
curtis
bandw
hangs
convenient
folded
occupancy
youngest
renegotiated
blumenthal
mishand
brainard
##eclared
simultaneous
fractious
rafale
lombard
bruised
disparate
gyrus
dormant
lyondellbasell
symptoms
stockbrokers
ethiopian
overpaid
wrenching
raskin
yogurt
tibet
wiedeking
lieberman
voser
870
990
bax
bands
gus
hbo
nay
pire
rine
##u4
##uber
##poke
##420070
##aton
stain
##ados
##adala
##ayan
beacon
shelters
frid
deems
##usch
gob
marketable
edin
salgado
##pey
corr
undeclared
sayles
swartz
concili
didier
16th
##spect
279
stakeholder
287
manufactures
microb
##anna
nonbinding
winston
behave
storey
quicken
urs
##utsche
qualifying
##banki
497
434
chooses
foreclose
skip
identification
##oya
terrific
diluting
crucially
olson
watersh
empow
archr
fashions
macklowe
steadfast
exempted
privatize
surrounded
safeguarding
browning
crawford
inputs
gerg
##ibrill
hodo
occasional
sulz
enthusiast
vidalon
foresees
moskow
geographical
jansen
simmering
kendall
scathing
mcnamara
siddharth
aman
fantas
gries
omin
wenz
yand
zah
##y6
##n6
thiel
##onk
rect
reuss
##acey
##osium
percentages
weis
gools
##andy
sealing
ecm
arrog
##onged
clicks
overest
ears
dogs
carm
raiffe
sourced
fla
schach
schrod
decliner
extensively
cashed
clearnet
activism
awash
334
luk
starboard
skidd
##performing
restricts
8411
narrowbody
cracked
selecting
stalls
ramps
brightened
repurchased
transformers
throws
mccoy
tanner
enhancements
patchwork
cypriots
ruskin
tamawa
discriminatory
accelerates
dictated
expedited
symposium
stoppages
misrepresentations
tractors
newcomers
resurfaced
intangible
toilet
abraham
edinburgh
goolsbee
raiffeisen
616
710
eman
fli
fabi
gior
nosed
pants
xto
zhao
##a7
##rp
##i6
##long
##t6
##300
##bay
##zel
##anahan
anand
##entions
reun
pravin
##emn
abh
##abad
dealmakers
dole
canally
mof
accords
scion
exchanging
netbook
253
1398
farther
standout
aviv
##asinghe
294
laboratory
nonperforming
handic
harold
chico
somasundaram
myth
merrilllyn
378
387
compensatory
roberto
distrust
locks
pennies
misstate
decidedly
pasc
dales
euromon
navigating
dhara
discovering
staggs
kirch
unwarr
postpaid
intentional
translating
laundry
stamping
devaluations
jeddah
getty
drillers
fitschen
nutritional
festering
##iovanni
arbitrators
hague
darden
prowess
cessna
##ibusiness
brendan
stodd
supriya
vittorio
remotely
involuntary
shulman
skidded
euromonitor
unwarranted
fib
fetched
jlr
kow
kessler
netted
oks
rl
zip
##iat
##tm
##kim
##haus
##v20110
##jam
##xiang
##asaki
##olulu
##imat
prere
##apult
unequ
abilities
striving
outbid
supanth
scherer
grate
midtown
breed
soul
406
telen
canadians
administrations
##ijin
reformed
debth
profiting
343
473
nominations
syrian
542
connectivity
rosier
composites
luca
645
spls
catapult
normalized
mandelson
galvan
ranasinghe
honolulu
breweries
containers
777s
biofuel
mirroring
clawed
clawback
agribusiness
remarkably
alignment
terrorist
kurane
retroactive
vitner
bellsouth
horseme
algorithmic
inconclusive
encounter
retooling
predominant
mubadala
andersen
gigabyte
uncontrolled
byrne
chikafumi
tianjin
perceive
merrilllynch
prerequis
horsemeat
890
cany
lant
lama
nzz
tao
##p6
##metic
##esst
##stitution
andres
atms
##imbo
##ums
##rowitz
increment
annuities
warfare
1600
broadpoint
healthsouth
cheon
holtz
472
misery
karel
buried
ebb
murder
underwear
idusl23
sheds
fishman
eurasia
duv
summoned
melvin
birsel
cambod
##olitano
vivianne
mcgranahan
jarry
crumbled
napolitano
birthday
philanthropic
beautiful
diagnostic
wiretap
overlooked
roasters
chunks
fahmy
##occup
typhoon
backfired
yandex
supantha
422
a1
dug
gw
gou
hick
hij
jero
jha
kings
lula
nabe
raging
sang
tys
##c7
##lt
##pens
##620070
##hc
##v20130
##xs
##enia
fruits
proton
traces
##ivec
hazy
hash
mondel
##ellus
aranes
##udh
recede
worn
intb
iduswe
peek
##airlines
##rault
smes
trees
steitz
netapp
guern
cashing
avalon
##azar
rightly
283
##placed
handover
##unggren
instituted
figuring
merritt
frauds
362
antwer
441
424
419
prosecuted
jeffs
jetliners
splur
##uffs
contrasting
weights
osi
hallmark
penalize
marcin
rhine
discoveries
honohan
selectively
eagan
mackay
barneys
landsbanki
soleil
##deutsche
spook
stiffer
architects
pieceme
xiao
pirates
explanations
evacuated
kurdish
woolworth
kallas
stiglitz
patterson
encrypted
winters
ljunggren
wissenbach
pernod
assortment
racketeering
unseasonably
takeshi
mondelez
aranesp
antwerp
011
980
bachus
dad
fos
gon
jaw
kok
mes
visco
vimp
##word
##g7
##tec
##kh
##kut
##920090
##anas
##edes
##ouzu
##ethe
##elcom
##things
##igm
##iri
shod
exuber
dek
##imi
##umbs
##umura
##allon
orin
##agara
enn
brune
meal
coh
##ianna
screw
avian
postings
housed
customized
mete
nonpart
605
somber
seasoned
richards
debbie
377
381
524
487
437
436
docomo
achilles
watering
sandp
carrick
idusl15
booms
eliminates
##ibert
dissem
observe
miral
troublesome
shirouzu
odys
baggage
chenault
stagnate
analytical
resurrect
undercapital
undercutting
rmb
engulfing
marsal
eclipsing
wesfarm
vegetable
ketchup
stephanie
mendelsohn
buttress
caldwell
watershed
nonpartisan
wesfarmers
612
cen
cts
erect
mg
pell
pamp
sic
zl
##wi
##arf
##utter
foresh
##urable
isp
alg
heave
spans
leach
abel
##abri
##endering
##tica
sothe
estonia
hispan
emil
raven
blows
merz
valve
mortimer
##meier
guest
nascar
affirms
291
80s
369
349
##aneous
misplaced
sweeney
weathering
protesting
mcderm
gamers
danielle
minorities
marcellus
imprisoned
languishing
magnus
mulc
wildlife
preferences
postponing
cruz
enormously
kyoto
bakries
overshadowing
celebrated
assertions
aberdeen
untested
nagging
expeditious
kidn
drummond
adjour
vidya
mollenkamp
plumberg
lauderdale
antibiot
##productive
nitrogen
manifest
bitcoin
calderon
aulnay
bogdan
gergely
jeroen
piecemeal
vimpelcom
sotheby
5s
a2
fated
gathers
lough
rx
##cers
##oons
##kie
##hoff
retic
##etz
onwards
##lem
##acons
##earth
composed
seibert
ecri
quir
##onguay
salomon
tradem
##epl
amgn
defuse
trevis
deterred
norbert
systematically
spokespeople
negatives
politic
##ewed
riches
353
legality
wester
482
textil
materialized
cannibal
koichi
palatable
idusn023
dreams
omar
paths
davey
castonguay
cornell
empower
arnaud
tailwind
kentaro
luncheon
falcon
episodes
cavale
deflect
appraisals
aggravated
roland
scorec
bloomingdale
vijay
grateful
canyon
tysabri
woolworths
trevisani
715
bdo
feng
gn
ragh
svan
ust
##qg
##rant
##uin
##lani
##hos
##inich
##step
reads
##ac0
chil
chalco
##umba
inverse
invesco
abyss
##abar
indemn
clun
ensh
secures
soil
brush
manoj
endless
1968
phasing
makeover
13555
roaring
##eseen
subh
farallon
jub
customary
complies
metz
macs
representations
##plan
herz
holger
quickened
subside
##unded
ilona
prosperous
386
centerbridge
ebbed
readies
idusn024
idusn014
dependency
superstores
swedbank
kenya
utilize
echos
wyss
unpleas
bespoke
securitizations
supposedly
accumulating
##mona
receipt
stirring
dwindled
yamag
firewalls
contemplate
onsla
girlfriend
authent
arcadia
disproportionately
fizzled
endoscope
refrigerators
unforeseen
prototype
adelphia
waddell
601398
charismatic
quadrangle
sturdy
shoddy
heavey
textiles
svanberg
930
aiko
fame
gers
g10
gym
lmc
nuts
tears
wounded
##rade
##iu
##h7
##orates
##itech
forst
##adhan
shor
congest
hagg
cresc
##ffler
##acke
stracke
boadle
##owners
liqu
bri
consens
businessweek
slb
##ermo
##ensed
glg
undec
bigg
payoff
##etto
1963
scattered
holdout
inflict
grilli
roh
roant
norihiko
courted
differed
mcmillan
359
harding
quickest
myron
damien
339
348
##etha
greenhill
counterproductive
curry
torrid
##iyah
667
touche
casc
cvr
excel
surfing
warranties
maser
##20120926
pinning
##jeev
glasses
outsourced
baht
oakland
wasteful
hellwig
yuasa
alaron
teenagers
decelerating
swallowed
creditworthy
motorcycles
microchips
bracket
nickname
rehabilitation
nominating
proliferation
archrival
undercapitalized
mcdermott
624
729
aes
bks
faw
joke
koo
ner
pender
sial
soda
txt
tuck
uc
xal
##oche
##dal
##iency
##scr
##yo
##kir
##fel
##hop
##enow
##icz
##asis
##illard
frenz
alice
willis
seaway
strat
strikers
outstr
##ighting
##loh
##ervice
mooted
1230
blount
blamont
1400
programmes
501
407
sanjeev
patron
##rique
blackber
blackouts
exclusion
haruhiko
366
debil
renes
whitehaven
infuri
antenna
camps
webos
radian
palace
woe
paine
bancshares
csn
levies
variables
physicians
prominently
ferd
champagne
7261
tweets
siegel
embracing
antiguan
plaguing
bureaucratic
suicides
advertisement
francesco
lankan
dislocation
mentor
yannis
principally
mistrust
firestorm
lithuania
tournament
stoddard
onslaught
undecided
roantree
431
911
bij
cake
cimb
efg
gome
jockey
keng
tch
yaw
##gards
##u2
##t5
##fers
##v20090
##jp
##inch
tout
##ombi
forty
##lde
chir
chien
##eard
prague
newcastle
quatt
##anton
ims
firrea
salazar
endo
idusweb
barber
keqiang
treats
norman
recoverable
authorizing
##shad
colored
devise
462
origins
misinter
laggards
##oulas
bernardino
idusl25
shockwaves
halls
cooler
downwards
rhyth
coordinator
mentioning
pierog
bowman
rouble
queues
hortons
tweaked
notional
elder
folgers
spells
falsified
algerian
orchestrating
feldstein
rekindled
swirled
brasilia
midsize
handbags
cohesion
arteries
centrally
jodie
nguyen
phillip
maersk
fantasy
unpleasant
810
8316
cans
duk
gael
mce
mund
pairs
wob
##cari
##cester
##rate
##d8
##312
##js
##jewski
stacey
itw
atop
##imity
##ulations
tricks
heel
spider
coe
intrig
##ermen
canpot
##msley
creditcards
backlo
barley
genius
##cled
smucker
phh
nearest
grat
obes
knot
##lander
divisive
technician
telmex
##ovic
figaro
##brs
398
535
mattress
##zyk
unfilled
unfunded
##swoche
idusl13
##ao0
footsteps
definite
cfpa
excav
homeownership
intensely
allocating
barbuda
darrell
indictments
altima
##holme
ashok
steril
mislead
urbanization
megaf
shinichi
negligible
hasty
pulse
assigning
redeemed
amplified
livel
unsealed
aquila
disparity
heyday
renovations
gyrations
forego
endeavor
impediment
warplanes
carpenter
chowdh
underfunded
kullman
ubiquitous
sulzberger
griesa
ferdinand
canpotex
412
cous
fending
ferry
gian
lech
odp
porn
rer
rings
rita
tig
vern
wore
##oot
##s00
##ln
##omat
sti
##child
neo
hex
unbel
seaf
orsi
##aglia
coaster
disability
##inten
embe
insulate
newsweek
gmbh
parl
grilling
paolo
##ahu
teck
hitch
laure
289
##heads
##erres
telco
351
motorists
reviewers
irres
combating
451
derive
anto
379
429
545
strait
kramer
##197
thoughtful
rosbank
warrier
sweat
liberals
sueddeutsche
whites
fashioned
lindores
##20080915
gilman
boundaries
backstops
tilted
luther
medioc
ayrault
celgene
##ulsion
burdensome
presumed
irrational
dahinten
rtn
bugge
yacht
oxygen
sideste
koutoulas
##orrh
proximity
nonexecutive
ethnic
gopakumar
quincy
remittances
obesity
livelihood
unbeliev
embezz
gat
io
kiss
ncc
vim
yo
yomi
##wu
##qq
##q20130
##rising
##oit
##gal
##g20130
##uition
##uence
##yards
##kt
##820090
##helman
##atant
ofcom
frx
demer
conover
##centers
##ulife
##aku
marl
##astar
unex
monica
spotty
inviting
arbor
##osts
leaped
##antou
acid
indis
##opol
stry
stresst
##ansson
overview
##ipse
manulife
loved
##blocks
corona
glimmers
##ishan
##acea
##itton
pew
blitzer
scales
##rico
##ahertz
evil
509
modules
motive
donny
fewest
budgeted
worthwhile
454
commercials
picket
463
angeliki
waits
prefect
statutes
feelings
teller
djus
##iyu
corrections
petroplus
comparatively
665
oreo
wilkes
7974
cautionary
undersho
levitt
lpc
cocacola
bayou
georgetown
enhancement
pioneering
gruenberg
loosely
shawn
eclipse
entrepreneurial
akino
redundancy
dreyfus
krosby
magistrates
oberhelman
brackets
paradigm
comedy
najarian
##mutual
stymied
meckler
wirtschaftswoche
chakib
elisabeth
misinterpret
626
cun
focal
kemp
linn
sist
tatt
waged
##920130
##j20130
##xin
thl
##isalat
ite
forens
##lysta
marse
seism
spurs
leib
leeson
fincher
interpre
##issible
prescrib
opera
smarter
benlysta
repro
contrarian
directing
roil
realm
domic
balmer
huiy
sanj
ledwith
harness
panacea
caes
452
subsided
reasoning
707
westph
461
texan
fairholme
slowdowns
malcol
##safe
kimmitt
morph
etisalat
hamstr
##eldorf
footage
sensor
gallery
bulging
hayashi
schaeffler
reluctantly
bridgest
captive
painting
##20080917
bkia
correspondence
tweet
validity
boycott
clinching
unfolded
thirst
dismantling
##pacific
##farb
cultiv
trevor
sandwiches
sidestep
hiatus
koutantou
sarasin
siberia
ecuadorean
debtholders
consensual
renesas
yomiuri
malcolm
421
512
9201
gim
kosp
lime
luster
pins
ritz
weldon
##cu
##pach
##bauer
##inas
ank
saenz
sachi
##adows
shakes
##essa
##earing
trw
##002
##aban
crank
##oping
secular
##epd
equate
sweta
redep
wallet
##ahon
evid
##umpf
failings
baseless
budge
##ermann
mighty
tef
##echt
depositions
premise
562
panelists
