{
  "version": "1.0",
  "truncation": null,
  "padding": null,
  "added_tokens": [
    {
      "id": 0,
      "special": true,
      "content": "[UNK]",
      "single_word": false,
      "lstrip": false,
      "rstrip": false,
      "normalized": false
    },
    {
      "id": 1,
      "special": true,
      "content": "[CLS]",
      "single_word": false,
      "lstrip": false,
      "rstrip": false,
      "normalized": false
    },
    {
      "id": 2,
      "special": true,
      "content": "[SEP]",
      "single_word": false,
      "lstrip": false,
      "rstrip": false,
      "normalized": false
    },
    {
      "id": 3,
      "special": true,
      "content": "[PAD]",
      "single_word": false,
      "lstrip": false,
      "rstrip": false,
      "normalized": false
    },
    {
      "id": 4,
      "special": true,
      "content": "[MASK]",
      "single_word": false,
      "lstrip": false,
      "rstrip": false,
      "normalized": false
    }
  ],
  "normalizer": null,
  "pre_tokenizer": {
    "type": "Whitespace"
  },
  "post_processor": null,
  "decoder": null,
  "model": {
    "type": "BPE",
    "dropout": null,
    "unk_token": null,
    "continuing_subword_prefix": null,
    "end_of_word_suffix": null,
    "fuse_unk": false,
    "vocab": {
      "[UNK]": 0,
      "[CLS]": 1,
      "[SEP]": 2,
      "[PAD]": 3,
      "[MASK]": 4,
      "!": 5,
      "\"": 6,
      "#": 7,
      "$": 8,
      "%": 9,
      "&": 10,
      "'": 11,
      "(": 12,
      ")": 13,
      "*": 14,
      "+": 15,
      ",": 16,
      "-": 17,
      ".": 18,
      "/": 19,
      "0": 20,
      "1": 21,
      "2": 22,
      "3": 23,
      "4": 24,
      "5": 25,
      "6": 26,
      "7": 27,
      "8": 28,
      "9": 29,
      ":": 30,
      ";": 31,
      "<": 32,
      "=": 33,
      ">": 34,
      "?": 35,
      "@": 36,
      "A": 37,
      "B": 38,
      "C": 39,
      "D": 40,
      "E": 41,
      "F": 42,
      "G": 43,
      "H": 44,
      "I": 45,
      "J": 46,
      "K": 47,
      "L": 48,
      "M": 49,
      "N": 50,
      "O": 51,
      "P": 52,
      "Q": 53,
      "R": 54,
      "S": 55,
      "T": 56,
      "U": 57,
      "V": 58,
      "W": 59,
      "X": 60,
      "Y": 61,
      "Z": 62,
      "[": 63,
      "\\": 64,
      "]": 65,
      "^": 66,
      "_": 67,
      "`": 68,
      "a": 69,
      "b": 70,
      "c": 71,
      "d": 72,
      "e": 73,
      "f": 74,
      "g": 75,
      "h": 76,
      "i": 77,
      "j": 78,
      "k": 79,
      "l": 80,
      "m": 81,
      "n": 82,
      "o": 83,
      "p": 84,
      "q": 85,
      "r": 86,
      "s": 87,
      "t": 88,
      "u": 89,
      "v": 90,
      "w": 91,
      "x": 92,
      "y": 93,
      "z": 94,
      "{": 95,
      "|": 96,
      "}": 97,
      "~": 98,
      "": 99,
      "in": 100,
      "th": 101,
      "er": 102,
      "an": 103,
      "on": 104,
      "re": 105,
      "the": 106,
      "en": 107,
      "at": 108,
      "or": 109,
      "st": 110,
      "ar": 111,
      "al": 112,
      "ed": 113,
      "ing": 114,
      "it": 115,
      "to": 116,
      "es": 117,
      "of": 118,
      "ou": 119,
      "is": 120,
      "om": 121,
      "as": 122,
      "and": 123,
      "ent": 124,
      "ic": 125,
      "ion": 126,
      "il": 127,
      "id": 128,
      "ec": 129,
      "ro": 130,
      "ve": 131,
      "he": 132,
      "le": 133,
      "ter": 134,
      "et": 135,
      "sa": 136,
      "ad": 137,
      "ac": 138,
      "lo": 139,
      "for": 140,
      "ill": 141,
      "el": 142,
      "20": 143,
      "per": 144,
      "com": 145,
      "ld": 146,
      "ay": 147,
      "said": 148,
      "su": 149,
      "ch": 150,
      "ver": 151,
      "ut": 152,
      "un": 153,
      "--": 154,
      "se": 155,
      "ig": 156,
      "ly": 157,
      "are": 158,
      "be": 159,
      "that": 160,
      "ex": 161,
      "ment": 162,
      "ur": 163,
      "cent": 164,
      "by": 165,
      "ear": 166,
      "sh": 167,
      "im": 168,
      "ag": 169,
      "wh": 170,
      "ir": 171,
      "The": 172,
      "de": 173,
      "ow": 174,
      "ot": 175,
      "ce": 176,
      "us": 177,
      "ation": 178,
      "con": 179,
      "ers": 180,
      "tr": 181,
      "its": 182,
      "am": 183,
      "ol": 184,
      "ort": 185,
      "pro": 186,
      "percent": 187,
      "ore": 188,
      "ith": 189,
      "ab": 190,
      "pr": 191,
      "ate": 192,
      "ak": 193,
      "illion": 194,
      "ank": 195,
      "with": 196,
      "fr": 197,
      "art": 198,
      "ould": 199,
      "out": 200,
      "res": 201,
      "ap": 202,
      "ect": 203,
      "qu": 204,
      "ters": 205,
      "over": 206,
      "ul": 207,
      "we": 208,
      "comp": 209,
      "ew": 210,
      "ies": 211,
      "port": 212,
      "ain": 213,
      "201": 214,
      "uters": 215,
      "ial": 216,
      "ha": 217,
      "est": 218,
      "from": 219,
      "ht": 220,
      "em": 221,
      "ark": 222,
      "Re": 223,
      "str": 224,
      "year": 225,
      "po": 226,
      "man": 227,
      "oun": 228,
      "li": 229,
      "200": 230,
      "ess": 231,
      ",\"": 232,
      "In": 233,
      "was": 234,
      "ast": 235,
      "ther": 236,
      "all": 237,
      "has": 238,
      "day": 239,
      "end": 240,
      "ive": 241,
      "mark": 242,
      "bank": 243,
      "ww": 244,
      "not": 245,
      "iv": 246,
      "so": 247,
      "pl": 248,
      "have": 249,
      "econ": 250,
      "up": 251,
      "will": 252,
      "dit": 253,
      "one": 254,
      "00": 255,
      "billion": 256,
      "market": 257,
      "du": 258,
      "our": 259,
      "ich": 260,
      "ct": 261,
      "ity": 262,
      "any": 263,
      "ell": 264,
      "ere": 265,
      "Ch": 266,
      "pe": 267,
      "act": 268,
      "exp": 269,
      "uro": 270,
      "ge": 271,
      "Th": 272,
      "low": 273,
      "vest": 274,
      "would": 275,
      "und": 276,
      "ant": 277,
      "af": 278,
      "anc": 279,
      "if": 280,
      "own": 281,
      "wor": 282,
      "ber": 283,
      "off": 284,
      "econom": 285,
      "fin": 286,
      "share": 287,
      "op": 288,
      "which": 289,
      "mo": 290,
      "mer": 291,
      "age": 292,
      "ck": 293,
      "au": 294,
      "ris": 295,
      "more": 296,
      "ong": 297,
      "Reuters": 298,
      "ors": 299,
      "ard": 300,
      "St": 301,
      "invest": 302,
      "sp": 303,
      "ome": 304,
      "oo": 305,
      "ist": 306,
      "ef": 307,
      "um": 308,
      "ack": 309,
      "but": 310,
      "cl": 311,
      "ep": 312,
      "cre": 313,
      "than": 314,
      "mon": 315,
      "ord": 316,
      "this": 317,
      "me": 318,
      "lin": 319,
      "ust": 320,
      "rou": 321,
      "row": 322,
      "ail": 323,
      "expect": 324,
      "ne": 325,
      "old": 326,
      "fir": 327,
      "artic": 328,
      "US": 329,
      "arg": 330,
      "company": 331,
      ".\"": 332,
      "ions": 333,
      "ek": 334,
      "sal": 335,
      "ight": 336,
      "new": 337,
      "bu": 338,
      "mak": 339,
      "ue": 340,
      "about": 341,
      "ts": 342,
      "yst": 343,
      "10": 344,
      "ary": 345,
      "had": 346,
      "ates": 347,
      "ans": 348,
      "ia": 349,
      "RE": 350,
      "co": 351,
      "million": 352,
      "ke": 353,
      "report": 354,
      "after": 355,
      "ss": 356,
      "reuters": 357,
      "were": 358,
      "also": 359,
      "article": 360,
      "www": 361,
      "quar": 362,
      "pric": 363,
      "tp": 364,
      ":/": 365,
      "http": 366,
      "://": 367,
      "idUS": 368,
      "ren": 369,
      "ip": 370,
      "ire": 371,
      "ance": 372,
      "igh": 373,
      "fore": 374,
      "gh": 375,
      "set": 376,
      "down": 377,
      "overn": 378,
      "rec": 379,
      "ancial": 380,
      "month": 381,
      "bl": 382,
      "their": 383,
      "dec": 384,
      "they": 385,
      "ud": 386,
      "quarter": 387,
      "could": 388,
      "ign": 389,
      "trad": 390,
      "ven": 391,
      "ings": 392,
      "coun": 393,
      "It": 394,
      "aw": 395,
      "ile": 396,
      "ations": 397,
      "been": 398,
      "cr": 399,
      "ated": 400,
      "govern": 401,
      "Fr": 402,
      "last": 403,
      "iz": 404,
      "ous": 405,
      "other": 406,
      "grow": 407,
      "ock": 408,
      "ely": 409,
      "do": 410,
      "ound": 411,
      "some": 412,
      "Euro": 413,
      "who": 414,
      "government": 415,
      "ok": 416,
      "tim": 417,
      "ind": 418,
      "week": 419,
      "high": 420,
      "alyst": 421,
      "ure": 422,
      "inter": 423,
      "vi": 424,
      "pres": 425,
      "bus": 426,
      "euro": 427,
      "pre": 428,
      "sales": 429,
      "Europe": 430,
      "dis": 431,
      "ED": 432,
      "fund": 433,
      "able": 434,
      "ann": 435,
      "av": 436,
      "An": 437,
      "ond": 438,
      "ob": 439,
      "deal": 440,
      "iness": 441,
      "financial": 442,
      "ally": 443,
      "ase": 444,
      "int": 445,
      "2008": 446,
      "11": 447,
      "ake": 448,
      "cont": 449,
      "roup": 450,
      "gr": 451,
      "ide": 452,
      "Chin": 453,
      "fl": 454,
      "ree": 455,
      "reg": 456,
      "economy": 457,
      "part": 458,
      "pol": 459,
      "no": 460,
      "clo": 461,
      "business": 462,
      "deb": 463,
      "stock": 464,
      "esday": 465,
      "chan": 466,
      "ret": 467,
      "eral": 468,
      "br": 469,
      "bal": 470,
      "shares": 471,
      "sit": 472,
      "ach": 473,
      "ST": 474,
      "banks": 475,
      "EDT": 476,
      "tw": 477,
      "bo": 478,
      "New": 479,
      "ble": 480,
      "Fed": 481,
      "ON": 482,
      "ra": 483,
      "We": 484,
      "12": 485,
      "acc": 486,
      "analyst": 487,
      "Un": 488,
      "sur": 489,
      "cy": 490,
      "orp": 491,
      "ence": 492,
      "By": 493,
      "work": 494,
      "pu": 495,
      "ext": 496,
      "expected": 497,
      "hold": 498,
      "ecut": 499,
      "growth": 500,
      "cut": 501,
      "ital": 502,
      "2009": 503,
      "min": 504,
      "ms": 505,
      "Mon": 506,
      "ief": 507,
      "pay": 508,
      "ities": 509,
      "duct": 510,
      "ince": 511,
      "ments": 512,
      "debt": 513,
      "say": 514,
      "ting": 515,
      "ug": 516,
      "Edit": 517,
      "ased": 518,
      "ice": 519,
      "ating": 520,
      "ace": 521,
      "emp": 522,
      "Editing": 523,
      "30": 524,
      "IN": 525,
      "prof": 526,
      "now": 527,
      "Bank": 528,
      "pm": 529,
      "oll": 530,
      "go": 531,
      "back": 532,
      "pp": 533,
      "ash": 534,
      "sed": 535,
      "air": 536,
      "into": 537,
      "ish": 538,
      "markets": 539,
      "cer": 540,
      "incl": 541,
      "big": 542,
      "dr": 543,
      "buy": 544,
      "porting": 545,
      "cur": 546,
      "ser": 547,
      "Inc": 548,
      "hel": 549,
      "fer": 550,
      "first": 551,
      "ited": 552,
      "under": 553,
      "ood": 554,
      "his": 555,
      "Ex": 556,
      "get": 557,
      "bec": 558,
      "io": 559,
      "apital": 560,
      "prov": 561,
      "two": 562,
      "China": 563,
      "2012": 564,
      "Reporting": 565,
      "ick": 566,
      "ident": 567,
      "ian": 568,
      "Wed": 569,
      "since": 570,
      "But": 571,
      "ork": 572,
      "sl": 573,
      "ional": 574,
      "ember": 575,
      "ax": 576,
      "2007": 577,
      "years": 578,
      "main": 579,
      "investors": 580,
      "ie": 581,
      "ens": 582,
      "dustr": 583,
      "time": 584,
      "prices": 585,
      "Co": 586,
      "lobal": 587,
      "line": 588,
      "ending": 589,
      "19": 590,
      "bet": 591,
      "cost": 592,
      "economic": 593,
      "can": 594,
      "look": 595,
      "ade": 596,
      "te": 597,
      "incre": 598,
      "gan": 599,
      "rel": 600,
      "OR": 601,
      "son": 602,
      "anies": 603,
      "state": 604,
      "Com": 605,
      "urn": 606,
      "med": 607,
      "very": 608,
      "add": 609,
      "AN": 610,
      "000": 611,
      "2011": 612,
      "Mar": 613,
      "ational": 614,
      "ine": 615,
      "No": 616,
      "companies": 617,
      "50": 618,
      "may": 619,
      "gy": 620,
      "Amer": 621,
      "curren": 622,
      "head": 623,
      "while": 624,
      "York": 625,
      "ility": 626,
      "Corp": 627,
      "industr": 628,
      "2010": 629,
      "when": 630,
      "consu": 631,
      "credit": 632,
      "Americ": 633,
      "idUST": 634,
      "product": 635,
      "most": 636,
      "cris": 637,
      "there": 638,
      "iday": 639,
      "uring": 640,
      "includ": 641,
      "idUSTRE": 642,
      "change": 643,
      "larg": 644,
      "publ": 645,
      "EC": 646,
      "iss": 647,
      "tal": 648,
      "loy": 649,
      "need": 650,
      "^^": 651,
      "countr": 652,
      "world": 653,
      "loss": 654,
      "ink": 655,
      "rose": 656,
      "crisis": 657,
      "earn": 658,
      "ty": 659,
      "cast": 660,
      "cal": 661,
      "European": 662,
      "sign": 663,
      "told": 664,
      "sure": 665,
      "help": 666,
      "long": 667,
      "rit": 668,
      "ording": 669,
      "read": 670,
      "show": 671,
      "put": 672,
      "ress": 673,
      "gest": 674,
      "oil": 675,
      "ory": 676,
      "vis": 677,
      "many": 678,
      "oper": 679,
      "ata": 680,
      "Gre": 681,
      "fell": 682,
      "again": 683,
      "fic": 684,
      "tax": 685,
      "ner": 686,
      "15": 687,
      "form": 688,
      "regul": 689,
      "ry": 690,
      "rate": 691,
      "uch": 692,
      "As": 693,
      "led": 694,
      "law": 695,
      "profit": 696,
      "risk": 697,
      "global": 698,
      "ecutive": 699,
      "ted": 700,
      "offic": 701,
      "plan": 702,
      "ause": 703,
      "sell": 704,
      "take": 705,
      "ced": 706,
      "posit": 707,
      "vent": 708,
      "just": 709,
      "rough": 710,
      "asset": 711,
      "according": 712,
      "ough": 713,
      "reas": 714,
      "still": 715,
      "bond": 716,
      "fact": 717,
      "next": 718,
      "mit": 719,
      "view": 720,
      "sen": 721,
      "ma": 722,
      "app": 723,
      "lead": 724,
      "att": 725,
      "resu": 726,
      "NE": 727,
      "investment": 728,
      "ful": 729,
      "polic": 730,
      "ged": 731,
      "sub": 732,
      "lier": 733,
      "ative": 734,
      "employ": 735,
      "come": 736,
      "2013": 737,
      "such": 738,
      "early": 739,
      "job": 740,
      "forecast": 741,
      "econd": 742,
      "Wh": 743,
      "val": 744,
      "interest": 745,
      "public": 746,
      "ures": 747,
      "call": 748,
      "Friday": 749,
      "mand": 750,
      "Al": 751,
      "contin": 752,
      "price": 753,
      "EST": 754,
      "second": 755,
      "offer": 756,
      "vel": 757,
      "meet": 758,
      "ical": 759,
      "stru": 760,
      "25": 761,
      "sid": 762,
      "ech": 763,
      "Ad": 764,
      "equ": 765,
      "urs": 766,
      "way": 767,
      "uary": 768,
      "ral": 769,
      "),": 770,
      "fe": 771,
      "United": 772,
      "13": 773,
      "boo": 774,
      "data": 775,
      "see": 776,
      "lik": 777,
      "ib": 778,
      "serv": 779,
      "sour": 780,
      "ater": 781,
      "Jan": 782,
      "how": 783,
      "He": 784,
      "national": 785,
      "Tu": 786,
      "trading": 787,
      "14": 788,
      "ollar": 789,
      "car": 790,
      "what": 791,
      "well": 792,
      "del": 793,
      "ual": 794,
      "resul": 795,
      "Thurs": 796,
      "ives": 797,
      "Thursday": 798,
      "net": 799,
      "rais": 800,
      "capital": 801,
      "fall": 802,
      "months": 803,
      "Bo": 804,
      "cus": 805,
      "ecur": 806,
      "gen": 807,
      "organ": 808,
      "ger": 809,
      "analysts": 810,
      "less": 811,
      "because": 812,
      "Tuesday": 813,
      "firm": 814,
      "ult": 815,
      "tain": 816,
      "apan": 817,
      "largest": 818,
      "ph": 819,
      "nesday": 820,
      "Wednesday": 821,
      "ite": 822,
      "gain": 823,
      "GM": 824,
      "Monday": 825,
      "four": 826,
      "before": 827,
      "much": 828,
      "alth": 829,
      "demand": 830,
      "..": 831,
      "oney": 832,
      "17": 833,
      "three": 834,
      "dollar": 835,
      "earnings": 836,
      "Sh": 837,
      "vol": 838,
      "issu": 839,
      "16": 840,
      "Sep": 841,
      "ople": 842,
      "likely": 843,
      "ese": 844,
      "strong": 845,
      "including": 846,
      "zone": 847,
      "ury": 848,
      "ose": 849,
      "bro": 850,
      "ass": 851,
      "industry": 852,
      "chief": 853,
      "Jun": 854,
      "based": 855,
      "aver": 856,
      "Ger": 857,
      "18": 858,
      "policy": 859,
      "Japan": 860,
      "Ber": 861,
      "ces": 862,
      "should": 863,
      "ied": 864,
      "ditional": 865,
      "NEW": 866,
      "struct": 867,
      "against": 868,
      "remain": 869,
      "think": 870,
      "contr": 871,
      "cess": 872,
      "infl": 873,
      "rates": 874,
      "auto": 875,
      "ject": 876,
      "ortg": 877,
      "weak": 878,
      "through": 879,
      "top": 880,
      "aim": 881,
      "imp": 882,
      "earlier": 883,
      "cle": 884,
      "point": 885,
      "rol": 886,
      "fol": 887,
      "ah": 888,
      "tle": 889,
      "istr": 890,
      "ared": 891,
      "start": 892,
      "ING": 893,
      "going": 894,
      "like": 895,
      "sect": 896,
      "ird": 897,
      "ton": 898,
      "cour": 899,
      "money": 900,
      "irect": 901,
      "make": 902,
      "level": 903,
      "ER": 904,
      "reven": 905,
      "recent": 906,
      "ices": 907,
      "maker": 908,
      "ORK": 909,
      "group": 910,
      "cents": 911,
      "pa": 912,
      "sup": 913,
      "dro": 914,
      "even": 915,
      "official": 916,
      "sc": 917,
      "ks": 918,
      "ix": 919,
      "YORK": 920,
      "jor": 921,
      "higher": 922,
      "iting": 923,
      "only": 924,
      "lower": 925,
      "did": 926,
      "mortg": 927,
      "ior": 928,
      "Fin": 929,
      "May": 930,
      "reet": 931,
      "States": 932,
      "Dec": 933,
      "ging": 934,
      "upt": 935,
      "people": 936,
      "CE": 937,
      "around": 938,
      "where": 939,
      "third": 940,
      "agement": 941,
      "funds": 942,
      "late": 943,
      "ific": 944,
      "ward": 945,
      "assets": 946,
      "ame": 947,
      "idUSB": 948,
      "major": 949,
      "AR": 950,
      "made": 951,
      "cern": 952,
      "costs": 953,
      "sm": 954,
      "average": 955,
      "idUSBRE": 956,
      "direct": 957,
      "Wall": 958,
      "ude": 959,
      "term": 960,
      "red": 961,
      "biggest": 962,
      "them": 963,
      "Le": 964,
      "reported": 965,
      "regulat": 966,
      "Apr": 967,
      "recover": 968,
      "ever": 969,
      "ystem": 970,
      "concern": 971,
      "declin": 972,
      "priv": 973,
      "ready": 974,
      "ecurities": 975,
      "tak": 976,
      "Res": 977,
      "Jo": 978,
      "miss": 979,
      "AT": 980,
      "Ind": 981,
      "you": 982,
      "des": 983,
      "Morgan": 984,
      "Group": 985,
      "requ": 986,
      "hal": 987,
      "iel": 988,
      "current": 989,
      "ential": 990,
      "estim": 991,
      "ste": 992,
      "Street": 993,
      "der": 994,
      "24": 995,
      "sector": 996,
      "index": 997,
      "fur": 998,
      "num": 999,
      "inflation": 1000,
      "fect": 1001,
      "plans": 1002,
      "ght": 1003,
      "Fe": 1004,
      "sof": 1005,
      "ran": 1006,
      "That": 1007,
      "good": 1008,
      "announ": 1009,
      "ict": 1010,
      "ible": 1011,
      "ended": 1012,
      "22": 1013,
      "manag": 1014,
      "kes": 1015,
      "Sp": 1016,
      "reporting": 1017,
      "sing": 1018,
      "spending": 1019,
      "ween": 1020,
      "makers": 1021,
      "revenue": 1022,
      "ouse": 1023,
      "AS": 1024,
      "pur": 1025,
      "hn": 1026,
      "Inter": 1027,
      "Ro": 1028,
      "euros": 1029,
      "want": 1030,
      "retail": 1031,
      "ago": 1032,
      "rupt": 1033,
      "ship": 1034,
      "ession": 1035,
      "ning": 1036,
      "Mic": 1037,
      "stocks": 1038,
      "iver": 1039,
      "gram": 1040,
      "Treas": 1041,
      "between": 1042,
      "March": 1043,
      "ben": 1044,
      "AL": 1045,
      "ents": 1046,
      "thing": 1047,
      "ition": 1048,
      "IC": 1049,
      "far": 1050,
      "26": 1051,
      "bid": 1052,
      "ision": 1053,
      "spo": 1054,
      "resp": 1055,
      "09": 1056,
      "Bar": 1057,
      "central": 1058,
      "23": 1059,
      "store": 1060,
      "27": 1061,
      "ability": 1062,
      "ece": 1063,
      "home": 1064,
      "leg": 1065,
      "jo": 1066,
      "system": 1067,
      "fil": 1068,
      "results": 1069,
      "run": 1070,
      "cash": 1071,
      "This": 1072,
      "turn": 1073,
      "due": 1074,
      "close": 1075,
      "ama": 1076,
      "gu": 1077,
      "support": 1078,
      "losses": 1079,
      "ped": 1080,
      "spec": 1081,
      "SE": 1082,
      "def": 1083,
      "used": 1084,
      "ival": 1085,
      "IT": 1086,
      "slow": 1087,
      "record": 1088,
      "28": 1089,
      "rise": 1090,
      "short": 1091,
      "clear": 1092,
      "arge": 1093,
      "hit": 1094,
      "ild": 1095,
      "ones": 1096,
      "Aug": 1097,
      "ving": 1098,
      "07": 1099,
      "move": 1100,
      "further": 1101,
      "fo": 1102,
      "fut": 1103,
      "arget": 1104,
      "comment": 1105,
      "trade": 1106,
      "those": 1107,
      "private": 1108,
      "velo": 1109,
      "program": 1110,
      "sider": 1111,
      "added": 1112,
      "sharehold": 1113,
      "consumer": 1114,
      "agree": 1115,
      "les": 1116,
      "statement": 1117,
      "Ju": 1118,
      "vious": 1119,
      "IM": 1120,
      "compet": 1121,
      "country": 1122,
      "04": 1123,
      "Air": 1124,
      "500": 1125,
      "poss": 1126,
      "board": 1127,
      "BS": 1128,
      "06": 1129,
      "Federal": 1130,
      "dif": 1131,
      "stand": 1132,
      "meeting": 1133,
      "sol": 1134,
      "Sept": 1135,
      "mat": 1136,
      "June": 1137,
      "ime": 1138,
      "ized": 1139,
      "jobs": 1140,
      "land": 1141,
      "ley": 1142,
      "accoun": 1143,
      "post": 1144,
      "executive": 1145,
      "Con": 1146,
      "already": 1147,
      "29": 1148,
      "ustom": 1149,
      "America": 1150,
      "EU": 1151,
      "03": 1152,
      "countries": 1153,
      "war": 1154,
      "mortgage": 1155,
      "increase": 1156,
      "De": 1157,
      "ases": 1158,
      "ves": 1159,
      "gre": 1160,
      "da": 1161,
      "whe": 1162,
      "05": 1163,
      "bail": 1164,
      "08": 1165,
      "ield": 1166,
      "strate": 1167,
      "propo": 1168,
      "ling": 1169,
      "hous": 1170,
      "^^^^": 1171,
      "To": 1172,
      "September": 1173,
      "pt": 1174,
      "Treasury": 1175,
      "then": 1176,
      "21": 1177,
      "case": 1178,
      "Gold": 1179,
      "Tr": 1180,
      "ics": 1181,
      "And": 1182,
      "equity": 1183,
      "asing": 1184,
      "pot": 1185,
      "proble": 1186,
      "Pr": 1187,
      "ges": 1188,
      "custom": 1189,
      "contract": 1190,
      "erve": 1191,
      "ins": 1192,
      "ily": 1193,
      "ask": 1194,
      "half": 1195,
      "being": 1196,
      "ints": 1197,
      "par": 1198,
      "mission": 1199,
      "iven": 1200,
      "ise": 1201,
      "EN": 1202,
      "spokes": 1203,
      "target": 1204,
      "Mer": 1205,
      "ize": 1206,
      "Greece": 1207,
      "Chief": 1208,
      "fac": 1209,
      "meas": 1210,
      "bel": 1211,
      "former": 1212,
      "resident": 1213,
      "loans": 1214,
      "la": 1215,
      "lit": 1216,
      "iscal": 1217,
      "keep": 1218,
      "develo": 1219,
      "follow": 1220,
      "ross": 1221,
      "Additional": 1222,
      "Gen": 1223,
      "rul": 1224,
      "tech": 1225,
      "arch": 1226,
      "ang": 1227,
      "ved": 1228,
      "value": 1229,
      "Sto": 1230,
      "banking": 1231,
      "Brit": 1232,
      "bor": 1233,
      "ier": 1234,
      "ately": 1235,
      "January": 1236,
      "July": 1237,
      "reach": 1238,
      "points": 1239,
      "whether": 1240,
      "during": 1241,
      "fiscal": 1242,
      "firms": 1243,
      "neg": 1244,
      "December": 1245,
      "ages": 1246,
      "Sun": 1247,
      "recovery": 1248,
      "There": 1249,
      "For": 1250,
      "Man": 1251,
      "she": 1252,
      "fail": 1253,
      "seen": 1254,
      "Oc": 1255,
      "ference": 1256,
      "same": 1257,
      "emer": 1258,
      "both": 1259,
      "prom": 1260,
      "ister": 1261,
      "certain": 1262,
      "let": 1263,
      "App": 1264,
      "unt": 1265,
      "small": 1266,
      "On": 1267,
      "Ob": 1268,
      "conf": 1269,
      "fam": 1270,
      "potential": 1271,
      "Financial": 1272,
      "April": 1273,
      "bar": 1274,
      "John": 1275,
      "CEO": 1276,
      "($": 1277,
      "aly": 1278,
      "number": 1279,
      "present": 1280,
      "od": 1281,
      "fed": 1282,
      "economist": 1283,
      "tober": 1284,
      "October": 1285,
      "Exchange": 1286,
      "unit": 1287,
      "boost": 1288,
      "ious": 1289,
      "housing": 1290,
      "open": 1291,
      "Cit": 1292,
      "another": 1293,
      "declined": 1294,
      "rival": 1295,
      "cuts": 1296,
      "cial": 1297,
      "idence": 1298,
      "recession": 1299,
      "ik": 1300,
      "Thu": 1301,
      "showed": 1302,
      "mber": 1303,
      "40": 1304,
      "They": 1305,
      "consider": 1306,
      "step": 1307,
      "Nove": 1308,
      "ought": 1309,
      "November": 1310,
      "ower": 1311,
      "does": 1312,
      "Au": 1313,
      "purch": 1314,
      "previous": 1315,
      "employment": 1316,
      "ev": 1317,
      "dom": 1318,
      "acqu": 1319,
      "news": 1320,
      "Ph": 1321,
      "better": 1322,
      "side": 1323,
      "lim": 1324,
      "AI": 1325,
      "Dep": 1326,
      "If": 1327,
      "bers": 1328,
      "past": 1329,
      "Obama": 1330,
      "ci": 1331,
      "Mot": 1332,
      "right": 1333,
      "agen": 1334,
      "search": 1335,
      "Nor": 1336,
      "bailout": 1337,
      "American": 1338,
      "Invest": 1339,
      "unch": 1340,
      "Apple": 1341,
      "bonds": 1342,
      "continu": 1343,
      "insur": 1344,
      "return": 1345,
      "gas": 1346,
      "At": 1347,
      "import": 1348,
      "gle": 1349,
      "Car": 1350,
      "Dav": 1351,
      "02": 1352,
      "says": 1353,
      "reed": 1354,
      "real": 1355,
      "stake": 1356,
      "these": 1357,
      "expectations": 1358,
      "ave": 1359,
      "stit": 1360,
      "allow": 1361,
      "Mc": 1362,
      "Tue": 1363,
      "talks": 1364,
      "ants": 1365,
      "IS": 1366,
      "mers": 1367,
      "Br": 1368,
      "President": 1369,
      "ster": 1370,
      "key": 1371,
      "sever": 1372,
      "commit": 1373,
      "prove": 1374,
      "court": 1375,
      "ee": 1376,
      "don": 1377,
      "bankrupt": 1378,
      "continue": 1379,
      "management": 1380,
      "Mark": 1381,
      "ney": 1382,
      "focus": 1383,
      "try": 1384,
      "supp": 1385,
      "production": 1386,
      "soft": 1387,
      "outlook": 1388,
      "JP": 1389,
      "cli": 1390,
      "fourth": 1391,
      "source": 1392,
      "etary": 1393,
      "too": 1394,
      "OM": 1395,
      "uel": 1396,
      "01": 1397,
      "annual": 1398,
      "build": 1399,
      "Reserve": 1400,
      "abor": 1401,
      "lend": 1402,
      "Fri": 1403,
      "Capital": 1404,
      "Goldman": 1405,
      "yen": 1406,
      "stitut": 1407,
      "opt": 1408,
      "ons": 1409,
      "finance": 1410,
      "claim": 1411,
      "31": 1412,
      "bud": 1413,
      "ca": 1414,
      "belie": 1415,
      "control": 1416,
      "nearly": 1417,
      "daq": 1418,
      "asdaq": 1419,
      "president": 1420,
      "action": 1421,
      "ff": 1422,
      "push": 1423,
      "hic": 1424,
      "mid": 1425,
      "use": 1426,
      "lack": 1427,
      "div": 1428,
      "ufact": 1429,
      "redu": 1430,
      "hand": 1431,
      "agreed": 1432,
      "Nasdaq": 1433,
      "dep": 1434,
      "Min": 1435,
      "budget": 1436,
      "Sw": 1437,
      "sources": 1438,
      "found": 1439,
      "edge": 1440,
      "eing": 1441,
      "100": 1442,
      "Executive": 1443,
      "officials": 1444,
      "nolo": 1445,
      "ho": 1446,
      "play": 1447,
      "ular": 1448,
      "nam": 1449,
      "saying": 1450,
      "Stock": 1451,
      "Ar": 1452,
      "quest": 1453,
      "vot": 1454,
      "pressure": 1455,
      "ium": 1456,
      "ping": 1457,
      "AC": 1458,
      "thor": 1459,
      "coll": 1460,
      "polit": 1461,
      "So": 1462,
      "five": 1463,
      "closed": 1464,
      "power": 1465,
      "below": 1466,
      "place": 1467,
      "che": 1468,
      "sk": 1469,
      "Chinese": 1470,
      "test": 1471,
      "rece": 1472,
      "ectr": 1473,
      "making": 1474,
      "called": 1475,
      "drop": 1476,
      "bruary": 1477,
      "February": 1478,
      "ub": 1479,
      "seek": 1480,
      "August": 1481,
      "aud": 1482,
      "Can": 1483,
      "products": 1484,
      "gress": 1485,
      "large": 1486,
      "Bern": 1487,
      "sler": 1488,
      "sum": 1489,
      "bas": 1490,
      "least": 1491,
      "ired": 1492,
      "benef": 1493,
      "might": 1494,
      "corp": 1495,
      "...": 1496,
      "order": 1497,
      "uss": 1498,
      "ection": 1499,
      "reat": 1500,
      "2006": 1501,
      "decision": 1502,
      "total": 1503,
      "position": 1504,
      "bankruptcy": 1505,
      "editing": 1506,
      "DE": 1507,
      "sent": 1508,
      "International": 1509,
      "though": 1510,
      "cap": 1511,
      "among": 1512,
      "eng": 1513,
      "German": 1514,
      "few": 1515,
      "ares": 1516,
      "rele": 1517,
      "activ": 1518,
      "sale": 1519,
      "currency": 1520,
      "pped": 1521,
      "partic": 1522,
      "shareholders": 1523,
      "sw": 1524,
      "Sch": 1525,
      "80": 1526,
      "manufact": 1527,
      "stim": 1528,
      "60": 1529,
      "ction": 1530,
      "ington": 1531,
      "ike": 1532,
      "little": 1533,
      "David": 1534,
      "ministr": 1535,
      "announced": 1536,
      "sug": 1537,
      "effect": 1538,
      "corpor": 1539,
      "investig": 1540,
      "financ": 1541,
      "rysler": 1542,
      "Commission": 1543,
      "Wal": 1544,
      "ahead": 1545,
      "als": 1546,
      "valu": 1547,
      "vehic": 1548,
      "until": 1549,
      "discus": 1550,
      "Tim": 1551,
      "broad": 1552,
      "customers": 1553,
      "aul": 1554,
      "35": 1555,
      "full": 1556,
      "services": 1557,
      "Pe": 1558,
      "future": 1559,
      "ener": 1560,
      "Germany": 1561,
      "expects": 1562,
      "impact": 1563,
      "ees": 1564,
      "approv": 1565,
      "possible": 1566,
      "ove": 1567,
      "gener": 1568,
      "Dow": 1569,
      "Bu": 1570,
      "rat": 1571,
      "tee": 1572,
      "conference": 1573,
      "CH": 1574,
      "condit": 1575,
      "idUSBRE8": 1576,
      "income": 1577,
      "ECB": 1578,
      "seas": 1579,
      "LL": 1580,
      "execut": 1581,
      "ES": 1582,
      "securities": 1583,
      "decline": 1584,
      "lot": 1585,
      "Po": 1586,
      "suggest": 1587,
      "adv": 1588,
      "iod": 1589,
      "senior": 1590,
      "mun": 1591,
      "Boeing": 1592,
      "Analyst": 1593,
      "her": 1594,
      "nal": 1595,
      "artment": 1596,
      "Chrysler": 1597,
      "period": 1598,
      "usa": 1599,
      "borrow": 1600,
      "igroup": 1601,
      "dou": 1602,
      "chair": 1603,
      "rest": 1604,
      "ker": 1605,
      "shar": 1606,
      "BO": 1607,
      "foreign": 1608,
      "oogle": 1609,
      "Stan": 1610,
      "compared": 1611,
      "concerns": 1612,
      "project": 1613,
      "etail": 1614,
      "TON": 1615,
      "spokesman": 1616,
      "buying": 1617,
      "ays": 1618,
      "effor": 1619,
      "energy": 1620,
      "operations": 1621,
      "aft": 1622,
      "TO": 1623,
      "every": 1624,
      "idUSTRE7": 1625,
      "process": 1626,
      "near": 1627,
      "ai": 1628,
      "list": 1629,
      "above": 1630,
      "later": 1631,
      "Analysts": 1632,
      "Mart": 1633,
      "Ford": 1634,
      "thers": 1635,
      "agreement": 1636,
      "weeks": 1637,
      "bre": 1638,
      "coming": 1639,
      "AG": 1640,
      "AD": 1641,
      "west": 1642,
      "House": 1643,
      "RO": 1644,
      "selling": 1645,
      "hard": 1646,
      "Wash": 1647,
      "Department": 1648,
      "raise": 1649,
      "charg": 1650,
      "health": 1651,
      "lines": 1652,
      "General": 1653,
      "Washington": 1654,
      "Sou": 1655,
      "sold": 1656,
      "issue": 1657,
      "federal": 1658,
      "days": 1659,
      "workers": 1660,
      "measures": 1661,
      "ization": 1662,
      "ably": 1663,
      "Micro": 1664,
      "SEC": 1665,
      "Thom": 1666,
      "signific": 1667,
      "mem": 1668,
      "regulators": 1669,
      "Ge": 1670,
      "ondon": 1671,
      "nology": 1672,
      "quarterly": 1673,
      "Google": 1674,
      "atch": 1675,
      "yn": 1676,
      "Citigroup": 1677,
      "London": 1678,
      "atives": 1679,
      "ft": 1680,
      "looking": 1681,
      "wide": 1682,
      "quid": 1683,
      "immed": 1684,
      "significant": 1685,
      "ASH": 1686,
      "idUSN": 1687,
      "settle": 1688,
      "spect": 1689,
      "provid": 1690,
      "ically": 1691,
      "trillion": 1692,
      "idUSBRE9": 1693,
      "Mo": 1694,
      "sche": 1695,
      "ina": 1696,
      "suc": 1697,
      "force": 1698,
      "Or": 1699,
      "ili": 1700,
      "book": 1701,
      "init": 1702,
      "UBS": 1703,
      "launch": 1704,
      "marg": 1705,
      "six": 1706,
      "ially": 1707,
      "rising": 1708,
      "fuel": 1709,
      "amp": 1710,
      "exchange": 1711,
      "AM": 1712,
      "INGTON": 1713,
      "several": 1714,
      "produ": 1715,
      "consumers": 1716,
      "ten": 1717,
      "pack": 1718,
      ").": 1719,
      "ler": 1720,
      "businesses": 1721,
      "pite": 1722,
      "author": 1723,
      "El": 1724,
      "North": 1725,
      "aper": 1726,
      "advis": 1727,
      "While": 1728,
      "Canad": 1729,
      "IMF": 1730,
      "ening": 1731,
      "trans": 1732,
      "held": 1733,
      "spe": 1734,
      "45": 1735,
      "cu": 1736,
      "aren": 1737,
      "defic": 1738,
      "brand": 1739,
      "improve": 1740,
      "operating": 1741,
      "gains": 1742,
      "iving": 1743,
      "ibut": 1744,
      "person": 1745,
      "lost": 1746,
      "problems": 1747,
      "WASH": 1748,
      "WASHINGTON": 1749,
      "Securities": 1750,
      "BC": 1751,
      "Mac": 1752,
      "taking": 1753,
      "How": 1754,
      "formation": 1755,
      "vey": 1756,
      "75": 1757,
      "PO": 1758,
      "orm": 1759,
      "confidence": 1760,
      "core": 1761,
      "Microsoft": 1762,
      "gin": 1763,
      "growing": 1764,
      "claims": 1765,
      "cing": 1766,
      "JPMorgan": 1767,
      "Shares": 1768,
      "executives": 1769,
      "ump": 1770,
      "yield": 1771,
      "Sen": 1772,
      "must": 1773,
      "modit": 1774,
      "ets": 1775,
      "bill": 1776,
      "give": 1777,
      "writ": 1778,
      "worth": 1779,
      "corporate": 1780,
      "elf": 1781,
      "ota": 1782,
      "orders": 1783,
      "Dem": 1784,
      "helped": 1785,
      "ator": 1786,
      "chairman": 1787,
      "liquid": 1788,
      "Be": 1789,
      "exper": 1790,
      "CO": 1791,
      "barrel": 1792,
      "ened": 1793,
      "loan": 1794,
      "sharp": 1795,
      "aid": 1796,
      "ears": 1797,
      "aster": 1798,
      "crit": 1799,
      "tra": 1800,
      "ways": 1801,
      "kn": 1802,
      "cover": 1803,
      "indic": 1804,
      "ony": 1805,
      "took": 1806,
      "export": 1807,
      "estic": 1808,
      "without": 1809,
      "cies": 1810,
      "hedge": 1811,
      "immedi": 1812,
      "restruct": 1813,
      "rules": 1814,
      "bit": 1815,
      "raised": 1816,
      "know": 1817,
      "blo": 1818,
      "ru": 1819,
      "light": 1820,
      "met": 1821,
      "latest": 1822,
      "ness": 1823,
      "Pro": 1824,
      "ugg": 1825,
      "crude": 1826,
      "ising": 1827,
      "non": 1828,
      "strateg": 1829,
      "changes": 1830,
      "face": 1831,
      "proposal": 1832,
      "phone": 1833,
      "investor": 1834,
      "given": 1835,
      "Cent": 1836,
      "invol": 1837,
      "depend": 1838,
      "suit": 1839,
      "range": 1840,
      "oti": 1841,
      "research": 1842,
      "Spain": 1843,
      "ford": 1844,
      "yet": 1845,
      "develop": 1846,
      "Sat": 1847,
      "20120": 1848,
      "stead": 1849,
      "ners": 1850,
      "prot": 1851,
      "70": 1852,
      "unemployment": 1853,
      "tran": 1854,
      "sec": 1855,
      "Greek": 1856,
      "ism": 1857,
      "crat": 1858,
      "domestic": 1859,
      "ense": 1860,
      "ull": 1861,
      "industrial": 1862,
      "hman": 1863,
      "plann": 1864,
      "technology": 1865,
      "wid": 1866,
      "Asia": 1867,
      "terms": 1868,
      "acquis": 1869,
      "ually": 1870,
      "levels": 1871,
      "49": 1872,
      "ived": 1873,
      "stores": 1874,
      "increased": 1875,
      "lex": 1876,
      "ines": 1877,
      "appro": 1878,
      "ators": 1879,
      "proper": 1880,
      "basis": 1881,
      "Cong": 1882,
      "labor": 1883,
      "vers": 1884,
      "amoun": 1885,
      "AIG": 1886,
      "den": 1887,
      "become": 1888,
      "expand": 1889,
      "conditions": 1890,
      "rep": 1891,
      "ey": 1892,
      "iron": 1893,
      "prob": 1894,
      "enn": 1895,
      "review": 1896,
      "Toy": 1897,
      "include": 1898,
      "enough": 1899,
      "Paul": 1900,
      "negoti": 1901,
      "came": 1902,
      "cor": 1903,
      "GE": 1904,
      "ahoo": 1905,
      "discuss": 1906,
      "care": 1907,
      "199": 1908,
      "BP": 1909,
      "France": 1910,
      "paid": 1911,
      "20130": 1912,
      "monetary": 1913,
      "bled": 1914,
      "Congress": 1915,
      "ems": 1916,
      "aff": 1917,
      "Econ": 1918,
      "house": 1919,
      "hur": 1920,
      "sch": 1921,
      "him": 1922,
      "Econom": 1923,
      "En": 1924,
      "Some": 1925,
      "hest": 1926,
      "believe": 1927,
      "Minister": 1928,
      "appoint": 1929,
      "ric": 1930,
      "additional": 1931,
      "pers": 1932,
      "lending": 1933,
      "Demo": 1934,
      "international": 1935,
      "institut": 1936,
      "event": 1937,
      "needed": 1938,
      "idUSTRE5": 1939,
      "survey": 1940,
      "related": 1941,
      "37": 1942,
      "director": 1943,
      "ined": 1944,
      "best": 1945,
      "soci": 1946,
      "idUSTRE6": 1947,
      "Management": 1948,
      "allen": 1949,
      "find": 1950,
      "role": 1951,
      "following": 1952,
      "information": 1953,
      "uck": 1954,
      "rating": 1955,
      "hop": 1956,
      "With": 1957,
      "posted": 1958,
      "diffic": 1959,
      "iliar": 1960,
      "Ben": 1961,
      "familiar": 1962,
      "ament": 1963,
      "leaders": 1964,
      "Democrat": 1965,
      "Jul": 1966,
      "clud": 1967,
      "ault": 1968,
      "detail": 1969,
      "pace": 1970,
      "ively": 1971,
      "Nov": 1972,
      "commodit": 1973,
      "ution": 1974,
      "important": 1975,
      "employees": 1976,
      "Jones": 1977,
      "ministration": 1978,
      "ibility": 1979,
      "interview": 1980,
      "ames": 1981,
      "success": 1982,
      "hair": 1983,
      "Stanley": 1984,
      "Republic": 1985,
      "comb": 1986,
      "provide": 1987,
      "ned": 1988,
      "Yahoo": 1989,
      "clients": 1990,
      "perfor": 1991,
      "mis": 1992,
      "note": 1993,
      "Britain": 1994,
      "supply": 1995,
      "ivers": 1996,
      "Index": 1997,
      "agency": 1998,
      "orters": 1999,
      "working": 2000,
      "36": 2001,
      "arm": 2002,
      "Global": 2003,
      "adding": 2004,
      "Motor": 2005,
      "ural": 2006,
      "ugh": 2007,
      "Lehman": 2008,
      "away": 2009,
      "prime": 2010,
      "model": 2011,
      "vice": 2012,
      "stimul": 2013,
      "known": 2014,
      "break": 2015,
      "Oct": 2016,
      "20110": 2017,
      "Black": 2018,
      "deficit": 2019,
      "situ": 2020,
      "matter": 2021,
      "activity": 2022,
      "uan": 2023,
      "member": 2024,
      "^^^^^^^^": 2025,
      "scr": 2026,
      "union": 2027,
      "rist": 2028,
      "reng": 2029,
      "deals": 2030,
      "Italy": 2031,
      "almost": 2032,
      "deter": 2033,
      "UR": 2034,
      "ceed": 2035,
      "times": 2036,
      "ffic": 2037,
      "challen": 2038,
      "Ste": 2039,
      "cept": 2040,
      "os": 2041,
      "33": 2042,
      "legal": 2043,
      "financing": 2044,
      "streng": 2045,
      "ified": 2046,
      "service": 2047,
      "happ": 2048,
      "risks": 2049,
      "TH": 2050,
      "Pl": 2051,
      "Wor": 2052,
      "Stand": 2053,
      "berg": 2054,
      "FT": 2055,
      "Rich": 2056,
      "electr": 2057,
      "AP": 2058,
      "each": 2059,
      "partner": 2060,
      "question": 2061,
      "win": 2062,
      "Andre": 2063,
      "political": 2064,
      "drug": 2065,
      "threat": 2066,
      "needs": 2067,
      "Austr": 2068,
      "rench": 2069,
      "Ma": 2070,
      "oid": 2071,
      "balance": 2072,
      "bad": 2073,
      "ica": 2074,
      "38": 2075,
      "increasing": 2076,
      "whose": 2077,
      "folio": 2078,
      "bur": 2079,
      "39": 2080,
      "taken": 2081,
      "members": 2082,
      "vert": 2083,
      "hig": 2084,
      "highest": 2085,
      "situation": 2086,
      "difficult": 2087,
      "options": 2088,
      "avail": 2089,
      "hu": 2090,
      "quick": 2091,
      "47": 2092,
      "Toyota": 2093,
      "TS": 2094,
      "profits": 2095,
      "Ser": 2096,
      "ists": 2097,
      "ished": 2098,
      "ards": 2099,
      "Par": 2100,
      "Dan": 2101,
      "broker": 2102,
      "vehicles": 2103,
      "final": 2104,
      "Russ": 2105,
      "portfolio": 2106,
      "India": 2107,
      "surpr": 2108,
      "ale": 2109,
      "Sunday": 2110,
      "won": 2111,
      "OND": 2112,
      "Cal": 2113,
      "South": 2114,
      "hour": 2115,
      "fig": 2116,
      "Chair": 2117,
      "mob": 2118,
      "manager": 2119,
      "ories": 2120,
      "Japanese": 2121,
      "anke": 2122,
      "bon": 2123,
      "els": 2124,
      "issues": 2125,
      "However": 2126,
      "particular": 2127,
      "78": 2128,
      "emerging": 2129,
      "46": 2130,
      "asked": 2131,
      "spaper": 2132,
      "commer": 2133,
      "pat": 2134,
      "48": 2135,
      "compl": 2136,
      "55": 2137,
      "32": 2138,
      "using": 2139,
      "longer": 2140,
      "rill": 2141,
      "hol": 2142,
      "positive": 2143,
      "reached": 2144,
      "Su": 2145,
      "Cre": 2146,
      "comes": 2147,
      "Standard": 2148,
      "output": 2149,
      "SP": 2150,
      "competit": 2151,
      "soon": 2152,
      "British": 2153,
      "really": 2154,
      "restructuring": 2155,
      "avoid": 2156,
      "Chairman": 2157,
      "fre": 2158,
      "forecasts": 2159,
      "season": 2160,
      "fraud": 2161,
      "flow": 2162,
      "left": 2163,
      "remains": 2164,
      "overall": 2165,
      "newspaper": 2166,
      "bring": 2167,
      "ends": 2168,
      "package": 2169,
      "funding": 2170,
      "across": 2171,
      "appe": 2172,
      "DP": 2173,
      "worr": 2174,
      "strugg": 2175,
      "represent": 2176,
      "despite": 2177,
      "shop": 2178,
      "media": 2179,
      "pan": 2180,
      "aged": 2181,
      "Cl": 2182,
      "Bro": 2183,
      "ient": 2184,
      "manufacturing": 2185,
      "dropped": 2186,
      "ications": 2187,
      "estimated": 2188,
      "itz": 2189,
      "ety": 2190,
      "HP": 2191,
      "BA": 2192,
      "food": 2193,
      "ulation": 2194,
      "begin": 2195,
      "World": 2196,
      "slight": 2197,
      "deep": 2198,
      "ather": 2199,
      "Micha": 2200,
      "uncertain": 2201,
      "ero": 2202,
      "sim": 2203,
      "filed": 2204,
      "solid": 2205,
      "cue": 2206,
      "Bernanke": 2207,
      "French": 2208,
      "One": 2209,
      "Fund": 2210,
      "34": 2211,
      "Sach": 2212,
      "cons": 2213,
      "Jon": 2214,
      "ounds": 2215,
      "LO": 2216,
      "announce": 2217,
      "ify": 2218,
      "Michael": 2219,
      "ov": 2220,
      "strategy": 2221,
      "Swiss": 2222,
      "toward": 2223,
      "charges": 2224,
      "available": 2225,
      "owned": 2226,
      "az": 2227,
      "alian": 2228,
      "bert": 2229,
      "stant": 2230,
      "tough": 2231,
      "Poor": 2232,
      "within": 2233,
      "insurance": 2234,
      "NY": 2235,
      "economies": 2236,
      "ured": 2237,
      "imin": 2238,
      "ension": 2239,
      "differ": 2240,
      "ION": 2241,
      "vision": 2242,
      "Sachs": 2243,
      "efforts": 2244,
      "site": 2245,
      "performan": 2246,
      "watch": 2247,
      "wom": 2248,
      "udge": 2249,
      "vote": 2250,
      "elt": 2251,
      "regulatory": 2252,
      "liquidity": 2253,
      "tight": 2254,
      "alle": 2255,
      "require": 2256,
      "abil": 2257,
      "20100": 2258,
      "rescue": 2259,
      "Ne": 2260,
      "volum": 2261,
      "reduce": 2262,
      "improv": 2263,
      "umped": 2264,
      "itch": 2265,
      "ilar": 2266,
      "sures": 2267,
      "dam": 2268,
      "lowest": 2269,
      "paper": 2270,
      "aring": 2271,
      "mobile": 2272,
      "economists": 2273,
      "ij": 2274,
      "transa": 2275,
      "immediately": 2276,
      "stop": 2277,
      "Senate": 2278,
      "Coun": 2279,
      "stimulus": 2280,
      "divid": 2281,
      "network": 2282,
      "ott": 2283,
      "mean": 2284,
      "performance": 2285,
      "merger": 2286,
      "saw": 2287,
      "draw": 2288,
      "estimates": 2289,
      "pick": 2290,
      "adjust": 2291,
      "forms": 2292,
      "fix": 2293,
      "tract": 2294,
      "Merrill": 2295,
      "leading": 2296,
      "bought": 2297,
      "Gr": 2298,
      "lenders": 2299,
      "tel": 2300,
      "previously": 2301,
      "failed": 2302,
      "Phil": 2303,
      "expo": 2304,
      "enter": 2305,
      "automaker": 2306,
      "Sam": 2307,
      "td": 2308,
      "dollars": 2309,
      "Ltd": 2310,
      "ctions": 2311,
      "refl": 2312,
      "heav": 2313,
      "although": 2314,
      "rend": 2315,
      "Credit": 2316,
      "ances": 2317,
      "reports": 2318,
      "beat": 2319,
      "ues": 2320,
      "Richard": 2321,
      "Mad": 2322,
      "plant": 2323,
      "result": 2324,
      "local": 2325,
      "invent": 2326,
      "account": 2327,
      "KE": 2328,
      "probably": 2329,
      "staff": 2330,
      "filing": 2331,
      "amount": 2332,
      "vices": 2333,
      "signs": 2334,
      "Ed": 2335,
      "ised": 2336,
      "aps": 2337,
      "chmark": 2338,
      "clays": 2339,
      "sus": 2340,
      "lawy": 2341,
      "Union": 2342,
      "trou": 2343,
      "super": 2344,
      "purchase": 2345,
      "MI": 2346,
      "ri": 2347,
      "percentage": 2348,
      "futures": 2349,
      "Investors": 2350,
      "inc": 2351,
      "viron": 2352,
      "commercial": 2353,
      "ico": 2354,
      "San": 2355,
      "Part": 2356,
      "planned": 2357,
      "default": 2358,
      "reporters": 2359,
      "cutting": 2360,
      "isting": 2361,
      "got": 2362,
      "grad": 2363,
      "Lu": 2364,
      "once": 2365,
      "press": 2366,
      "administration": 2367,
      "request": 2368,
      "Am": 2369,
      "yuan": 2370,
      "tware": 2371,
      "vironment": 2372,
      "James": 2373,
      "nec": 2374,
      "problem": 2375,
      "overe": 2376,
      "overeign": 2377,
      "settlement": 2378,
      "received": 2379,
      "doing": 2380,
      "offering": 2381,
      "affect": 2382,
      "trying": 2383,
      "44": 2384,
      "ournal": 2385,
      "however": 2386,
      "News": 2387,
      "90": 2388,
      "recently": 2389,
      "similar": 2390,
      "Thomson": 2391,
      "GDP": 2392,
      "states": 2393,
      "proposed": 2394,
      "cluding": 2395,
      "forward": 2396,
      "wind": 2397,
      "omes": 2398,
      "65": 2399,
      "uses": 2400,
      "changed": 2401,
      "BM": 2402,
      "worst": 2403,
      "aily": 2404,
      "reflect": 2405,
      "here": 2406,
      "Christ": 2407,
      "stud": 2408,
      "trend": 2409,
      "rivals": 2410,
      "backed": 2411,
      "wr": 2412,
      "track": 2413,
      "payments": 2414,
      "Barclays": 2415,
      "having": 2416,
      "fully": 2417,
      "office": 2418,
      "takeover": 2419,
      "roll": 2420,
      "reform": 2421,
      "Cour": 2422,
      "investments": 2423,
      "wealth": 2424,
      "rather": 2425,
      "dy": 2426,
      "Frank": 2427,
      "hist": 2428,
      "antic": 2429,
      "ked": 2430,
      "chain": 2431,
      "holiday": 2432,
      "Feb": 2433,
      "online": 2434,
      "FR": 2435,
      "ressed": 2436,
      "special": 2437,
      "fast": 2438,
      "makes": 2439,
      "wa": 2440,
      "committee": 2441,
      "gold": 2442,
      "ained": 2443,
      "continued": 2444,
      "investigation": 2445,
      "portun": 2446,
      "sovereign": 2447,
      "single": 2448,
      "slightly": 2449,
      "Court": 2450,
      "software": 2451,
      "environment": 2452,
      "Em": 2453,
      "leader": 2454,
      "smaller": 2455,
      "general": 2456,
      "Hold": 2457,
      "benchmark": 2458,
      "fav": 2459,
      "details": 2460,
      "shif": 2461,
      "atter": 2462,
      "Central": 2463,
      "free": 2464,
      "dest": 2465,
      "negative": 2466,
      "officer": 2467,
      "pop": 2468,
      "ID": 2469,
      "done": 2470,
      "access": 2471,
      "iam": 2472,
      "released": 2473,
      "cars": 2474,
      "necess": 2475,
      "acity": 2476,
      "Canada": 2477,
      "poll": 2478,
      "ONDON": 2479,
      "ath": 2480,
      "quarters": 2481,
      "LONDON": 2482,
      "competition": 2483,
      "citing": 2484,
      "istrict": 2485,
      "Will": 2486,
      "prior": 2487,
      "collap": 2488,
      "comple": 2489,
      "National": 2490,
      "shareholder": 2491,
      "warned": 2492,
      "hind": 2493,
      "ham": 2494,
      "falling": 2495,
      "Af": 2496,
      "outside": 2497,
      "ett": 2498,
      "rote": 2499,
      "UL": 2500,
      "opportun": 2501,
      "table": 2502,
      "dle": 2503,
      "wrote": 2504,
      "design": 2505,
      "ron": 2506,
      "gency": 2507,
      "resol": 2508,
      "compens": 2509,
      "vo": 2510,
      "joint": 2511,
      "Ang": 2512,
      "sust": 2513,
      "athan": 2514,
      "capacity": 2515,
      "lawsuit": 2516,
      "getting": 2517,
      "aging": 2518,
      "77": 2519,
      "mortgages": 2520,
      "nia": 2521,
      "ont": 2522,
      "seeking": 2523,
      "exports": 2524,
      "UK": 2525,
      "craft": 2526,
      "ifor": 2527,
      "ties": 2528,
      "began": 2529,
      "others": 2530,
      "LE": 2531,
      "ffer": 2532,
      "All": 2533,
      "goods": 2534,
      "PA": 2535,
      "steps": 2536,
      "advert": 2537,
      "region": 2538,
      "isions": 2539,
      "prospect": 2540,
      "traded": 2541,
      "purchases": 2542,
      "subprime": 2543,
      "ifornia": 2544,
      "utsche": 2545,
      "sees": 2546,
      "Vol": 2547,
      "separ": 2548,
      "eas": 2549,
      "arant": 2550,
      "reason": 2551,
      "clim": 2552,
      "units": 2553,
      "contribut": 2554,
      "volat": 2555,
      "woman": 2556,
      "HS": 2557,
      "deliver": 2558,
      "War": 2559,
      "California": 2560,
      "oline": 2561,
      "hi": 2562,
      "mor": 2563,
      "Offic": 2564,
      "300": 2565,
      "gained": 2566,
      "85": 2567,
      "SA": 2568,
      "building": 2569,
      "Char": 2570,
      "owns": 2571,
      "peak": 2572,
      "forced": 2573,
      "42": 2574,
      "OP": 2575,
      "raising": 2576,
      "Kore": 2577,
      "EF": 2578,
      "my": 2579,
      "tern": 2580,
      "ensive": 2581,
      "iring": 2582,
      "dependent": 2583,
      "Last": 2584,
      "governments": 2585,
      "Op": 2586,
      "parts": 2587,
      "benefits": 2588,
      "West": 2589,
      "stronger": 2590,
      "initial": 2591,
      "respond": 2592,
      "oc": 2593,
      "iment": 2594,
      "revis": 2595,
      "thern": 2596,
      "52": 2597,
      "nation": 2598,
      "59": 2599,
      "lement": 2600,
      "Fred": 2601,
      "things": 2602,
      "ola": 2603,
      "holders": 2604,
      "acquisition": 2605,
      "structure": 2606,
      "pounds": 2607,
      "elect": 2608,
      "IPO": 2609,
      "charge": 2610,
      "size": 2611,
      "traders": 2612,
      "along": 2613,
      "ijing": 2614,
      "ream": 2615,
      "icago": 2616,
      "institutions": 2617,
      "Beijing": 2618,
      "moving": 2619,
      "wants": 2620,
      "zil": 2621,
      "pas": 2622,
      "team": 2623,
      "easing": 2624,
      "quickly": 2625,
      "amid": 2626,
      "delay": 2627,
      "Chicago": 2628,
      "mult": 2629,
      "margin": 2630,
      "borrowing": 2631,
      "Har": 2632,
      "White": 2633,
      "discoun": 2634,
      "prevent": 2635,
      "hase": 2636,
      "BR": 2637,
      "Ac": 2638,
      "Deutsche": 2639,
      "Airbus": 2640,
      "Mex": 2641,
      "talk": 2642,
      "struction": 2643,
      "argu": 2644,
      "You": 2645,
      "hurt": 2646,
      "behind": 2647,
      "gi": 2648,
      "mass": 2649,
      "58": 2650,
      "pos": 2651,
      "approval": 2652,
      "different": 2653,
      "sun": 2654,
      "plac": 2655,
      "holding": 2656,
      "ither": 2657,
      "43": 2658,
      "56": 2659,
      "dig": 2660,
      "53": 2661,
      "authorities": 2662,
      "lied": 2663,
      "relative": 2664,
      "today": 2665,
      "Sal": 2666,
      "IST": 2667,
      "2005": 2668,
      "41": 2669,
      "bed": 2670,
      "ple": 2671,
      "itself": 2672,
      "lay": 2673,
      "closing": 2674,
      "stra": 2675,
      "numbers": 2676,
      "guarant": 2677,
      "Jonathan": 2678,
      "ENT": 2679,
      "lie": 2680,
      "esp": 2681,
      "ll": 2682,
      "secut": 2683,
      "Lyn": 2684,
      "die": 2685,
      "District": 2686,
      "Bra": 2687,
      "mom": 2688,
      "Li": 2689,
      "liament": 2690,
      "daily": 2691,
      "fair": 2692,
      "chip": 2693,
      "aircraft": 2694,
      "ratings": 2695,
      "Journal": 2696,
      "accounts": 2697,
      "mot": 2698,
      "Don": 2699,
      "currently": 2700,
      "development": 2701,
      "Sc": 2702,
      "downturn": 2703,
      "51": 2704,
      "isco": 2705,
      "qual": 2706,
      "stay": 2707,
      "ept": 2708,
      "counter": 2709,
      "Steve": 2710,
      "reforms": 2711,
      "comments": 2712,
      "Motors": 2713,
      "lying": 2714,
      "Che": 2715,
      "prem": 2716,
      "sis": 2717,
      "ells": 2718,
      "attract": 2719,
      "trust": 2720,
      "disappoint": 2721,
      "TV": 2722,
      "reb": 2723,
      "respons": 2724,
      "57": 2725,
      "approach": 2726,
      "Face": 2727,
      "lawmakers": 2728,
      "fears": 2729,
      "started": 2730,
      "ands": 2731,
      "offered": 2732,
      "existing": 2733,
      "nat": 2734,
      "pri": 2735,
      "roughly": 2736,
      "Se": 2737,
      "estimate": 2738,
      "Port": 2739,
      "Commit": 2740,
      "docu": 2741,
      "Internet": 2742,
      "create": 2743,
      "shut": 2744,
      "engine": 2745,
      "Associ": 2746,
      "etro": 2747,
      "tele": 2748,
      "aint": 2749,
      "Facebook": 2750,
      "**": 2751,
      "hours": 2752,
      "ecurity": 2753,
      "named": 2754,
      "pred": 2755,
      "items": 2756,
      "Committee": 2757,
      "huge": 2758,
      "depart": 2759,
      "giving": 2760,
      "includes": 2761,
      "commun": 2762,
      "isters": 2763,
      "estate": 2764,
      "Brazil": 2765,
      "means": 2766,
      "Satur": 2767,
      "spokeswoman": 2768,
      "reject": 2769,
      "approved": 2770,
      "double": 2771,
      "sav": 2772,
      "Saturday": 2773,
      "maintain": 2774,
      "date": 2775,
      "AB": 2776,
      "ien": 2777,
      "mes": 2778,
      "moment": 2779,
      "rally": 2780,
      "letter": 2781,
      "ecially": 2782,
      "uncertainty": 2783,
      "especially": 2784,
      "flo": 2785,
      "round": 2786,
      "hope": 2787,
      "Ear": 2788,
      "particularly": 2789,
      "clos": 2790,
      "property": 2791,
      "Writ": 2792,
      "gl": 2793,
      "wo": 2794,
      "McC": 2795,
      "election": 2796,
      "buyers": 2797,
      "iPh": 2798,
      "Finance": 2799,
      "jumped": 2800,
      "pract": 2801,
      "Sm": 2802,
      "gether": 2803,
      "family": 2804,
      "suffer": 2805,
      "Investment": 2806,
      "grade": 2807,
      "orney": 2808,
      "stability": 2809,
      "sched": 2810,
      "bless": 2811,
      "mater": 2812,
      "sharply": 2813,
      "Russia": 2814,
      "favor": 2815,
      "liance": 2816,
      "volume": 2817,
      "ston": 2818,
      "Writing": 2819,
      "slowdown": 2820,
      "comm": 2821,
      "batt": 2822,
      "room": 2823,
      "margins": 2824,
      "seven": 2825,
      "retailers": 2826,
      "OF": 2827,
      "critic": 2828,
      "iled": 2829,
      "retary": 2830,
      "UN": 2831,
      "Jef": 2832,
      "something": 2833,
      "After": 2834,
      "Med": 2835,
      "appl": 2836,
      "tur": 2837,
      "Robert": 2838,
      "rank": 2839,
      "compensation": 2840,
      "homes": 2841,
      "managers": 2842,
      "54": 2843,
      "anced": 2844,
      "common": 2845,
      "spread": 2846,
      "isa": 2847,
      "protect": 2848,
      "ring": 2849,
      "contracts": 2850,
      "road": 2851,
      "yo": 2852,
      "venture": 2853,
      "area": 2854,
      "minister": 2855,
      "optim": 2856,
      "alysis": 2857,
      "Just": 2858,
      "struggling": 2859,
      "earch": 2860,
      "running": 2861,
      "onse": 2862,
      "NYSE": 2863,
      "Consu": 2864,
      "weigh": 2865,
      "Bill": 2866,
      "izon": 2867,
      "ministers": 2868,
      "MS": 2869,
      "kel": 2870,
      "ources": 2871,
      "ferred": 2872,
      "arent": 2873,
      "Ener": 2874,
      "reser": 2875,
      "Dr": 2876,
      "ME": 2877,
      "fight": 2878,
      "calls": 2879,
      "consul": 2880,
      "response": 2881,
      "ison": 2882,
      "aggress": 2883,
      "sli": 2884,
      "Gl": 2885,
      "Geor": 2886,
      "OL": 2887,
      "alia": 2888,
      "Ra": 2889,
      "fees": 2890,
      "seeing": 2891,
      "Star": 2892,
      "Irel": 2893,
      "When": 2894,
      "Ireland": 2895,
      "party": 2896,
      "Comp": 2897,
      "acy": 2898,
      "Law": 2899,
      "deriv": 2900,
      "hopes": 2901,
      "print": 2902,
      "usu": 2903,
      "decade": 2904,
      "annie": 2905,
      "EAD": 2906,
      "sentiment": 2907,
      "eler": 2908,
      "mil": 2909,
      "Its": 2910,
      "Ab": 2911,
      "gross": 2912,
      "together": 2913,
      "sung": 2914,
      "sy": 2915,
      "AA": 2916,
      "involved": 2917,
      "CI": 2918,
      "var": 2919,
      "Lew": 2920,
      "ordin": 2921,
      "included": 2922,
      "savings": 2923,
      "igin": 2924,
      "gave": 2925,
      "saf": 2926,
      "ided": 2927,
      "closure": 2928,
      "expans": 2929,
      "Net": 2930,
      "ering": 2931,
      "scal": 2932,
      "trial": 2933,
      "summit": 2934,
      "straight": 2935,
      "istic": 2936,
      "remained": 2937,
      "posed": 2938,
      "Lynch": 2939,
      "retailer": 2940,
      "subsid": 2941,
      "class": 2942,
      "issued": 2943,
      "Electr": 2944,
      "bot": 2945,
      "division": 2946,
      "ratio": 2947,
      "yields": 2948,
      "exposure": 2949,
      "Holdings": 2950,
      "field": 2951,
      "Research": 2952,
      "Freddie": 2953,
      "rule": 2954,
      "limited": 2955,
      "iversity": 2956,
      "cases": 2957,
      "perform": 2958,
      "Energy": 2959,
      "measure": 2960,
      "ground": 2961,
      "lif": 2962,
      "Jer": 2963,
      "izing": 2964,
      "address": 2965,
      "parliament": 2966,
      "Oil": 2967,
      "iff": 2968,
      "ald": 2969,
      "owner": 2970,
      "Franc": 2971,
      "weaker": 2972,
      "phones": 2973,
      "particip": 2974,
      "LLC": 2975,
      "Hong": 2976,
      "block": 2977,
      "Madoff": 2978,
      "electron": 2979,
      "progress": 2980,
      "premium": 2981,
      "shore": 2982,
      "argo": 2983,
      "advertising": 2984,
      "Fannie": 2985,
      "prep": 2986,
      "material": 2987,
      "Kr": 2988,
      "commodities": 2989,
      "strategist": 2990,
      "factory": 2991,
      "encour": 2992,
      "prosecut": 2993,
      "policies": 2994,
      "holds": 2995,
      "standing": 2996,
      "panel": 2997,
      "equip": 2998,
      "origin": 2999,
      "PC": 3000,
      "batter": 3001,
      "IA": 3002,
      "rem": 3003,
      "determin": 3004,
      "Italian": 3005,
      "often": 3006,
      "taxes": 3007,
      "Mat": 3008,
      "Commer": 3009,
      "expansion": 3010,
      "expl": 3011,
      "pret": 3012,
      "Web": 3013,
      "kind": 3014,
      "bankers": 3015,
      "oody": 3016,
      "oung": 3017,
      "increases": 3018,
      "los": 3019,
      "benefit": 3020,
      "bigger": 3021,
      "necessary": 3022,
      "customer": 3023,
      "ience": 3024,
      "Angel": 3025,
      "ruling": 3026,
      "UA": 3027,
      "dividend": 3028,
      "Samsung": 3029,
      "loom": 3030,
      "Officer": 3031,
      "faces": 3032,
      "card": 3033,
      "stabil": 3034,
      "pass": 3035,
      "What": 3036,
      "defense": 3037,
      "focused": 3038,
      "Ver": 3039,
      "Moody": 3040,
      "sustain": 3041,
      "Tom": 3042,
      "She": 3043,
      "ming": 3044,
      "fire": 3045,
      "flat": 3046,
      "rev": 3047,
      "taxpay": 3048,
      "signal": 3049,
      "isl": 3050,
      "lender": 3051,
      "Lewis": 3052,
      "yond": 3053,
      "eline": 3054,
      "leav": 3055,
      "refin": 3056,
      "weakness": 3057,
      "protection": 3058,
      "400": 3059,
      "wire": 3060,
      "strength": 3061,
      "Mexico": 3062,
      "Times": 3063,
      "Berk": 3064,
      "Kong": 3065,
      "larger": 3066,
      "independent": 3067,
      "ivid": 3068,
      "iPhone": 3069,
      "smart": 3070,
      "collapse": 3071,
      "lu": 3072,
      "majority": 3073,
      "managing": 3074,
      "rown": 3075,
      "lor": 3076,
      "Me": 3077,
      "conduct": 3078,
      "ption": 3079,
      "ithner": 3080,
      "Col": 3081,
      "Sing": 3082,
      "pension": 3083,
      "safety": 3084,
      "evidence": 3085,
      "Mid": 3086,
      "cam": 3087,
      "unlikely": 3088,
      "web": 3089,
      "ulf": 3090,
      "airline": 3091,
      "rought": 3092,
      "judge": 3093,
      "pled": 3094,
      "rap": 3095,
      "anch": 3096,
      "prec": 3097,
      "questions": 3098,
      "na": 3099,
      "ensure": 3100,
      "jobless": 3101,
      "separate": 3102,
      "session": 3103,
      "G20": 3104,
      "cannot": 3105,
      "FRAN": 3106,
      "auction": 3107,
      "accounting": 3108,
      "truck": 3109,
      "lock": 3110,
      "ahn": 3111,
      "construction": 3112,
      "UT": 3113,
      "regulator": 3114,
      "ele": 3115,
      "extended": 3116,
      "Auto": 3117,
      "areas": 3118,
      "600": 3119,
      "conv": 3120,
      "bp": 3121,
      "targets": 3122,
      "offset": 3123,
      "drive": 3124,
      "Portug": 3125,
      "creditors": 3126,
      "anticip": 3127,
      "plus": 3128,
      "temp": 3129,
      "typ": 3130,
      "dist": 3131,
      "buil": 3132,
      "ooper": 3133,
      "vehicle": 3134,
      "announcement": 3135,
      "KS": 3136,
      "specific": 3137,
      "MAN": 3138,
      "trig": 3139,
      "Many": 3140,
      "ades": 3141,
      "confident": 3142,
      "ung": 3143,
      "effort": 3144,
      "extra": 3145,
      "improvement": 3146,
      "67": 3147,
      "combined": 3148,
      "MAR": 3149,
      "bol": 3150,
      "speak": 3151,
      "closely": 3152,
      "serious": 3153,
      "loc": 3154,
      "domin": 3155,
      "Afr": 3156,
      "Govern": 3157,
      "probe": 3158,
      "equipment": 3159,
      "partners": 3160,
      "negotiations": 3161,
      "monthly": 3162,
      "legisl": 3163,
      "har": 3164,
      "shows": 3165,
      "Even": 3166,
      "University": 3167,
      "alone": 3168,
      "Industr": 3169,
      "option": 3170,
      "release": 3171,
      "ds": 3172,
      "dead": 3173,
      "cho": 3174,
      "individ": 3175,
      "distr": 3176,
      "greater": 3177,
      "ention": 3178,
      "implement": 3179,
      "rent": 3180,
      "carr": 3181,
      "positions": 3182,
      "ffett": 3183,
      "ape": 3184,
      "Ic": 3185,
      "addit": 3186,
      "lob": 3187,
      "massive": 3188,
      "Canadian": 3189,
      "OPEC": 3190,
      "parties": 3191,
      "looks": 3192,
      "stat": 3193,
      "never": 3194,
      "arily": 3195,
      "revised": 3196,
      "Fi": 3197,
      "Dell": 3198,
      "repe": 3199,
      "log": 3200,
      "willing": 3201,
      "emergency": 3202,
      "Les": 3203,
      "2014": 3204,
      "agencies": 3205,
      "Gu": 3206,
      "billions": 3207,
      "ET": 3208,
      "Barack": 3209,
      "nor": 3210,
      "Asian": 3211,
      "bust": 3212,
      "rebound": 3213,
      "IG": 3214,
      "buyout": 3215,
      "largely": 3216,
      "Monetary": 3217,
      "Merkel": 3218,
      "ease": 3219,
      "Green": 3220,
      "hearing": 3221,
      "launched": 3222,
      "Bear": 3223,
      "considering": 3224,
      "reserves": 3225,
      "Sec": 3226,
      "Prime": 3227,
      "Geithner": 3228,
      "hen": 3229,
      "shire": 3230,
      "Under": 3231,
      "insurer": 3232,
      "automakers": 3233,
      "worries": 3234,
      "Lo": 3235,
      "security": 3236,
      "popular": 3237,
      "Republican": 3238,
      "brokerage": 3239,
      "substant": 3240,
      "Chase": 3241,
      "strike": 3242,
      "City": 3243,
      "sb": 3244,
      "went": 3245,
      "sterity": 3246,
      "derivatives": 3247,
      "austerity": 3248,
      "Bus": 3249,
      "Gulf": 3250,
      "Peter": 3251,
      "payment": 3252,
      "itor": 3253,
      "isse": 3254,
      "gasoline": 3255,
      "norm": 3256,
      "reduct": 3257,
      "figures": 3258,
      "restr": 3259,
      "acceler": 3260,
      "limit": 3261,
      "antit": 3262,
      "Wells": 3263,
      "individual": 3264,
      "concerned": 3265,
      "sight": 3266,
      "Partners": 3267,
      "lear": 3268,
      "Markets": 3269,
      "revenues": 3270,
      "sn": 3271,
      "Ass": 3272,
      "thought": 3273,
      "iple": 3274,
      "Span": 3275,
      "pretty": 3276,
      "Australia": 3277,
      "----": 3278,
      "Tok": 3279,
      "retire": 3280,
      "68": 3281,
      "payroll": 3282,
      "DO": 3283,
      "ook": 3284,
      "trades": 3285,
      "Des": 3286,
      "defin": 3287,
      "front": 3288,
      "plants": 3289,
      "projects": 3290,
      "Ko": 3291,
      "brief": 3292,
      "driven": 3293,
      "Dub": 3294,
      "regulation": 3295,
      "commodity": 3296,
      "doub": 3297,
      "body": 3298,
      "continues": 3299,
      "slowing": 3300,
      "lever": 3301,
      "fallen": 3302,
      "itions": 3303,
      "van": 3304,
      "trigger": 3305,
      "recall": 3306,
      "han": 3307,
      "slash": 3308,
      "broader": 3309,
      "Buffett": 3310,
      "fixed": 3311,
      "SU": 3312,
      "grew": 3313,
      "leave": 3314,
      "starting": 3315,
      "noon": 3316,
      "Mill": 3317,
      "paying": 3318,
      "heavy": 3319,
      "icted": 3320,
      "DA": 3321,
      "Str": 3322,
      "ecom": 3323,
      "base": 3324,
      "reading": 3325,
      "Tokyo": 3326,
      "brands": 3327,
      "uled": 3328,
      "pushed": 3329,
      "HSBC": 3330,
      "IX": 3331,
      "attemp": 3332,
      "coal": 3333,
      "Martin": 3334,
      "doesn": 3335,
      "feel": 3336,
      "manufactur": 3337,
      "beyond": 3338,
      "col": 3339,
      "personal": 3340,
      "Association": 3341,
      "crimin": 3342,
      "Estim": 3343,
      "sky": 3344,
      "69": 3345,
      "Tex": 3346,
      "actions": 3347,
      "intro": 3348,
      "Ken": 3349,
      "Sales": 3350,
      "ample": 3351,
      "Over": 3352,
      "nu": 3353,
      "safe": 3354,
      "showing": 3355,
      "facing": 3356,
      "spend": 3357,
      "Mae": 3358,
      "flight": 3359,
      "firmed": 3360,
      "State": 3361,
      "BHP": 3362,
      "AND": 3363,
      "cou": 3364,
      "Democrats": 3365,
      "Mur": 3366,
      "Hu": 3367,
      "Kim": 3368,
      "gers": 3369,
      "SH": 3370,
      "hy": 3371,
      "overseas": 3372,
      "Spanish": 3373,
      "stone": 3374,
      "ateral": 3375,
      "ery": 3376,
      "RI": 3377,
      "moves": 3378,
      "Korea": 3379,
      "COM": 3380,
      "imon": 3381,
      "lawyer": 3382,
      "Estimates": 3383,
      "name": 3384,
      "Eric": 3385,
      "programs": 3386,
      "quality": 3387,
      "ban": 3388,
      "tum": 3389,
      "okia": 3390,
      "THE": 3391,
      "transaction": 3392,
      "infr": 3393,
      "700": 3394,
      "erson": 3395,
      "noted": 3396,
      "akes": 3397,
      "guid": 3398,
      "shift": 3399,
      "relatively": 3400,
      "botto": 3401,
      "expecting": 3402,
      "respect": 3403,
      "BE": 3404,
      "66": 3405,
      "great": 3406,
      "worked": 3407,
      "ading": 3408,
      "altern": 3409,
      "clus": 3410,
      "Opel": 3411,
      "istent": 3412,
      "^^^^^^^^^^^^^^^^": 3413,
      "Home": 3414,
      "addition": 3415,
      "wrong": 3416,
      "cil": 3417,
      "ze": 3418,
      "Cy": 3419,
      "afternoon": 3420,
      "setting": 3421,
      "scand": 3422,
      "social": 3423,
      "pose": 3424,
      "disput": 3425,
      "why": 3426,
      "directors": 3427,
      "giant": 3428,
      "moved": 3429,
      "drag": 3430,
      "These": 3431,
      "tell": 3432,
      "Suisse": 3433,
      "Secretary": 3434,
      "William": 3435,
      "Brothers": 3436,
      "either": 3437,
      "Johnson": 3438,
      "nect": 3439,
      ".,": 3440,
      "787": 3441,
      "fresh": 3442,
      "ATE": 3443,
      "spot": 3444,
      "currencies": 3445,
      "considered": 3446,
      "sense": 3447,
      "listed": 3448,
      "Pol": 3449,
      "Republicans": 3450,
      "Other": 3451,
      "marketing": 3452,
      "series": 3453,
      "Hill": 3454,
      "jump": 3455,
      "Cor": 3456,
      "uk": 3457,
      "ports": 3458,
      "speculation": 3459,
      "accept": 3460,
      "earns": 3461,
      "history": 3462,
      "space": 3463,
      "Airlines": 3464,
      "110": 3465,
      "Bl": 3466,
      "required": 3467,
      "tempor": 3468,
      "88": 3469,
      "course": 3470,
      "deli": 3471,
      "MF": 3472,
      "caused": 3473,
      "achie": 3474,
      "99": 3475,
      "eck": 3476,
      "tests": 3477,
      "DJ": 3478,
      "promot": 3479,
      "systems": 3480,
      "suggested": 3481,
      "increasingly": 3482,
      "summer": 3483,
      "moder": 3484,
      "idea": 3485,
      "plun": 3486,
      "East": 3487,
      "Her": 3488,
      "ECON": 3489,
      "continuing": 3490,
      "ians": 3491,
      "Both": 3492,
      "Bang": 3493,
      "ilities": 3494,
      "stress": 3495,
      "ECONOM": 3496,
      "Paulson": 3497,
      "appear": 3498,
      "Still": 3499,
      "que": 3500,
      "quot": 3501,
      "box": 3502,
      "acquisitions": 3503,
      "Val": 3504,
      "effic": 3505,
      "decided": 3506,
      "weekend": 3507,
      "NO": 3508,
      "Fiat": 3509,
      "scale": 3510,
      "omin": 3511,
      "ys": 3512,
      "life": 3513,
      "write": 3514,
      "Earlier": 3515,
      "whole": 3516,
      "Plc": 3517,
      "Andrew": 3518,
      "Nokia": 3519,
      "Per": 3520,
      "Sa": 3521,
      "reli": 3522,
      "pted": 3523,
      "rights": 3524,
      "fear": 3525,
      "plane": 3526,
      "pricing": 3527,
      "followed": 3528,
      "shr": 3529,
      "brought": 3530,
      "consolid": 3531,
      "Mob": 3532,
      "modest": 3533,
      "My": 3534,
      "apore": 3535,
      "enses": 3536,
      "viol": 3537,
      "instead": 3538,
      "idUSW": 3539,
      "airlines": 3540,
      "treat": 3541,
      "eight": 3542,
      "George": 3543,
      "canc": 3544,
      "Portugal": 3545,
      "excess": 3546,
      "Dis": 3547,
      "utch": 3548,
      "poor": 3549,
      "Sony": 3550,
      "thew": 3551,
      "venue": 3552,
      "incent": 3553,
      "shed": 3554,
      "owners": 3555,
      "morning": 3556,
      "AX": 3557,
      "Mas": 3558,
      "decisions": 3559,
      "Tech": 3560,
      "proceed": 3561,
      "dip": 3562,
      "rever": 3563,
      "sett": 3564,
      "wanted": 3565,
      "Fargo": 3566,
      "Intel": 3567,
      "discussions": 3568,
      "sey": 3569,
      "regional": 3570,
      "79": 3571,
      "wan": 3572,
      "reduced": 3573,
      "cop": 3574,
      "provided": 3575,
      "Rio": 3576,
      "Services": 3577,
      "Americans": 3578,
      "prim": 3579,
      "ding": 3580,
      "Justice": 3581,
      "Berkshire": 3582,
      "Off": 3583,
      "adjusted": 3584,
      "Labor": 3585,
      "aimed": 3586,
      "sou": 3587,
      "offers": 3588,
      "ires": 3589,
      "surprise": 3590,
      "abl": 3591,
      "profess": 3592,
      "scheduled": 3593,
      "oing": 3594,
      "chance": 3595,
      "unve": 3596,
      "trader": 3597,
      "barrels": 3598,
      "120": 3599,
      "signed": 3600,
      "Singapore": 3601,
      "apped": 3602,
      "Alex": 3603,
      "acle": 3604,
      "brok": 3605,
      "steady": 3606,
      "irst": 3607,
      "Smith": 3608,
      "Represent": 3609,
      "natural": 3610,
      "became": 3611,
      "ool": 3612,
      "Stemp": 3613,
      "self": 3614,
      "Lisa": 3615,
      "wer": 3616,
      "Texas": 3617,
      "city": 3618,
      "sought": 3619,
      "ences": 3620,
      "Citi": 3621,
      "ises": 3622,
      "turned": 3623,
      "figure": 3624,
      "policymakers": 3625,
      "flows": 3626,
      "ighter": 3627,
      "igation": 3628,
      "oming": 3629,
      "76": 3630,
      "equities": 3631,
      "Del": 3632,
      "ored": 3633,
      "RIM": 3634,
      "elves": 3635,
      "\".": 3636,
      "sheet": 3637,
      "Thomas": 3638,
      "ko": 3639,
      "nine": 3640,
      "founder": 3641,
      "competitive": 3642,
      "Chev": 3643,
      "RES": 3644,
      "example": 3645,
      "bonuses": 3646,
      "zy": 3647,
      "helping": 3648,
      "writing": 3649,
      "created": 3650,
      "scheme": 3651,
      "replace": 3652,
      "assess": 3653,
      "ski": 3654,
      "improved": 3655,
      "A3": 3656,
      "haven": 3657,
      "standards": 3658,
      "seem": 3659,
      "Er": 3660,
      "150": 3661,
      "plat": 3662,
      "mp": 3663,
      "Carol": 3664,
      "awa": 3665,
      "Matthew": 3666,
      "Pat": 3667,
      "consult": 3668,
      "water": 3669,
      "worse": 3670,
      "takes": 3671,
      "advant": 3672,
      "weight": 3673,
      "ifth": 3674,
      "excluding": 3675,
      "planes": 3676,
      "aggressive": 3677,
      "cooper": 3678,
      "hot": 3679,
      "versus": 3680,
      "ife": 3681,
      "relation": 3682,
      "receive": 3683,
      "cited": 3684,
      "ivil": 3685,
      "leaving": 3686,
      "worried": 3687,
      "spill": 3688,
      "regular": 3689,
      "89": 3690,
      "volatility": 3691,
      "seems": 3692,
      "strategic": 3693,
      "PS": 3694,
      "anger": 3695,
      "models": 3696,
      "client": 3697,
      "establ": 3698,
      "YO": 3699,
      "refer": 3700,
      "Asset": 3701,
      "Jim": 3702,
      "mag": 3703,
      "bling": 3704,
      "squ": 3705,
      "email": 3706,
      "sem": 3707,
      "zero": 3708,
      "experts": 3709,
      "allowed": 3710,
      "Kev": 3711,
      "resign": 3712,
      "rapid": 3713,
      "accused": 3714,
      "Pac": 3715,
      "opposition": 3716,
      "beginning": 3717,
      "simp": 3718,
      "quite": 3719,
      "groups": 3720,
      "possibility": 3721,
      "Mor": 3722,
      "prepared": 3723,
      "62": 3724,
      "declines": 3725,
      "erald": 3726,
      "always": 3727,
      "distribut": 3728,
      "widely": 3729,
      "certainly": 3730,
      "battle": 3731,
      "vide": 3732,
      "kept": 3733,
      "II": 3734,
      "brid": 3735,
      "night": 3736,
      "RBS": 3737,
      "risen": 3738,
      "losing": 3739,
      "Iran": 3740,
      "61": 3741,
      "EL": 3742,
      "GS": 3743,
      "entire": 3744,
      "anything": 3745,
      "zon": 3746,
      "Lou": 3747,
      "Kevin": 3748,
      "recomm": 3749,
      "posite": 3750,
      "speed": 3751,
      "prospects": 3752,
      "Reg": 3753,
      "yal": 3754,
      "pursu": 3755,
      "CC": 3756,
      "rich": 3757,
      "63": 3758,
      "fort": 3759,
      "built": 3760,
      "legislation": 3761,
      "failure": 3762,
      "Gary": 3763,
      "documents": 3764,
      "Bay": 3765,
      "attorney": 3766,
      "introdu": 3767,
      "opportunity": 3768,
      "uries": 3769,
      "pushing": 3770,
      "thens": 3771,
      "holdings": 3772,
      "operator": 3773,
      "alleged": 3774,
      "appropri": 3775,
      "84": 3776,
      "buck": 3777,
      "potentially": 3778,
      "81": 3779,
      "influ": 3780,
      "valued": 3781,
      "stein": 3782,
      "users": 3783,
      "Commerce": 3784,
      "faced": 3785,
      "TR": 3786,
      "sat": 3787,
      "etroit": 3788,
      "inventory": 3789,
      "ino": 3790,
      "scandal": 3791,
      "exit": 3792,
      "bul": 3793,
      "compon": 3794,
      "returns": 3795,
      "Pacific": 3796,
      "Pal": 3797,
      "your": 3798,
      "caut": 3799,
      "slump": 3800,
      "center": 3801,
      "undred": 3802,
      "MENT": 3803,
      "cred": 3804,
      "74": 3805,
      "La": 3806,
      "Market": 3807,
      "rejected": 3808,
      "paign": 3809,
      "FOR": 3810,
      "uter": 3811,
      "ern": 3812,
      "marks": 3813,
      "64": 3814,
      "Office": 3815,
      "Detroit": 3816,
      "spent": 3817,
      "Fo": 3818,
      "pressures": 3819,
      "mus": 3820,
      "rad": 3821,
      "discount": 3822,
      "ONG": 3823,
      "Scott": 3824,
      "bottom": 3825,
      "else": 3826,
      "cautious": 3827,
      "Cam": 3828,
      "alleg": 3829,
      "xon": 3830,
      "Institut": 3831,
      "Africa": 3832,
      "minut": 3833,
      "civil": 3834,
      "egr": 3835,
      "ario": 3836,
      "Bush": 3837,
      "sequ": 3838,
      "mption": 3839,
      "Business": 3840,
      "worldwide": 3841,
      "cir": 3842,
      "Icahn": 3843,
      "closures": 3844,
      "igan": 3845,
      "improving": 3846,
      "Acc": 3847,
      "dealers": 3848,
      "transactions": 3849,
      "proposals": 3850,
      "Our": 3851,
      "obs": 3852,
      "plies": 3853,
      "Economic": 3854,
      "study": 3855,
      "Step": 3856,
      "Sil": 3857,
      "Ho": 3858,
      "95": 3859,
      "FO": 3860,
      "Now": 3861,
      "Board": 3862,
      "inventories": 3863,
      "Verizon": 3864,
      "producer": 3865,
      "missed": 3866,
      "keeping": 3867,
      "iP": 3868,
      "regard": 3869,
      "internal": 3870,
      "Raj": 3871,
      "appeal": 3872,
      "campaign": 3873,
      "Leslie": 3874,
      "Stearns": 3875,
      "significantly": 3876,
      "Dubai": 3877,
      "integr": 3878,
      "Despite": 3879,
      "Rock": 3880,
      "Sup": 3881,
      "alore": 3882,
      "deterior": 3883,
      "IL": 3884,
      "boosted": 3885,
      "computer": 3886,
      "People": 3887,
      "stage": 3888,
      "SPX": 3889,
      "irt": 3890,
      "Bangalore": 3891,
      "green": 3892,
      "placed": 3893,
      "More": 3894,
      "IBM": 3895,
      "MO": 3896,
      "PAR": 3897,
      "clearly": 3898,
      "Nom": 3899,
      "moil": 3900,
      "troubled": 3901,
      "criminal": 3902,
      "thous": 3903,
      "cru": 3904,
      "putting": 3905,
      "illing": 3906,
      "GMT": 3907,
      "Since": 3908,
      "nar": 3909,
      "associ": 3910,
      "Chris": 3911,
      "isher": 3912,
      "join": 3913,
      "nations": 3914,
      "jun": 3915,
      "aining": 3916,
      "Bernard": 3917,
      "reci": 3918,
      "Ama": 3919,
      "rein": 3920,
      "eu": 3921,
      "utual": 3922,
      "lose": 3923,
      "resources": 3924,
      "Trade": 3925,
      "ibly": 3926,
      "imum": 3927,
      "cand": 3928,
      "developing": 3929,
      "flation": 3930,
      "appeared": 3931,
      "turmoil": 3932,
      "Paris": 3933,
      "Francisco": 3934,
      "seg": 3935,
      "Athens": 3936,
      "pull": 3937,
      "deposit": 3938,
      "attack": 3939,
      "STR": 3940,
      "descr": 3941,
      "pping": 3942,
      "hundred": 3943,
      "utin": 3944,
      "charged": 3945,
      "Jose": 3946,
      "momentum": 3947,
      "UAW": 3948,
      "rop": 3949,
      "star": 3950,
      "affected": 3951,
      "posits": 3952,
      "SAN": 3953,
      "pain": 3954,
      "slipped": 3955,
      "Amazon": 3956,
      "swe": 3957,
      "obl": 3958,
      "Arab": 3959,
      "exam": 3960,
      "aware": 3961,
      "highs": 3962,
      "Banks": 3963,
      "decades": 3964,
      "gies": 3965,
      "hiring": 3966,
      "blow": 3967,
      "challenge": 3968,
      "CD": 3969,
      "decide": 3970,
      "slid": 3971,
      "Mit": 3972,
      "82": 3973,
      "steel": 3974,
      "MARKE": 3975,
      "passed": 3976,
      "Dutch": 3977,
      "rid": 3978,
      "parent": 3979,
      "deposits": 3980,
      "ane": 3981,
      "published": 3982,
      "defend": 3983,
      "stable": 3984,
      "website": 3985,
      "scen": 3986,
      "87": 3987,
      "83": 3988,
      "Dou": 3989,
      "fundament": 3990,
      "nothing": 3991,
      "Two": 3992,
      "consen": 3993,
      "BOJ": 3994,
      "Consumer": 3995,
      "video": 3996,
      "wait": 3997,
      "ACT": 3998,
      "stall": 3999,
      "imports": 4000,
      "Philip": 4001,
      "Democratic": 4002,
      "goal": 4003,
      "ura": 4004,
      "borrowers": 4005,
      "story": 4006,
      "Exxon": 4007,
      "sectors": 4008,
      "Edward": 4009,
      "anks": 4010,
      "86": 4011,
      "Cr": 4012,
      "techn": 4013,
      "mix": 4014,
      "uct": 4015,
      "bles": 4016,
      "Wil": 4017,
      "Most": 4018,
      "lawyers": 4019,
      "advantage": 4020,
      "elines": 4021,
      "conserv": 4022,
      "climbed": 4023,
      "ultim": 4024,
      "speech": 4025,
      "television": 4026,
      "Nik": 4027,
      "Although": 4028,
      "directly": 4029,
      "di": 4030,
      "hatt": 4031,
      "BER": 4032,
      "VX": 4033,
      "lic": 4034,
      "idUSL": 4035,
      "wel": 4036,
      "pul": 4037,
      "stance": 4038,
      "game": 4039,
      "remaining": 4040,
      "offs": 4041,
      "players": 4042,
      "corre": 4043,
      "mining": 4044,
      "His": 4045,
      "happen": 4046,
      "cause": 4047,
      "thy": 4048,
      "falls": 4049,
      "Revenue": 4050,
      "2004": 4051,
      "normal": 4052,
      "devices": 4053,
      "underlying": 4054,
      "Lock": 4055,
      "books": 4056,
      "designed": 4057,
      "reduction": 4058,
      "cas": 4059,
      "gent": 4060,
      "ination": 4061,
      "confirmed": 4062,
      "prosecutors": 4063,
      "subscr": 4064,
      "consensus": 4065,
      "shrink": 4066,
      "itzer": 4067,
      "ats": 4068,
      "complex": 4069,
      "downgrade": 4070,
      "debate": 4071,
      "spl": 4072,
      "iter": 4073,
      "Fore": 4074,
      "cker": 4075,
      "delivery": 4076,
      "pen": 4077,
      "congress": 4078,
      "mselves": 4079,
      "themselves": 4080,
      "72": 4081,
      "suffered": 4082,
      "KYO": 4083,
      "BN": 4084,
      "Mich": 4085,
      "faster": 4086,
      "presents": 4087,
      "moun": 4088,
      "ky": 4089,
      "worry": 4090,
      "EADS": 4091,
      "host": 4092,
      "Boston": 4093,
      "subject": 4094,
      "effective": 4095,
      "gets": 4096,
      "Airways": 4097,
      "jet": 4098,
      "stream": 4099,
      "profitable": 4100,
      "TOKYO": 4101,
      "73": 4102,
      "version": 4103,
      "audit": 4104,
      "repeated": 4105,
      "touch": 4106,
      "fifth": 4107,
      "haul": 4108,
      "risky": 4109,
      "Stempel": 4110,
      "Pas": 4111,
      "didn": 4112,
      "complete": 4113,
      "aims": 4114,
      "weather": 4115,
      "mostly": 4116,
      "ains": 4117,
      "damage": 4118,
      "nuclear": 4119,
      "250": 4120,
      "actually": 4121,
      "HK": 4122,
      "appears": 4123,
      "electric": 4124,
      "deadline": 4125,
      "preferred": 4126,
      "fee": 4127,
      "onto": 4128,
      "suits": 4129,
      "anti": 4130,
      "shoppers": 4131,
      "IV": 4132,
      "BB": 4133,
      "candid": 4134,
      "TE": 4135,
      "Eng": 4136,
      "practices": 4137,
      "Advis": 4138,
      "mar": 4139,
      "astructure": 4140,
      "omer": 4141,
      "messa": 4142,
      "shock": 4143,
      "franc": 4144,
      "ongoing": 4145,
      "doch": 4146,
      "narrow": 4147,
      "insurers": 4148,
      "requirements": 4149,
      "millions": 4150,
      "McCorm": 4151,
      "works": 4152,
      "Composite": 4153,
      "joined": 4154,
      "urged": 4155,
      "successful": 4156,
      "thousands": 4157,
      "gn": 4158,
      "tend": 4159,
      "eventually": 4160,
      "Bel": 4161,
      "healthcare": 4162,
      "rust": 4163,
      "Commun": 4164,
      "Qu": 4165,
      "Ru": 4166,
      "inject": 4167,
      "Those": 4168,
      "payrolls": 4169,
      "bi": 4170,
      "pip": 4171,
      "developed": 4172,
      "inqu": 4173,
      "immediate": 4174,
      "NBC": 4175,
      "save": 4176,
      "Delt": 4177,
      "According": 4178,
      "Treasuries": 4179,
      "ara": 4180,
      "advanced": 4181,
      "ency": 4182,
      "McCormick": 4183,
      "une": 4184,
      "2015": 4185,
      "active": 4186,
      "Delta": 4187,
      "hai": 4188,
      "supplies": 4189,
      "ipal": 4190,
      "SF": 4191,
      "hands": 4192,
      "Gerald": 4193,
      "insider": 4194,
      "Michigan": 4195,
      "highly": 4196,
      "polled": 4197,
      "committed": 4198,
      "Murdoch": 4199,
      "exceed": 4200,
      "names": 4201,
      "department": 4202,
      "Vi": 4203,
      "carry": 4204,
      "izer": 4205,
      "providing": 4206,
      "temporary": 4207,
      "condition": 4208,
      "rick": 4209,
      "hell": 4210,
      "Nic": 4211,
      "ledge": 4212,
      "gap": 4213,
      "Matt": 4214,
      "Brian": 4215,
      "men": 4216,
      "highlight": 4217,
      "flag": 4218,
      "BAN": 4219,
      "cat": 4220,
      "via": 4221,
      "Donald": 4222,
      "tool": 4223,
      "consistent": 4224,
      "Economists": 4225,
      "ched": 4226,
      "middle": 4227,
      "audi": 4228,
      "telecom": 4229,
      "sending": 4230,
      "fun": 4231,
      "san": 4232,
      "tion": 4233,
      "expensive": 4234,
      "Act": 4235,
      "FD": 4236,
      "beg": 4237,
      "guidance": 4238,
      "nes": 4239,
      "collateral": 4240,
      "Sprint": 4241,
      "critical": 4242,
      "manufacturers": 4243,
      "challenges": 4244,
      "performing": 4245,
      "TRO": 4246,
      "Ke": 4247,
      "closer": 4248,
      "prus": 4249,
      "onda": 4250,
      "ican": 4251,
      "relationship": 4252,
      "expenses": 4253,
      "gau": 4254,
      "ibor": 4255,
      "Mike": 4256,
      "hattan": 4257,
      "liers": 4258,
      "DJI": 4259,
      "spark": 4260,
      "specul": 4261,
      "Country": 4262,
      "wal": 4263,
      "sustainable": 4264,
      "Saudi": 4265,
      "controls": 4266,
      "china": 4267,
      "ounce": 4268,
      "Nick": 4269,
      "Excluding": 4270,
      "infrastructure": 4271,
      "Atl": 4272,
      "manage": 4273,
      "aker": 4274,
      "warning": 4275,
      "istance": 4276,
      "71": 4277,
      "fine": 4278,
      "ida": 4279,
      "mitted": 4280,
      "starts": 4281,
      "HO": 4282,
      "rig": 4283,
      "err": 4284,
      "priced": 4285,
      "swap": 4286,
      "guarantee": 4287,
      "consumption": 4288,
      "lows": 4289,
      "renew": 4290,
      "earned": 4291,
      "Representatives": 4292,
      "Brown": 4293,
      "BAC": 4294,
      "bloc": 4295,
      "allegations": 4296,
      "acted": 4297,
      "advisers": 4298,
      "800": 4299,
      "Dod": 4300,
      "inum": 4301,
      "swaps": 4302,
      "AGO": 4303,
      "pi": 4304,
      "heavily": 4305,
      "icians": 4306,
      "declining": 4307,
      "everything": 4308,
      "Manhattan": 4309,
      "Australian": 4310,
      "collect": 4311,
      "publicly": 4312,
      "substantial": 4313,
      "bear": 4314,
      "Russian": 4315,
      "earth": 4316,
      "issan": 4317,
      "opportunities": 4318,
      "spur": 4319,
      "VI": 4320,
      "Rob": 4321,
      "identified": 4322,
      "supervis": 4323,
      "susp": 4324,
      "initially": 4325,
      "wireless": 4326,
      "ny": 4327,
      "meetings": 4328,
      "Hen": 4329,
      "unchanged": 4330,
      "surance": 4331,
      "adviser": 4332,
      "oring": 4333,
      "object": 4334,
      "electronics": 4335,
      "Middle": 4336,
      "crunch": 4337,
      "tightening": 4338,
      "spir": 4339,
      "planning": 4340,
      "Blackstone": 4341,
      "solution": 4342,
      "travel": 4343,
      "2001": 4344,
      "Care": 4345,
      "carrier": 4346,
      "surv": 4347,
      "Judge": 4348,
      "Indian": 4349,
      "vast": 4350,
      "efore": 4351,
      "System": 4352,
      "solut": 4353,
      "zen": 4354,
      "inent": 4355,
      "obtain": 4356,
      "reve": 4357,
      "slowed": 4358,
      "BI": 4359,
      "King": 4360,
      "jud": 4361,
      "represents": 4362,
      "98": 4363,
      "ERS": 4364,
      "ots": 4365,
      "Hol": 4366,
      "ensions": 4367,
      "Lau": 4368,
      "High": 4369,
      "Vir": 4370,
      "bpd": 4371,
      "Another": 4372,
      "reducing": 4373,
      "disappointing": 4374,
      "feat": 4375,
      "suppliers": 4376,
      "iling": 4377,
      "xury": 4378,
      "Bas": 4379,
      "LS": 4380,
      "tank": 4381,
      "bucks": 4382,
      "Stanford": 4383,
      "ads": 4384,
      "expressed": 4385,
      "shopping": 4386,
      "ba": 4387,
      "vil": 4388,
      "managed": 4389,
      "finances": 4390,
      "ders": 4391,
      "Council": 4392,
      "boom": 4393,
      "agreements": 4394,
      "Charles": 4395,
      "iy": 4396,
      "itional": 4397,
      "partnership": 4398,
      "cul": 4399,
      "runs": 4400,
      "experience": 4401,
      "riers": 4402,
      "banker": 4403,
      "appropriate": 4404,
      "hundreds": 4405,
      "ishing": 4406,
      "CIT": 4407,
      "multi": 4408,
      "bolster": 4409,
      "ussels": 4410,
      "dispute": 4411,
      "unexpected": 4412,
      "withdraw": 4413,
      "Brussels": 4414,
      "2003": 4415,
      "char": 4416,
      "commission": 4417,
      "LP": 4418,
      "interested": 4419,
      "volatile": 4420,
      "surged": 4421,
      "ref": 4422,
      "CHI": 4423,
      "suggesting": 4424,
      "alternative": 4425,
      "Institute": 4426,
      "brokers": 4427,
      "Hy": 4428,
      "ATION": 4429,
      "completed": 4430,
      "mical": 4431,
      "extend": 4432,
      "cheap": 4433,
      "Jersey": 4434,
      "scenario": 4435,
      "icon": 4436,
      "agon": 4437,
      "CIS": 4438,
      "bs": 4439,
      "Im": 4440,
      "acknow": 4441,
      "Lee": 4442,
      "grap": 4443,
      "patent": 4444,
      "hor": 4445,
      "strengthen": 4446,
      "wit": 4447,
      "CHIC": 4448,
      "complaint": 4449,
      "foot": 4450,
      "ao": 4451,
      "Bur": 4452,
      "backs": 4453,
      "lan": 4454,
      "Nissan": 4455,
      "lymp": 4456,
      "meant": 4457,
      "astern": 4458,
      "Je": 4459,
      "describ": 4460,
      "affic": 4461,
      "frey": 4462,
      "factors": 4463,
      "weekly": 4464,
      "aur": 4465,
      "amat": 4466,
      "Honda": 4467,
      "quoted": 4468,
      "Cer": 4469,
      "easy": 4470,
      "CHICAGO": 4471,
      "rish": 4472,
      "valuation": 4473,
      "itzerland": 4474,
      "rises": 4475,
      "leadership": 4476,
      "quake": 4477,
      "histor": 4478,
      "various": 4479,
      "Oracle": 4480,
      "settled": 4481,
      "flex": 4482,
      "Du": 4483,
      "cit": 4484,
      "scrutin": 4485,
      "inary": 4486,
      "eper": 4487,
      "direction": 4488,
      "split": 4489,
      "interests": 4490,
      "Gren": 4491,
      "Pen": 4492,
      "pon": 4493,
      "wider": 4494,
      "Countrywide": 4495,
      "typically": 4496,
      "linked": 4497,
      "surge": 4498,
      "taxpayers": 4499,
      "fri": 4500,
      "Electric": 4501,
      "portion": 4502,
      "Analysis": 4503,
      "Switzerland": 4504,
      "Grenon": 4505,
      "ware": 4506,
      "meaning": 4507,
      "suffic": 4508,
      "Chang": 4509,
      "ason": 4510,
      "abs": 4511,
      "ateg": 4512,
      "Fitch": 4513,
      "Equ": 4514,
      "Pot": 4515,
      "otal": 4516,
      "milit": 4517,
      "bell": 4518,
      "Brad": 4519,
      "attention": 4520,
      "Irish": 4521,
      "clean": 4522,
      "driving": 4523,
      "CISCO": 4524,
      "ander": 4525,
      "medium": 4526,
      "optimistic": 4527,
      "bull": 4528,
      "aire": 4529,
      "Greg": 4530,
      "allowing": 4531,
      "gauge": 4532,
      "Flor": 4533,
      "facility": 4534,
      "stood": 4535,
      "investing": 4536,
      "Buy": 4537,
      "Warner": 4538,
      "usual": 4539,
      "coa": 4540,
      "cope": 4541,
      "FRANCISCO": 4542,
      "Mal": 4543,
      "Fort": 4544,
      "luxury": 4545,
      "compar": 4546,
      "Cyprus": 4547,
      "FIN": 4548,
      "gives": 4549,
      "Daniel": 4550,
      "cable": 4551,
      "Cost": 4552,
      "GO": 4553,
      "orter": 4554,
      "mainly": 4555,
      "downgrad": 4556,
      "generally": 4557,
      "expanding": 4558,
      "dramat": 4559,
      "FTC": 4560,
      "traditional": 4561,
      "steep": 4562,
      "sufficient": 4563,
      "MC": 4564,
      "Do": 4565,
      "Retail": 4566,
      "anticipated": 4567,
      "oblig": 4568,
      "opening": 4569,
      "Work": 4570,
      "except": 4571,
      "analysis": 4572,
      "pict": 4573,
      "ift": 4574,
      "lawsuits": 4575,
      "Trading": 4576,
      "believes": 4577,
      "sides": 4578,
      "obby": 4579,
      "ows": 4580,
      "lift": 4581,
      "FC": 4582,
      "fle": 4583,
      "yle": 4584,
      "Clear": 4585,
      "ded": 4586,
      "OC": 4587,
      "suggests": 4588,
      "dil": 4589,
      "Louis": 4590,
      "aimler": 4591,
      "stakes": 4592,
      "arrest": 4593,
      ".-": 4594,
      "marked": 4595,
      "goes": 4596,
      "pill": 4597,
      "produce": 4598,
      "elections": 4599,
      "resolve": 4600,
      "usually": 4601,
      "partly": 4602,
      "LA": 4603,
      "buyer": 4604,
      "cogn": 4605,
      "ani": 4606,
      "rew": 4607,
      "commitment": 4608,
      "argued": 4609,
      "exchanges": 4610,
      "opened": 4611,
      "caution": 4612,
      "Berlin": 4613,
      "trucks": 4614,
      "iem": 4615,
      "****": 4616,
      "Stephen": 4617,
      "echan": 4618,
      "?\"": 4619,
      "PP": 4620,
      "TA": 4621,
      "cell": 4622,
      "relief": 4623,
      "cross": 4624,
      "stem": 4625,
      "preced": 4626,
      "contrast": 4627,
      "initi": 4628,
      "unions": 4629,
      "voting": 4630,
      "mann": 4631,
      "CHIEF": 4632,
      "LIN": 4633,
      "Royal": 4634,
      "omb": 4635,
      "congressional": 4636,
      "becoming": 4637,
      "path": 4638,
      "dog": 4639,
      "offshore": 4640,
      "IR": 4641,
      "oods": 4642,
      "viously": 4643,
      "CON": 4644,
      "ECONOMIST": 4645,
      "reveal": 4646,
      "Olymp": 4647,
      "owed": 4648,
      "Jeffrey": 4649,
      "guil": 4650,
      "tumbled": 4651,
      "illed": 4652,
      "Is": 4653,
      "ga": 4654,
      "slide": 4655,
      "essential": 4656,
      "Banking": 4657,
      "rup": 4658,
      "coordin": 4659,
      "prelim": 4660,
      "drugs": 4661,
      "Mag": 4662,
      "20111": 4663,
      "Berry": 4664,
      "Ali": 4665,
      "ownership": 4666,
      "rout": 4667,
      "Sand": 4668,
      "TC": 4669,
      "merch": 4670,
      "digital": 4671,
      "disrupt": 4672,
      "denied": 4673,
      "enforce": 4674,
      "het": 4675,
      "Starbucks": 4676,
      "heart": 4677,
      "doubt": 4678,
      "edged": 4679,
      "recogn": 4680,
      "spr": 4681,
      "acquired": 4682,
      "fewer": 4683,
      "effects": 4684,
      "turnaround": 4685,
      "supported": 4686,
      "invested": 4687,
      "severe": 4688,
      "attempt": 4689,
      "formal": 4690,
      "possibly": 4691,
      "IXIC": 4692,
      "ancy": 4693,
      "politicians": 4694,
      "technical": 4695,
      "changing": 4696,
      "looked": 4697,
      "preliminary": 4698,
      "tow": 4699,
      "controlled": 4700,
      "downs": 4701,
      "97": 4702,
      "aries": 4703,
      "92": 4704,
      "ictions": 4705,
      "laws": 4706,
      "profile": 4707,
      "prompted": 4708,
      "expanded": 4709,
      "unveiled": 4710,
      "user": 4711,
      "foreclosure": 4712,
      "referring": 4713,
      "Florida": 4714,
      "AMR": 4715,
      "First": 4716,
      "monitor": 4717,
      "Banc": 4718,
      "competitors": 4719,
      "Adler": 4720,
      "Sum": 4721,
      "Ren": 4722,
      "slower": 4723,
      "2000": 4724,
      "Swed": 4725,
      "izu": 4726,
      "rock": 4727,
      "aghi": 4728,
      "complet": 4729,
      "Young": 4730,
      "lag": 4731,
      "authority": 4732,
      "profitability": 4733,
      "Brent": 4734,
      "achov": 4735,
      "antitrust": 4736,
      "farm": 4737,
      "Chevron": 4738,
      "elimin": 4739,
      "achovia": 4740,
      "tack": 4741,
      "EFSF": 4742,
      "hired": 4743,
      "employee": 4744,
      "responsible": 4745,
      "compete": 4746,
      "England": 4747,
      "applications": 4748,
      "Kraft": 4749,
      "efficient": 4750,
      "ALY": 4751,
      "optimism": 4752,
      "Trust": 4753,
      "ancing": 4754,
      "generation": 4755,
      "Angela": 4756,
      "achieve": 4757,
      "Cont": 4758,
      "BlackBerry": 4759,
      "music": 4760,
      "guilty": 4761,
      "Pet": 4762,
      "ently": 4763,
      "contraction": 4764,
      "traffic": 4765,
      "branch": 4766,
      "Motorola": 4767,
      "dealer": 4768,
      "Stocks": 4769,
      "Electron": 4770,
      "\",": 4771,
      "secured": 4772,
      "values": 4773,
      "ique": 4774,
      "Dave": 4775,
      "oles": 4776,
      "bonus": 4777,
      "Dobby": 4778,
      "Dobbyn": 4779,
      "hitting": 4780,
      "couple": 4781,
      "activities": 4782,
      "transport": 4783,
      "conservative": 4784,
      "liner": 4785,
      "warn": 4786,
      "crip": 4787,
      "robust": 4788,
      "indexes": 4789,
      "notes": 4790,
      "picture": 4791,
      "criticism": 4792,
      "Ev": 4793,
      "Wallace": 4794,
      "battery": 4795,
      "overhaul": 4796,
      "covered": 4797,
      "knowledge": 4798,
      "simply": 4799,
      "speaking": 4800,
      "crucial": 4801,
      "Libor": 4802,
      "Jobs": 4803,
      "mail": 4804,
      "princ": 4805,
      "operation": 4806,
      "arat": 4807,
      "JPM": 4808,
      "cards": 4809,
      "tried": 4810,
      "upta": 4811,
      "bills": 4812,
      "ez": 4813,
      "Tele": 4814,
      "Daimler": 4815,
      "ius": 4816,
      "heed": 4817,
      "attractive": 4818,
      "generate": 4819,
      "talking": 4820,
      "minutes": 4821,
      "reme": 4822,
      "ication": 4823,
      "MA": 4824,
      "restaur": 4825,
      "involve": 4826,
      "creating": 4827,
      "Virgin": 4828,
      "content": 4829,
      "Service": 4830,
      "confirm": 4831,
      "Among": 4832,
      "Tor": 4833,
      "tered": 4834,
      "consolidation": 4835,
      "occur": 4836,
      "fel": 4837,
      "approve": 4838,
      "Stores": 4839,
      "pipeline": 4840,
      "primary": 4841,
      "bour": 4842,
      "rare": 4843,
      "understand": 4844,
      "factories": 4845,
      "dut": 4846,
      "intended": 4847,
      "Dream": 4848,
      "Wind": 4849,
      "ips": 4850,
      "vention": 4851,
      "events": 4852,
      "Priv": 4853,
      "DETRO": 4854,
      "DETROIT": 4855,
      "secure": 4856,
      "pil": 4857,
      "kin": 4858,
      "20080": 4859,
      "MARKET": 4860,
      "Time": 4861,
      "Shang": 4862,
      "ministry": 4863,
      "eurozone": 4864,
      "TAR": 4865,
      "restore": 4866,
      "93": 4867,
      "bondholders": 4868,
      "BK": 4869,
      "stick": 4870,
      "oversight": 4871,
      "ered": 4872,
      "ulture": 4873,
      "mind": 4874,
      "iger": 4875,
      "worsen": 4876,
      "ously": 4877,
      "materials": 4878,
      "grant": 4879,
      "regulations": 4880,
      "SI": 4881,
      "ki": 4882,
      "match": 4883,
      "promise": 4884,
      "gone": 4885,
      "arko": 4886,
      "Western": 4887,
      "alum": 4888,
      "haps": 4889,
      "96": 4890,
      "link": 4891,
      "Wachovia": 4892,
      "About": 4893,
      "delayed": 4894,
      "ivity": 4895,
      "CR": 4896,
      "hl": 4897,
      "sites": 4898,
      "promised": 4899,
      "status": 4900,
      "pool": 4901,
      "umb": 4902,
      "94": 4903,
      "idUSTRE4": 4904,
      "cers": 4905,
      "amed": 4906,
      "passen": 4907,
      "eli": 4908,
      "effectively": 4909,
      "Best": 4910,
      "outcome": 4911,
      "kick": 4912,
      "KR": 4913,
      "formed": 4914,
      "Gupta": 4915,
      "Pap": 4916,
      "melt": 4917,
      "pra": 4918,
      "Eur": 4919,
      "oration": 4920,
      "neth": 4921,
      "Shanghai": 4922,
      "Ka": 4923,
      "ATEG": 4924,
      "Simon": 4925,
      "afford": 4926,
      "litigation": 4927,
      "nologies": 4928,
      "acknowled": 4929,
      "disclosed": 4930,
      "Kenneth": 4931,
      "STRATEG": 4932,
      "young": 4933,
      "retirement": 4934,
      "xy": 4935,
      "manip": 4936,
      "organization": 4937,
      "motive": 4938,
      "cher": 4939,
      "check": 4940,
      "limits": 4941,
      "reput": 4942,
      "ANALY": 4943,
      "Dodd": 4944,
      "military": 4945,
      "fal": 4946,
      "predicted": 4947,
      "kei": 4948,
      "mine": 4949,
      "SO": 4950,
      "2002": 4951,
      "unless": 4952,
      "atory": 4953,
      "ICH": 4954,
      "transp": 4955,
      "professor": 4956,
      "police": 4957,
      "incentives": 4958,
      "reaction": 4959,
      "ification": 4960,
      "taxpayer": 4961,
      "seeks": 4962,
      "Il": 4963,
      "Ry": 4964,
      "offee": 4965,
      "sensit": 4966,
      "Kel": 4967,
      "heads": 4968,
      "Henry": 4969,
      "Nikkei": 4970,
      "aints": 4971,
      "outstanding": 4972,
      "believed": 4973,
      "pressed": 4974,
      "Industry": 4975,
      "DI": 4976,
      "FDIC": 4977,
      "bringing": 4978,
      "volumes": 4979,
      "pow": 4980,
      "definit": 4981,
      "tied": 4982,
      "VER": 4983,
      "mach": 4984,
      "prepar": 4985,
      "played": 4986,
      "lobally": 4987,
      "pin": 4988,
      "deflation": 4989,
      "storm": 4990,
      "ofsky": 4991,
      "obligations": 4992,
      "ika": 4993,
      "criticized": 4994,
      "Penney": 4995,
      "ented": 4996,
      "Att": 4997,
      "lowing": 4998,
      "Pasch": 4999,
      "jets": 5000,
      "Lat": 5001,
      "recapital": 5002,
      "clusive": 5003,
      "digit": 5004,
      "aman": 5005,
      "Von": 5006,
      "discussed": 5007,
      "Bloom": 5008,
      "Cad": 5009,
      "EX": 5010,
      "Mont": 5011,
      "ides": 5012,
      "school": 5013,
      "document": 5014,
      "Alcoa": 5015,
      "mod": 5016,
      "warr": 5017,
      "fizer": 5018,
      "lowered": 5019,
      "standard": 5020,
      "voted": 5021,
      "stabilize": 5022,
      "cum": 5023,
      "joy": 5024,
      "scre": 5025,
      "arr": 5026,
      "load": 5027,
      "PRO": 5028,
      "factor": 5029,
      "og": 5030,
      "Administration": 5031,
      "views": 5032,
      "McDonald": 5033,
      "reiter": 5034,
      "bids": 5035,
      "20090": 5036,
      "minor": 5037,
      "vic": 5038,
      "expert": 5039,
      "bets": 5040,
      "ultimately": 5041,
      "described": 5042,
      "aside": 5043,
      "Cisco": 5044,
      "subsidi": 5045,
      "Fol": 5046,
      "Red": 5047,
      "Express": 5048,
      "platform": 5049,
      "Bull": 5050,
      "Draghi": 5051,
      "Total": 5052,
      "iffs": 5053,
      "remarks": 5054,
      "iber": 5055,
      "Los": 5056,
      "1990": 5057,
      "Carolina": 5058,
      "original": 5059,
      "Jack": 5060,
      "reserve": 5061,
      "unders": 5062,
      "91": 5063,
      "ois": 5064,
      "era": 5065,
      "Met": 5066,
      "recommend": 5067,
      "boosting": 5068,
      "resh": 5069,
      "autos": 5070,
      "TOR": 5071,
      "Emp": 5072,
      "calling": 5073,
      "ANALYST": 5074,
      "abin": 5075,
      "Insurance": 5076,
      "succeed": 5077,
      "wage": 5078,
      "Lloy": 5079,
      "ration": 5080,
      "Sar": 5081,
      "bub": 5082,
      "Christop": 5083,
      "spin": 5084,
      "perman": 5085,
      "ancell": 5086,
      "oul": 5087,
      "appreci": 5088,
      "indicated": 5089,
      "trends": 5090,
      "Ven": 5091,
      "bing": 5092,
      "ordered": 5093,
      "door": 5094,
      "trouble": 5095,
      "count": 5096,
      "electronic": 5097,
      "carriers": 5098,
      "hoped": 5099,
      "penal": 5100,
      "LES": 5101,
      "Health": 5102,
      "aratnam": 5103,
      "Bob": 5104,
      "SS": 5105,
      "deeper": 5106,
      "Big": 5107,
      "connect": 5108,
      "Any": 5109,
      "globally": 5110,
      "MANAG": 5111,
      "assum": 5112,
      "isted": 5113,
      "Private": 5114,
      "ailing": 5115,
      "cuit": 5116,
      "max": 5117,
      "LI": 5118,
      "ruled": 5119,
      "scrutiny": 5120,
      "Ray": 5121,
      "jury": 5122,
      "opin": 5123,
      "Disney": 5124,
      "pointed": 5125,
      "divers": 5126,
      "imes": 5127,
      "opposed": 5128,
      "URT": 5129,
      "Systems": 5130,
      "adel": 5131,
      "CP": 5132,
      "aylor": 5133,
      "payout": 5134,
      "sells": 5135,
      "smartphone": 5136,
      "BNP": 5137,
      "olf": 5138,
      "Real": 5139,
      "dated": 5140,
      "eased": 5141,
      "Ann": 5142,
      "onym": 5143,
      "correct": 5144,
      "sort": 5145,
      "shot": 5146,
      "prison": 5147,
      "surprised": 5148,
      "Cur": 5149,
      "forcing": 5150,
      "statements": 5151,
      "crash": 5152,
      "cycle": 5153,
      "multiple": 5154,
      "categ": 5155,
      "ancellor": 5156,
      "somewhat": 5157,
      "Develo": 5158,
      "acce": 5159,
      "Hay": 5160,
      "abilities": 5161,
      "oy": 5162,
      "mart": 5163,
      "founded": 5164,
      "EA": 5165,
      "projected": 5166,
      "responsibility": 5167,
      "cipl": 5168,
      "omet": 5169,
      "defaul": 5170,
      "KF": 5171,
      "Lag": 5172,
      "ari": 5173,
      "Sy": 5174,
      "Steven": 5175,
      "damages": 5176,
      "serve": 5177,
      "Ba": 5178,
      "Target": 5179,
      "debts": 5180,
      "MB": 5181,
      "foreclosures": 5182,
      "employers": 5183,
      "award": 5184,
      "MT": 5185,
      "puts": 5186,
      "fairly": 5187,
      "Jenn": 5188,
      "annel": 5189,
      "Southern": 5190,
      "pet": 5191,
      "900": 5192,
      "Shell": 5193,
      "augh": 5194,
      "crack": 5195,
      "Trans": 5196,
      "gather": 5197,
      "tick": 5198,
      "unclear": 5199,
      "acquire": 5200,
      "UP": 5201,
      "chips": 5202,
      "Asked": 5203,
      "asking": 5204,
      "Korean": 5205,
      "ifer": 5206,
      "SEN": 5207,
      "frag": 5208,
      "anta": 5209,
      "weighed": 5210,
      "segment": 5211,
      "pillar": 5212,
      "Grow": 5213,
      "mechan": 5214,
      "answer": 5215,
      "message": 5216,
      "town": 5217,
      "Pfizer": 5218,
      "Tai": 5219,
      "Jess": 5220,
      "confl": 5221,
      "Belg": 5222,
      "pending": 5223,
      "involving": 5224,
      "appointed": 5225,
      "PARIS": 5226,
      "za": 5227,
      "pursue": 5228,
      "billionaire": 5229,
      "inno": 5230,
      "thinking": 5231,
      "woes": 5232,
      "deficits": 5233,
      "Tel": 5234,
      "advance": 5235,
      "allows": 5236,
      "Zh": 5237,
      "combination": 5238,
      "Angeles": 5239,
      "iPad": 5240,
      "mac": 5241,
      "vari": 5242,
      "Ter": 5243,
      "networks": 5244,
      "INV": 5245,
      "--------": 5246,
      "itt": 5247,
      "roleum": 5248,
      "Life": 5249,
      "Patrick": 5250,
      "Hal": 5251,
      "Taylor": 5252,
      "antitative": 5253,
      "mas": 5254,
      "headed": 5255,
      "iro": 5256,
      "airs": 5257,
      "surprising": 5258,
      "CS": 5259,
      "repay": 5260,
      "CME": 5261,
      "assem": 5262,
      "Post": 5263,
      "height": 5264,
      "determine": 5265,
      "facilities": 5266,
      "Mean": 5267,
      "sued": 5268,
      "undai": 5269,
      "twice": 5270,
      "CAP": 5271,
      "draft": 5272,
      "producers": 5273,
      "Joseph": 5274,
      "Sol": 5275,
      "supplier": 5276,
      "Regul": 5277,
      "olesale": 5278,
      "isn": 5279,
      "icated": 5280,
      "ville": 5281,
      "wages": 5282,
      "deput": 5283,
      "coalition": 5284,
      "Meanwhile": 5285,
      "reaching": 5286,
      "colle": 5287,
      "perhaps": 5288,
      "Also": 5289,
      "layoffs": 5290,
      "Alan": 5291,
      "arkozy": 5292,
      "sets": 5293,
      "pledged": 5294,
      "backing": 5295,
      "lobby": 5296,
      "Social": 5297,
      "squee": 5298,
      "turning": 5299,
      "moderate": 5300,
      "Connect": 5301,
      "CFTC": 5302,
      "Holl": 5303,
      "hear": 5304,
      "IES": 5305,
      "structural": 5306,
      "minimum": 5307,
      "records": 5308,
      "Rajaratnam": 5309,
      "carmaker": 5310,
      "powers": 5311,
      "uc": 5312,
      "uggish": 5313,
      "ients": 5314,
      "reluct": 5315,
      "Attorney": 5316,
      "Mortg": 5317,
      "oud": 5318,
      "upward": 5319,
      "ball": 5320,
      "sured": 5321,
      "houses": 5322,
      "provides": 5323,
      "towards": 5324,
      "prise": 5325,
      "hoping": 5326,
      "Orr": 5327,
      "bury": 5328,
      "eller": 5329,
      "wake": 5330,
      "130": 5331,
      "device": 5332,
      "spons": 5333,
      "Organ": 5334,
      "chemical": 5335,
      "task": 5336,
      "leak": 5337,
      "Indones": 5338,
      "intervention": 5339,
      "rated": 5340,
      "Following": 5341,
      "quantitative": 5342,
      "Electronics": 5343,
      "stor": 5344,
      "Sarkozy": 5345,
      "file": 5346,
      "sel": 5347,
      "headquarters": 5348,
      "Communications": 5349,
      "francs": 5350,
      "encore": 5351,
      "computers": 5352,
      "watched": 5353,
      "encouraging": 5354,
      "ABN": 5355,
      "hike": 5356,
      "umping": 5357,
      "RA": 5358,
      "ksw": 5359,
      "Jean": 5360,
      "downward": 5361,
      "plunged": 5362,
      "sound": 5363,
      "avi": 5364,
      "danger": 5365,
      "reputation": 5366,
      "drilling": 5367,
      "Mortgage": 5368,
      "magaz": 5369,
      "component": 5370,
      "delays": 5371,
      "consecutive": 5372,
      "kswagen": 5373,
      "orn": 5374,
      "burden": 5375,
      "discussion": 5376,
      "Lockheed": 5377,
      "Cap": 5378,
      "Ryan": 5379,
      "sluggish": 5380,
      "Overall": 5381,
      "adequ": 5382,
      "tit": 5383,
      "ada": 5384,
      "apping": 5385,
      "failing": 5386,
      "extent": 5387,
      "governance": 5388,
      "medical": 5389,
      "challenging": 5390,
      "Author": 5391,
      "Ira": 5392,
      "investigations": 5393,
      "struck": 5394,
      "everyone": 5395,
      "Ron": 5396,
      "leverage": 5397,
      "acting": 5398,
      "Ell": 5399,
      "triggered": 5400,
      "IJ": 5401,
      "cliff": 5402,
      "icut": 5403,
      "weakening": 5404,
      "Windows": 5405,
      "gam": 5406,
      "proxy": 5407,
      "JO": 5408,
      "ita": 5409,
      "reasons": 5410,
      "nomin": 5411,
      "STRATEGIST": 5412,
      "Timo": 5413,
      "slashed": 5414,
      "black": 5415,
      "iveness": 5416,
      "timing": 5417,
      "Wood": 5418,
      "Fel": 5419,
      "tries": 5420,
      "ini": 5421,
      "tougher": 5422,
      "protest": 5423,
      "eye": 5424,
      "cz": 5425,
      "Jennifer": 5426,
      "Pu": 5427,
      "mond": 5428,
      "Ahn": 5429,
      "cool": 5430,
      "ranging": 5431,
      "coffee": 5432,
      "rovers": 5433,
      "Hyundai": 5434,
      "vul": 5435,
      "ichet": 5436,
      "NC": 5437,
      "Pan": 5438,
      "fili": 5439,
      "influence": 5440,
      "Connecticut": 5441,
      "berus": 5442,
      "Advisors": 5443,
      "fru": 5444,
      "Dh": 5445,
      "assu": 5446,
      "Enter": 5447,
      "visit": 5448,
      "extrem": 5449,
      "threatened": 5450,
      "omo": 5451,
      "overnight": 5452,
      "Timothy": 5453,
      "emerged": 5454,
      "controvers": 5455,
      "pting": 5456,
      "FRANKF": 5457,
      "introduced": 5458,
      "vulner": 5459,
      "FRANKFURT": 5460,
      "aluminum": 5461,
      "til": 5462,
      "iller": 5463,
      "consort": 5464,
      "equival": 5465,
      "fastest": 5466,
      "easier": 5467,
      "chains": 5468,
      "resolution": 5469,
      "Agr": 5470,
      "QU": 5471,
      "araman": 5472,
      "plaint": 5473,
      "operators": 5474,
      "Bloomberg": 5475,
      "Miller": 5476,
      "BU": 5477,
      "CV": 5478,
      "PE": 5479,
      "mal": 5480,
      "unable": 5481,
      "powerful": 5482,
      "practice": 5483,
      "shown": 5484,
      "bailouts": 5485,
      "mic": 5486,
      "advisory": 5487,
      "anonym": 5488,
      "concess": 5489,
      "Direct": 5490,
      "During": 5491,
      "cheaper": 5492,
      "represented": 5493,
      "pence": 5494,
      "properties": 5495,
      "representing": 5496,
      "floor": 5497,
      "ITY": 5498,
      "disaster": 5499,
      "ordinary": 5500,
      "pulled": 5501,
      "peers": 5502,
      "presence": 5503,
      "feed": 5504,
      "served": 5505,
      "provider": 5506,
      "institutional": 5507,
      "type": 5508,
      "mutual": 5509,
      "watchdog": 5510,
      "osh": 5511,
      "choice": 5512,
      "consortium": 5513,
      "struggled": 5514,
      "votes": 5515,
      "INVEST": 5516,
      "enforcement": 5517,
      "rapidly": 5518,
      "Mil": 5519,
      "guarantees": 5520,
      "KKR": 5521,
      "metals": 5522,
      "Cu": 5523,
      "elsewhere": 5524,
      "vin": 5525,
      "governor": 5526,
      "raises": 5527,
      "Cerberus": 5528,
      "Christopher": 5529,
      "extremely": 5530,
      "stopped": 5531,
      "termin": 5532,
      "uted": 5533,
      "Mobile": 5534,
      "disclose": 5535,
      "authorized": 5536,
      "Every": 5537,
      "operate": 5538,
      "halt": 5539,
      "waiting": 5540,
      "guard": 5541,
      "Nomura": 5542,
      "sized": 5543,
      "vy": 5544,
      "Andrea": 5545,
      "Neil": 5546,
      "glomer": 5547,
      "Latin": 5548,
      "noting": 5549,
      "Warren": 5550,
      ".'": 5551,
      "beating": 5552,
      "Center": 5553,
      "friend": 5554,
      "Such": 5555,
      "conglomer": 5556,
      "smo": 5557,
      "Growth": 5558,
      "VE": 5559,
      "predict": 5560,
      "compliance": 5561,
      "istics": 5562,
      "skept": 5563,
      "blamed": 5564,
      "PRES": 5565,
      "cities": 5566,
      "child": 5567,
      "originally": 5568,
      "Olympus": 5569,
      "TARP": 5570,
      "Rec": 5571,
      "earthquake": 5572,
      "Develop": 5573,
      "Depot": 5574,
      "BEIJ": 5575,
      "Jessica": 5576,
      "creation": 5577,
      "engines": 5578,
      "Chancellor": 5579,
      "ifying": 5580,
      "BEIJING": 5581,
      "copper": 5582,
      "Fact": 5583,
      "Of": 5584,
      "Economics": 5585,
      "affili": 5586,
      "izes": 5587,
      "Evans": 5588,
      "CA": 5589,
      "20070": 5590,
      "healthy": 5591,
      "theast": 5592,
      "acknowledged": 5593,
      "opinion": 5594,
      "deputy": 5595,
      "dur": 5596,
      "king": 5597,
      "satis": 5598,
      "Taiwan": 5599,
      "stepped": 5600,
      "Data": 5601,
      "pct": 5602,
      "instru": 5603,
      "esape": 5604,
      "blue": 5605,
      "esapeake": 5606,
      "Oper": 5607,
      "innov": 5608,
      "wave": 5609,
      "Party": 5610,
      "Kat": 5611,
      "shad": 5612,
      "smartphones": 5613,
      "definitely": 5614,
      "Jeff": 5615,
      "explo": 5616,
      "Fisher": 5617,
      "wise": 5618,
      "tainment": 5619,
      "requests": 5620,
      "immer": 5621,
      "residential": 5622,
      "reiterated": 5623,
      "strongly": 5624,
      "convin": 5625,
      "iana": 5626,
      "delivered": 5627,
      "lifted": 5628,
      "priority": 5629,
      "Volkswagen": 5630,
      "ram": 5631,
      "apter": 5632,
      "Toronto": 5633,
      "ishi": 5634,
      "Trichet": 5635,
      "established": 5636,
      "GH": 5637,
      "Not": 5638,
      "returned": 5639,
      "subsidies": 5640,
      "distribution": 5641,
      "Given": 5642,
      "Glencore": 5643,
      "participants": 5644,
      "writed": 5645,
      "felt": 5646,
      "Merck": 5647,
      "finding": 5648,
      "MSCI": 5649,
      "Fox": 5650,
      "workforce": 5651,
      "sensitive": 5652,
      "Sever": 5653,
      "consequ": 5654,
      "Iraq": 5655,
      "BANK": 5656,
      "contain": 5657,
      "mixed": 5658,
      "wood": 5659,
      "USSE": 5660,
      "median": 5661,
      "developments": 5662,
      "permanent": 5663,
      "NA": 5664,
      "calcul": 5665,
      "throughout": 5666,
      "sheets": 5667,
      "magazine": 5668,
      "suspect": 5669,
      "Workers": 5670,
      "tap": 5671,
      "COMM": 5672,
      "owski": 5673,
      "operates": 5674,
      "PMI": 5675,
      "clearing": 5676,
      "erospace": 5677,
      "macro": 5678,
      "ima": 5679,
      "estimony": 5680,
      "Frankfur": 5681,
      "send": 5682,
      "band": 5683,
      "rum": 5684,
      "Soc": 5685,
      "LAN": 5686,
      "thirds": 5687,
      "written": 5688,
      "households": 5689,
      "Foreign": 5690,
      "reasonable": 5691,
      "NAS": 5692,
      "ena": 5693,
      "Mau": 5694,
      "Rom": 5695,
      "exact": 5696,
      "Government": 5697,
      "subscrib": 5698,
      "Fut": 5699,
      "transfer": 5700,
      "flood": 5701,
      "Arabia": 5702,
      "ado": 5703,
      "Scot": 5704,
      "decl": 5705,
      "pact": 5706,
      "Whit": 5707,
      "Development": 5708,
      "live": 5709,
      "harder": 5710,
      "BMW": 5711,
      "reen": 5712,
      "Vice": 5713,
      "Bav": 5714,
      "shipments": 5715,
      "string": 5716,
      "Dimon": 5717,
      "testimony": 5718,
      "ials": 5719,
      "idUSTRE49": 5720,
      "frequ": 5721,
      "aterpillar": 5722,
      "Carl": 5723,
      "lands": 5724,
      "reflected": 5725,
      "Ker": 5726,
      "fleet": 5727,
      "Gn": 5728,
      "NS": 5729,
      "Ty": 5730,
      "Northern": 5731,
      "regions": 5732,
      "begun": 5733,
      "downside": 5734,
      "determined": 5735,
      "zz": 5736,
      "grown": 5737,
      "industries": 5738,
      "BRUSSE": 5739,
      "BRUSSELS": 5740,
      "hart": 5741,
      "filings": 5742,
      "Av": 5743,
      "PH": 5744,
      "Joe": 5745,
      "utical": 5746,
      "Equity": 5747,
      "arel": 5748,
      "BL": 5749,
      "sach": 5750,
      "usion": 5751,
      "presidential": 5752,
      "SAC": 5753,
      "TER": 5754,
      "cel": 5755,
      "Super": 5756,
      "thanks": 5757,
      "hybrid": 5758,
      "lined": 5759,
      "experien": 5760,
      "350": 5761,
      "household": 5762,
      "plead": 5763,
      "intens": 5764,
      "flu": 5765,
      "hikes": 5766,
      "spring": 5767,
      "DS": 5768,
      "doubled": 5769,
      "reflecting": 5770,
      "Nicol": 5771,
      "Emily": 5772,
      "community": 5773,
      "disappointed": 5774,
      "Robin": 5775,
      "pharm": 5776,
      "pickup": 5777,
      "si": 5778,
      "renewed": 5779,
      "equivalent": 5780,
      "appet": 5781,
      "OK": 5782,
      "Peters": 5783,
      "fighting": 5784,
      "uggle": 5785,
      "rallied": 5786,
      "respectively": 5787,
      "thal": 5788,
      "abroad": 5789,
      "spoke": 5790,
      "pound": 5791,
      "mergers": 5792,
      "TI": 5793,
      "dividends": 5794,
      "thus": 5795,
      "contributed": 5796,
      "owitz": 5797,
      "amounts": 5798,
      "patents": 5799,
      "SocGen": 5800,
      "funded": 5801,
      "ITAL": 5802,
      "demon": 5803,
      "balances": 5804,
      "gaining": 5805,
      "G7": 5806,
      "soared": 5807,
      "Media": 5808,
      "absolut": 5809,
      "sidelines": 5810,
      "dependence": 5811,
      "burg": 5812,
      "aceutical": 5813,
      "lab": 5814,
      "Cir": 5815,
      "helps": 5816,
      "CNBC": 5817,
      "ager": 5818,
      "ANGE": 5819,
      "langu": 5820,
      "Scha": 5821,
      "individuals": 5822,
      "disclosure": 5823,
      "Hung": 5824,
      "Separ": 5825,
      "trustee": 5826,
      "Dreamliner": 5827,
      "GA": 5828,
      "Out": 5829,
      "upside": 5830,
      "himself": 5831,
      "Dal": 5832,
      "eron": 5833,
      "assistance": 5834,
      "Maureen": 5835,
      "Karen": 5836,
      "Rat": 5837,
      "From": 5838,
      "happened": 5839,
      "FE": 5840,
      "Chesapeake": 5841,
      "Kar": 5842,
      "demands": 5843,
      "investigating": 5844,
      "IGH": 5845,
      "drink": 5846,
      "struggle": 5847,
      "born": 5848,
      "switch": 5849,
      "Orl": 5850,
      "aught": 5851,
      "cluded": 5852,
      "ira": 5853,
      "Soci": 5854,
      "seasonally": 5855,
      "conglomerate": 5856,
      "CBO": 5857,
      "Fre": 5858,
      "somet": 5859,
      "Speak": 5860,
      "cia": 5861,
      "dict": 5862,
      "Caterpillar": 5863,
      "Great": 5864,
      "Tur": 5865,
      "Qat": 5866,
      "ule": 5867,
      "arbit": 5868,
      "istry": 5869,
      "arde": 5870,
      "ENTS": 5871,
      "Orlofsky": 5872,
      "territ": 5873,
      "Holland": 5874,
      "dismissed": 5875,
      "resume": 5876,
      "burn": 5877,
      "USA": 5878,
      "hack": 5879,
      "Pent": 5880,
      "dek": 5881,
      "fill": 5882,
      "sustained": 5883,
      "BT": 5884,
      "strata": 5885,
      "Bec": 5886,
      "igence": 5887,
      "Employ": 5888,
      "barg": 5889,
      "ano": 5890,
      "Tinto": 5891,
      "Stability": 5892,
      "tools": 5893,
      "seat": 5894,
      "deed": 5895,
      "surplus": 5896,
      "provision": 5897,
      "WTO": 5898,
      "stag": 5899,
      "wealthy": 5900,
      "convert": 5901,
      "assessment": 5902,
      "bott": 5903,
      "appetite": 5904,
      "Card": 5905,
      "dealing": 5906,
      "Bavdek": 5907,
      "forces": 5908,
      "Frankfurt": 5909,
      "precedented": 5910,
      "OS": 5911,
      "ana": 5912,
      "requires": 5913,
      "targeted": 5914,
      "Jason": 5915,
      "QE": 5916,
      "sparked": 5917,
      "sanctions": 5918,
      "bac": 5919,
      "artz": 5920,
      "apply": 5921,
      "Day": 5922,
      "ken": 5923,
      "leveraged": 5924,
      "Nob": 5925,
      "viewed": 5926,
      "iyama": 5927,
      "prop": 5928,
      "rence": 5929,
      "unexpectedly": 5930,
      "veter": 5931,
      "ALL": 5932,
      "FTSE": 5933,
      "clar": 5934,
      "phia": 5935,
      "signaled": 5936,
      "Ap": 5937,
      "impl": 5938,
      "Adv": 5939,
      "CAPITAL": 5940,
      "Dor": 5941,
      "ternal": 5942,
      "Zimmer": 5943,
      "adop": 5944,
      "haw": 5945,
      "201206": 5946,
      "helle": 5947,
      "generated": 5948,
      "WE": 5949,
      "homeowners": 5950,
      "recorded": 5951,
      "commitments": 5952,
      "ining": 5953,
      "collapsed": 5954,
      "CL": 5955,
      "hed": 5956,
      "tighter": 5957,
      "radio": 5958,
      "Baker": 5959,
      "unprecedented": 5960,
      "Authority": 5961,
      "sil": 5962,
      "broadly": 5963,
      "metal": 5964,
      "ete": 5965,
      "Cadbury": 5966,
      "bly": 5967,
      "sho": 5968,
      "Pep": 5969,
      "Christmas": 5970,
      "eping": 5971,
      "telephone": 5972,
      "uge": 5973,
      "alliance": 5974,
      "illegal": 5975,
      "Chan": 5976,
      "Commodit": 5977,
      "emy": 5978,
      "favorable": 5979,
      "repeatedly": 5980,
      "Cow": 5981,
      "cabin": 5982,
      "Dun": 5983,
      "ague": 5984,
      "suring": 5985,
      "afone": 5986,
      "odafone": 5987,
      "Mobil": 5988,
      "ody": 5989,
      "offices": 5990,
      "missing": 5991,
      "etts": 5992,
      "ester": 5993,
      "PG": 5994,
      "Barry": 5995,
      "lett": 5996,
      "iamond": 5997,
      "inger": 5998,
      "ework": 5999,
      "register": 6000,
      "emphas": 6001,
      "pert": 6002,
      "Lloyds": 6003,
      "player": 6004,
      "acing": 6005,
      "imposed": 6006,
      "aine": 6007,
      "Clark": 6008,
      "Governor": 6009,
      "Bund": 6010,
      "LG": 6011,
      "Oh": 6012,
      "vulnerable": 6013,
      "HE": 6014,
      "onext": 6015,
      "ceiling": 6016,
      "Argent": 6017,
      "Continent": 6018,
      "LOS": 6019,
      "flights": 6020,
      "departure": 6021,
      "aggressively": 6022,
      "conducted": 6023,
      "oft": 6024,
      "Hew": 6025,
      "VW": 6026,
      "broadcast": 6027,
      "Indonesia": 6028,
      "happy": 6029,
      "Schw": 6030,
      "Hous": 6031,
      "encourage": 6032,
      "Several": 6033,
      "Ve": 6034,
      "accounted": 6035,
      "Deep": 6036,
      "Coast": 6037,
      "Ban": 6038,
      "restrictions": 6039,
      "Publ": 6040,
      "Continental": 6041,
      "fit": 6042,
      "components": 6043,
      "refinery": 6044,
      "doubts": 6045,
      "proced": 6046,
      "gm": 6047,
      "tackle": 6048,
      "Sarah": 6049,
      "Hur": 6050,
      "Isl": 6051,
      "comfor": 6052,
      "exer": 6053,
      "bidding": 6054,
      "enh": 6055,
      "proceeds": 6056,
      "GRO": 6057,
      "follows": 6058,
      "obtained": 6059,
      "stances": 6060,
      "NER": 6061,
      "questioned": 6062,
      "Mul": 6063,
      "Gross": 6064,
      "Penn": 6065,
      "illy": 6066,
      "topped": 6067,
      "purchasing": 6068,
      "Gal": 6069,
      "Hou": 6070,
      "icts": 6071,
      "produced": 6072,
      "winning": 6073,
      "eh": 6074,
      "icit": 6075,
      "soaring": 6076,
      "tablet": 6077,
      "Whe": 6078,
      "mention": 6079,
      "excessive": 6080,
      "ezuel": 6081,
      "Housing": 6082,
      "emerge": 6083,
      "Liby": 6084,
      "display": 6085,
      "1990s": 6086,
      "concessions": 6087,
      "Long": 6088,
      "FA": 6089,
      "Andro": 6090,
      "micro": 6091,
      "Circuit": 6092,
      "drew": 6093,
      "Def": 6094,
      "relations": 6095,
      "volunt": 6096,
      "Pentagon": 6097,
      "educ": 6098,
      "span": 6099,
      "STON": 6100,
      "attle": 6101,
      "Android": 6102,
      "reflects": 6103,
      "argue": 6104,
      "Basel": 6105,
      "Jac": 6106,
      "fortun": 6107,
      "Son": 6108,
      "Saab": 6109,
      "Supreme": 6110,
      "select": 6111,
      "external": 6112,
      "elling": 6113,
      "matic": 6114,
      "Medic": 6115,
      "associated": 6116,
      "DU": 6117,
      "Shar": 6118,
      "125": 6119,
      "offerings": 6120,
      "bridge": 6121,
      "tail": 6122,
      "stern": 6123,
      "posts": 6124,
      "BlackRock": 6125,
      "Euronext": 6126,
      "aced": 6127,
      "bler": 6128,
      "iversal": 6129,
      "critics": 6130,
      "ying": 6131,
      "pect": 6132,
      "tie": 6133,
      "circum": 6134,
      "curb": 6135,
      "costly": 6136,
      "refinancing": 6137,
      "201209": 6138,
      "reverse": 6139,
      "adelphia": 6140,
      "subscribers": 6141,
      "outr": 6142,
      "Van": 6143,
      "fro": 6144,
      "dipped": 6145,
      "medic": 6146,
      "ptions": 6147,
      "plaintiffs": 6148,
      "bubble": 6149,
      "203": 6150,
      "finally": 6151,
      "recovering": 6152,
      "page": 6153,
      "arency": 6154,
      "Philadelphia": 6155,
      "regarding": 6156,
      "pump": 6157,
      "troubles": 6158,
      "Company": 6159,
      "Pay": 6160,
      "Tak": 6161,
      "wouldn": 6162,
      "candidate": 6163,
      "hood": 6164,
      "aba": 6165,
      "inquir": 6166,
      "cha": 6167,
      "flexibility": 6168,
      "Low": 6169,
      "reluctant": 6170,
      "Rel": 6171,
      "arrange": 6172,
      "Ze": 6173,
      "oto": 6174,
      "preparing": 6175,
      "servic": 6176,
      "bidders": 6177,
      "conn": 6178,
      "complaints": 6179,
      "MP": 6180,
      "Twit": 6181,
      "Chapter": 6182,
      "completely": 6183,
      "ORT": 6184,
      "ibas": 6185,
      "install": 6186,
      "expectation": 6187,
      "Twitter": 6188,
      "MER": 6189,
      "Xstrata": 6190,
      "KB": 6191,
      "Master": 6192,
      "Chizu": 6193,
      "park": 6194,
      "keen": 6195,
      "Steel": 6196,
      "easily": 6197,
      "bulk": 6198,
      "Nomiyama": 6199,
      "replaced": 6200,
      "true": 6201,
      "weakened": 6202,
      "Mary": 6203,
      "Vodafone": 6204,
      "ta": 6205,
      "obviously": 6206,
      "GMAC": 6207,
      "Zimmerman": 6208,
      "ellen": 6209,
      "Separately": 6210,
      "tox": 6211,
      "BAR": 6212,
      "Investments": 6213,
      "ression": 6214,
      "broke": 6215,
      "minority": 6216,
      "asket": 6217,
      "SY": 6218,
      "ills": 6219,
      "comed": 6220,
      "entered": 6221,
      "finished": 6222,
      "focusing": 6223,
      "drawn": 6224,
      "Liber": 6225,
      "sachus": 6226,
      "publish": 6227,
      "employed": 6228,
      "Macy": 6229,
      "DR": 6230,
      "revealed": 6231,
      "inspect": 6232,
      "fundamentals": 6233,
      "advised": 6234,
      "integration": 6235,
      "rot": 6236,
      "weakest": 6237,
      "handle": 6238,
      "negotiating": 6239,
      "Hel": 6240,
      "climate": 6241,
      "Atlantic": 6242,
      "FL": 6243,
      "cooperation": 6244,
      "southern": 6245,
      "ches": 6246,
      "bright": 6247,
      "ECD": 6248,
      "fueled": 6249,
      "sachusetts": 6250,
      "mist": 6251,
      "lyn": 6252,
      "treatment": 6253,
      "Cameron": 6254,
      "dd": 6255,
      "enda": 6256,
      "Bankrupt": 6257,
      "Top": 6258,
      "gree": 6259,
      "negotiate": 6260,
      "TD": 6261,
      "eled": 6262,
      "comfortable": 6263,
      "Mutual": 6264,
      "Paschal": 6265,
      "prises": 6266,
      "OECD": 6267,
      "establish": 6268,
      "cancer": 6269,
      "Dollar": 6270,
      "Ku": 6271,
      "Sk": 6272,
      "rail": 6273,
      "Paribas": 6274,
      "wrongdoing": 6275,
      "lining": 6276,
      "andon": 6277,
      "strongest": 6278,
      "subsidiary": 6279,
      "reh": 6280,
      "eland": 6281,
      "ambit": 6282,
      "indicators": 6283,
      "aut": 6284,
      "Supp": 6285,
      "victim": 6286,
      "Pack": 6287,
      "Ministry": 6288,
      "memo": 6289,
      "merchand": 6290,
      "producing": 6291,
      "Ram": 6292,
      "notice": 6293,
      "ups": 6294,
      "Glenn": 6295,
      "Three": 6296,
      "accom": 6297,
      "slowly": 6298,
      "Futures": 6299,
      "Price": 6300,
      "Qatar": 6301,
      "agric": 6302,
      "artis": 6303,
      "maybe": 6304,
      "Bal": 6305,
      "Organization": 6306,
      "contribute": 6307,
      "trim": 6308,
      "poses": 6309,
      "restructure": 6310,
      "Lagarde": 6311,
      "triple": 6312,
      "sole": 6313,
      "secret": 6314,
      "agu": 6315,
      "tradition": 6316,
      "ource": 6317,
      "resigned": 6318,
      "Massachusetts": 6319,
      "dies": 6320,
      "exposed": 6321,
      "dive": 6322,
      "matur": 6323,
      "ubs": 6324,
      "BOSTON": 6325,
      "1999": 6326,
      "branches": 6327,
      "icate": 6328,
      "expense": 6329,
      "mature": 6330,
      "recovered": 6331,
      "iemens": 6332,
      "ILL": 6333,
      "Yet": 6334,
      "gall": 6335,
      "inside": 6336,
      "downgraded": 6337,
      "incident": 6338,
      "Squ": 6339,
      "playing": 6340,
      "properly": 6341,
      "FINAN": 6342,
      "basket": 6343,
      "privately": 6344,
      "corrupt": 6345,
      "Ham": 6346,
      "provisions": 6347,
      "NG": 6348,
      "principal": 6349,
      "ultural": 6350,
      "fragile": 6351,
      "Block": 6352,
      "Here": 6353,
      "choo": 6354,
      "strip": 6355,
      "revive": 6356,
      "shing": 6357,
      "Senator": 6358,
      "Product": 6359,
      "attacks": 6360,
      "retain": 6361,
      "performed": 6362,
      "phase": 6363,
      "headline": 6364,
      "Venezuel": 6365,
      "anonymity": 6366,
      "solar": 6367,
      "necessarily": 6368,
      "efficien": 6369,
      "tar": 6370,
      "discounts": 6371,
      "Williams": 6372,
      "Houston": 6373,
      "sports": 6374,
      "transparency": 6375,
      "ICE": 6376,
      "supervision": 6377,
      "shutdown": 6378,
      "irtz": 6379,
      "wholesale": 6380,
      "bullish": 6381,
      "Magna": 6382,
      "chec": 6383,
      "Caroline": 6384,
      "professional": 6385,
      "defendants": 6386,
      "function": 6387,
      "IOR": 6388,
      "difference": 6389,
      "stands": 6390,
      "survive": 6391,
      "tro": 6392,
      "tharaman": 6393,
      "betting": 6394,
      "receiving": 6395,
      "listing": 6396,
      "dramatic": 6397,
      "incentive": 6398,
      "mounting": 6399,
      "det": 6400,
      "udential": 6401,
      "CFO": 6402,
      "virt": 6403,
      "ISM": 6404,
      "201207": 6405,
      "orate": 6406,
      "orsche": 6407,
      "click": 6408,
      "750": 6409,
      "theless": 6410,
      "heading": 6411,
      "greece": 6412,
      "watching": 6413,
      "alloc": 6414,
      "heim": 6415,
      "Consumers": 6416,
      "Hor": 6417,
      "Wolf": 6418,
      "subishi": 6419,
      "ilies": 6420,
      "tone": 6421,
      "fli": 6422,
      "Cham": 6423,
      "mits": 6424,
      "western": 6425,
      "salary": 6426,
      "passenger": 6427,
      "Before": 6428,
      "raw": 6429,
      "unusual": 6430,
      "shortfall": 6431,
      "detailed": 6432,
      "environmental": 6433,
      "Delaware": 6434,
      "Foods": 6435,
      "evalu": 6436,
      "dozen": 6437,
      "defaults": 6438,
      "knew": 6439,
      "225": 6440,
      "games": 6441,
      "sellers": 6442,
      "toxic": 6443,
      "iding": 6444,
      "SUV": 6445,
      "aerospace": 6446,
      "resort": 6447,
      "portfolios": 6448,
      "attr": 6449,
      "1980": 6450,
      "Ohio": 6451,
      "WA": 6452,
      "agenda": 6453,
      "supporting": 6454,
      "distressed": 6455,
      "^^^^^^^^^^^^^^^^^^^^^^^^^^^^^^^^": 6456,
      "Nat": 6457,
      "eft": 6458,
      "Mr": 6459,
      "siders": 6460,
      "picked": 6461,
      "Companies": 6462,
      "euble": 6463,
      "Cable": 6464,
      "Power": 6465,
      "communications": 6466,
      "Petroleum": 6467,
      "ables": 6468,
      "FACT": 6469,
      "icy": 6470,
      "anyone": 6471,
      "Ross": 6472,
      "icipal": 6473,
      "ulli": 6474,
      "boss": 6475,
      "idUSBRE89": 6476,
      "warrant": 6477,
      "scope": 6478,
      "schedule": 6479,
      "utility": 6480,
      "debut": 6481,
      "avy": 6482,
      "Wo": 6483,
      "chances": 6484,
      "consulting": 6485,
      "Major": 6486,
      "hire": 6487,
      "pread": 6488,
      "MG": 6489,
      "Sine": 6490,
      "feet": 6491,
      "anx": 6492,
      "therefore": 6493,
      "vig": 6494,
      "heard": 6495,
      "budgets": 6496,
      "Qual": 6497,
      "STOC": 6498,
      "underscore": 6499,
      "causing": 6500,
      "idUSBRE85": 6501,
      "idUSBRE88": 6502,
      "eyes": 6503,
      "veteran": 6504,
      "Bud": 6505,
      "Cohen": 6506,
      "tensions": 6507,
      "amework": 6508,
      "laid": 6509,
      "Mitsubishi": 6510,
      "stressed": 6511,
      "families": 6512,
      "BG": 6513,
      "clude": 6514,
      "icki": 6515,
      "Pand": 6516,
      "manufacturer": 6517,
      "meltdown": 6518,
      "credibility": 6519,
      "hon": 6520,
      "territory": 6521,
      "ellon": 6522,
      "breaking": 6523,
      "Sak": 6524,
      "Tes": 6525,
      "Water": 6526,
      "battered": 6527,
      "abandon": 6528,
      "Rac": 6529,
      "thi": 6530,
      "apart": 6531,
      "Morning": 6532,
      "mechanism": 6533,
      "atever": 6534,
      "resolved": 6535,
      "Societe": 6536,
      "Bankruptcy": 6537,
      "discipl": 6538,
      "competing": 6539,
      "bold": 6540,
      "basic": 6541,
      "dominant": 6542,
      "idUSWEN": 6543,
      "Scotland": 6544,
      "Next": 6545,
      "decre": 6546,
      "papers": 6547,
      "reviewing": 6548,
      "GN": 6549,
      "endor": 6550,
      "oked": 6551,
      "businesspro": 6552,
      "Visa": 6553,
      "beha": 6554,
      "vit": 6555,
      "EW": 6556,
      "aders": 6557,
      "impose": 6558,
      "flash": 6559,
      "suspended": 6560,
      "administr": 6561,
      "sson": 6562,
      "FED": 6563,
      "Mel": 6564,
      "Their": 6565,
      "plunge": 6566,
      "linois": 6567,
      "TN": 6568,
      "Potash": 6569,
      "UND": 6570,
      "Illinois": 6571,
      "language": 6572,
      "Den": 6573,
      "centers": 6574,
      "anche": 6575,
      "IDENT": 6576,
      "Allen": 6577,
      "duties": 6578,
      "franch": 6579,
      "ansas": 6580,
      "Agency": 6581,
      "spreads": 6582,
      "izations": 6583,
      "prefer": 6584,
      "eBay": 6585,
      "amer": 6586,
      "women": 6587,
      "Niger": 6588,
      "eration": 6589,
      "institution": 6590,
      "senthal": 6591,
      "SENIOR": 6592,
      "Generale": 6593,
      "ships": 6594,
      "ICS": 6595,
      "testing": 6596,
      "gradually": 6597,
      "Park": 6598,
      "Christian": 6599,
      "substantially": 6600,
      "Sinead": 6601,
      "interven": 6602,
      "concent": 6603,
      "Program": 6604,
      "restaurants": 6605,
      "framework": 6606,
      "vict": 6607,
      "calm": 6608,
      "450": 6609,
      "umn": 6610,
      "miles": 6611,
      "counsel": 6612,
      "Manufact": 6613,
      "shrinking": 6614,
      "Mut": 6615,
      "Doug": 6616,
      "Prof": 6617,
      "eed": 6618,
      "dem": 6619,
      "advoc": 6620,
      "license": 6621,
      "Isra": 6622,
      "Ax": 6623,
      "Siemens": 6624,
      "behalf": 6625,
      "newspapers": 6626,
      "Good": 6627,
      "harm": 6628,
      "Tal": 6629,
      "Ian": 6630,
      "Once": 6631,
      "Schaeuble": 6632,
      "Porsche": 6633,
      "wides": 6634,
      "Bish": 6635,
      "extension": 6636,
      "Gev": 6637,
      "Rick": 6638,
      "consequences": 6639,
      "Tran": 6640,
      "200809": 6641,
      "ibune": 6642,
      "patients": 6643,
      "blog": 6644,
      "Wy": 6645,
      "upbeat": 6646,
      "screen": 6647,
      "instant": 6648,
      "umar": 6649,
      "indication": 6650,
      "Grant": 6651,
      "welcomed": 6652,
      "ugeot": 6653,
      "Land": 6654,
      "stret": 6655,
      "slumped": 6656,
      "delinqu": 6657,
      "Technology": 6658,
      "ikes": 6659,
      "enced": 6660,
      "quit": 6661,
      "Pepsi": 6662,
      "goals": 6663,
      "Cos": 6664,
      "ETF": 6665,
      "widespread": 6666,
      "dden": 6667,
      "accord": 6668,
      "Lar": 6669,
      "plom": 6670,
      "resulting": 6671,
      "phys": 6672,
      "winds": 6673,
      "upgrad": 6674,
      "eth": 6675,
      "chins": 6676,
      "SN": 6677,
      "lvan": 6678,
      "yer": 6679,
      "someone": 6680,
      "tha": 6681,
      "liabilities": 6682,
      "Brook": 6683,
      "vior": 6684,
      "becomes": 6685,
      "equal": 6686,
      "Mu": 6687,
      "Wire": 6688,
      "builders": 6689,
      "Public": 6690,
      "Mellon": 6691,
      "PRESIDENT": 6692,
      "constr": 6693,
      "Bankers": 6694,
      "discre": 6695,
      "Force": 6696,
      "reductions": 6697,
      "Pennsy": 6698,
      "anim": 6699,
      "react": 6700,
      "Sant": 6701,
      "shel": 6702,
      "Gevirtz": 6703,
      "lvania": 6704,
      "Os": 6705,
      "fa": 6706,
      "kins": 6707,
      "neigh": 6708,
      "economics": 6709,
      "transition": 6710,
      "requested": 6711,
      "Pennsylvania": 6712,
      "Dick": 6713,
      "storage": 6714,
      "instruments": 6715,
      "Today": 6716,
      "Gib": 6717,
      "Mario": 6718,
      "Bernstein": 6719,
      "Technologies": 6720,
      "candidates": 6721,
      "Like": 6722,
      "accelerate": 6723,
      "arrested": 6724,
      "Fl": 6725,
      "buys": 6726,
      "indicator": 6727,
      "Associates": 6728,
      "assembly": 6729,
      "lean": 6730,
      "fold": 6731,
      "Four": 6732,
      "japan": 6733,
      "idel": 6734,
      "Anton": 6735,
      "flagship": 6736,
      "Ric": 6737,
      "mandate": 6738,
      "Bair": 6739,
      "ENS": 6740,
      "cautioned": 6741,
      "fellow": 6742,
      "accepted": 6743,
      "controversial": 6744,
      "Operating": 6745,
      "DV": 6746,
      "ria": 6747,
      "hib": 6748,
      "text": 6749,
      "aling": 6750,
      "death": 6751,
      "intend": 6752,
      "signals": 6753,
      "INVESTMENT": 6754,
      "Yellen": 6755,
      "zi": 6756,
      "rely": 6757,
      "thening": 6758,
      "abi": 6759,
      "compreh": 6760,
      "cert": 6761,
      "promote": 6762,
      "Dere": 6763,
      "Former": 6764,
      "idUSWNAS": 6765,
      "dropping": 6766,
      "ESM": 6767,
      "buster": 6768,
      "Silver": 6769,
      "Ak": 6770,
      "thin": 6771,
      "driver": 6772,
      "stuck": 6773,
      "pledge": 6774,
      "Derek": 6775,
      "wasn": 6776,
      "endit": 6777,
      "targeting": 6778,
      "tighten": 6779,
      "dominated": 6780,
      "oln": 6781,
      "PK": 6782,
      "idUSBRE86": 6783,
      "consultant": 6784,
      "PR": 6785,
      "BERLIN": 6786,
      "maximum": 6787,
      "hits": 6788,
      "Depression": 6789,
      "carried": 6790,
      "Gi": 6791,
      "je": 6792,
      "nell": 6793,
      "tag": 6794,
      "style": 6795,
      "Instead": 6796,
      "submitted": 6797,
      "benefited": 6798,
      "OW": 6799,
      "REC": 6800,
      "aska": 6801,
      "totaled": 6802,
      "Point": 6803,
      "coverage": 6804,
      "Director": 6805,
      "EB": 6806,
      "Jeremy": 6807,
      "ros": 6808,
      "Economy": 6809,
      "ucker": 6810,
      "welcome": 6811,
      "compo": 6812,
      "School": 6813,
      "Hewlett": 6814,
      "lobe": 6815,
      "buyback": 6816,
      "manages": 6817,
      "exactly": 6818,
      "vac": 6819,
      "ya": 6820,
      "matters": 6821,
      "inflationary": 6822,
      "human": 6823,
      "engineering": 6824,
      "cabinet": 6825,
      "enjoy": 6826,
      "adequate": 6827,
      "exerc": 6828,
      "placing": 6829,
      "places": 6830,
      "telling": 6831,
      "granted": 6832,
      "Sur": 6833,
      "fundamental": 6834,
      "Felsenthal": 6835,
      "tip": 6836,
      "white": 6837,
      "sudden": 6838,
      "200807": 6839,
      "HI": 6840,
      "expendit": 6841,
      "apparent": 6842,
      "Sus": 6843,
      "deem": 6844,
      "conclus": 6845,
      "strategies": 6846,
      "201309": 6847,
      "bps": 6848,
      "opric": 6849,
      "auctions": 6850,
      "automotive": 6851,
      "tonnes": 6852,
      "Lucia": 6853,
      "population": 6854,
      "fines": 6855,
      "wary": 6856,
      "street": 6857,
      "ashion": 6858,
      "Wilchins": 6859,
      "Renault": 6860,
      "Bishopric": 6861,
      "Rand": 6862,
      "newly": 6863,
      "spike": 6864,
      "Ca": 6865,
      "Sky": 6866,
      "council": 6867,
      "Madrid": 6868,
      "journal": 6869,
      "verage": 6870,
      "mont": 6871,
      "productivity": 6872,
      "shipping": 6873,
      "prompting": 6874,
      "Peugeot": 6875,
      "nature": 6876,
      "Bor": 6877,
      "tem": 6878,
      "carbon": 6879,
      "frustr": 6880,
      "Deposit": 6881,
      "ikani": 6882,
      "sharing": 6883,
      "enny": 6884,
      "Mutikani": 6885,
      "treaty": 6886,
      "satisf": 6887,
      "Wireless": 6888,
      "phi": 6889,
      "drove": 6890,
      "Argentina": 6891,
      "Bev": 6892,
      "Rosen": 6893,
      "improvements": 6894,
      "absor": 6895,
      "spital": 6896,
      "extending": 6897,
      "piece": 6898,
      "corruption": 6899,
      "Leah": 6900,
      "AAA": 6901,
      "Packard": 6902,
      "protests": 6903,
      "gleish": 6904,
      "Dalgleish": 6905,
      "iced": 6906,
      "otherwise": 6907,
      "sometimes": 6908,
      "Prices": 6909,
      "transportation": 6910,
      "iton": 6911,
      "immin": 6912,
      "Bru": 6913,
      "Industrial": 6914,
      "lyle": 6915,
      "lowitz": 6916,
      "diplom": 6917,
      "Hugh": 6918,
      "analy": 6919,
      "acker": 6920,
      "confidential": 6921,
      "intense": 6922,
      "Qualcomm": 6923,
      "AOL": 6924,
      "essions": 6925,
      "weighing": 6926,
      "Commodity": 6927,
      "Dall": 6928,
      "Berlowitz": 6929,
      "GSP": 6930,
      "resili": 6931,
      "BOND": 6932,
      "capitalization": 6933,
      "seemed": 6934,
      "HONG": 6935,
      "arms": 6936,
      "corporations": 6937,
      "appeals": 6938,
      "primarily": 6939,
      "AAP": 6940,
      "Bond": 6941,
      "RBC": 6942,
      "culture": 6943,
      "propri": 6944,
      "blame": 6945,
      "circumstances": 6946,
      "Diamond": 6947,
      "bag": 6948,
      "lets": 6949,
      "Tribune": 6950,
      "sym": 6951,
      "telecoms": 6952,
      "difficulties": 6953,
      "Swedish": 6954,
      "Morningstar": 6955,
      "liability": 6956,
      "balanced": 6957,
      "pointing": 6958,
      "handling": 6959,
      "victory": 6960,
      "ilateral": 6961,
      "serving": 6962,
      "hail": 6963,
      "packages": 6964,
      "ranks": 6965,
      "parliamentary": 6966,
      "ARD": 6967,
      "Roche": 6968,
      "representatives": 6969,
      "behavior": 6970,
      "shortly": 6971,
      "treas": 6972,
      "bure": 6973,
      "Universal": 6974,
      "ert": 6975,
      "sixth": 6976,
      "feeling": 6977,
      "absolutely": 6978,
      "exemp": 6979,
      "impress": 6980,
      "Grebler": 6981,
      "infring": 6982,
      "Miss": 6983,
      "Ran": 6984,
      "toy": 6985,
      "ifel": 6986,
      "pleaded": 6987,
      "gro": 6988,
      "icting": 6989,
      "actual": 6990,
      "KONG": 6991,
      "miner": 6992,
      "encouraged": 6993,
      "joining": 6994,
      "happens": 6995,
      "gar": 6996,
      "Benko": 6997,
      "types": 6998,
      "checks": 6999,
      "xx": 7000,
      "AAPL": 7001,
      "meth": 7002,
      "systemic": 7003,
      "Anglo": 7004,
      "Palm": 7005,
      "Telecom": 7006,
      "Benkoe": 7007,
      "Bof": 7008,
      "upon": 7009,
      "ITIES": 7010,
      "slip": 7011,
      "Linc": 7012,
      "solve": 7013,
      "2020": 7014,
      "degree": 7015,
      "aude": 7016,
      "idUSBRE84": 7017,
      "secretary": 7018,
      "alternatives": 7019,
      "children": 7020,
      "Lincoln": 7021,
      "Charlot": 7022,
      "Mason": 7023,
      "Cuomo": 7024,
      "ute": 7025,
      "issuance": 7026,
      "WMT": 7027,
      "contribution": 7028,
      "breach": 7029,
      "fired": 7030,
      "leng": 7031,
      "graph": 7032,
      "Wat": 7033,
      "Marc": 7034,
      "window": 7035,
      "Officials": 7036,
      "maintained": 7037,
      "Policy": 7038,
      "fman": 7039,
      "ofi": 7040,
      "coni": 7041,
      "1998": 7042,
      "monitoring": 7043,
      "catch": 7044,
      "ush": 7045,
      "avert": 7046,
      "municipal": 7047,
      "pleased": 7048,
      "manipul": 7049,
      "lots": 7050,
      "alls": 7051,
      "apple": 7052,
      "convinced": 7053,
      "FedEx": 7054,
      "777": 7055,
      "Wen": 7056,
      "Prudential": 7057,
      "dell": 7058,
      "ilton": 7059,
      "mood": 7060,
      "Gap": 7061,
      "kov": 7062,
      "endors": 7063,
      "Marsh": 7064,
      "MM": 7065,
      "deterioration": 7066,
      "therlands": 7067,
      "plum": 7068,
      "hostile": 7069,
      "apparel": 7070,
      "refiner": 7071,
      "sweet": 7072,
      "sweeping": 7073,
      "iser": 7074,
      "fields": 7075,
      "Mun": 7076,
      "entity": 7077,
      "accelerated": 7078,
      "gloom": 7079,
      "BOX": 7080,
      "merchandise": 7081,
      "Sources": 7082,
      "ionne": 7083,
      "strengthening": 7084,
      "indicating": 7085,
      "tering": 7086,
      "compromise": 7087,
      "intell": 7088,
      "BAE": 7089,
      "editor": 7090,
      "submit": 7091,
      "meets": 7092,
      "Netherlands": 7093,
      "Holding": 7094,
      "KP": 7095,
      "crative": 7096,
      "involvement": 7097,
      "Charlotte": 7098,
      "180": 7099,
      "returning": 7100,
      "ATH": 7101,
      "efficiency": 7102,
      "Stra": 7103,
      "caught": 7104,
      "motor": 7105,
      "convince": 7106,
      "citiz": 7107,
      "saving": 7108,
      "squeeze": 7109,
      "lucrative": 7110,
      "Ratings": 7111,
      "whom": 7112,
      "Pre": 7113,
      "Rad": 7114,
      "Claude": 7115,
      "privat": 7116,
      "reality": 7117,
      "BofA": 7118,
      "WH": 7119,
      "ECT": 7120,
      "escal": 7121,
      "structured": 7122,
      "writedowns": 7123,
      "heuser": 7124,
      "shake": 7125,
      "astic": 7126,
      "Marchionne": 7127,
      "bourg": 7128,
      "accommod": 7129,
      "iet": 7130,
      "tent": 7131,
      "logy": 7132,
      "happening": 7133,
      "false": 7134,
      "bes": 7135,
      "shape": 7136,
      "elev": 7137,
      "********": 7138,
      "Far": 7139,
      "dark": 7140,
      "upcoming": 7141,
      "Groupon": 7142,
      "leaves": 7143,
      "itude": 7144,
      "Caney": 7145,
      "ranked": 7146,
      "Ok": 7147,
      "Mack": 7148,
      "icole": 7149,
      "ANGELES": 7150,
      "Fer": 7151,
      "utral": 7152,
      "beef": 7153,
      "fallout": 7154,
      "Pont": 7155,
      "vous": 7156,
      "verse": 7157,
      "surround": 7158,
      "Spec": 7159,
      "Carlyle": 7160,
      "contact": 7161,
      "Americas": 7162,
      "KEY": 7163,
      "MIN": 7164,
      "importance": 7165,
      "square": 7166,
      "charac": 7167,
      "idelity": 7168,
      "737": 7169,
      "reward": 7170,
      "140": 7171,
      "Krist": 7172,
      "See": 7173,
      "reck": 7174,
      "drig": 7175,
      "prompt": 7176,
      "Lip": 7177,
      "revol": 7178,
      "concluded": 7179,
      "essentially": 7180,
      "Because": 7181,
      "InBev": 7182,
      "exporters": 7183,
      "uster": 7184,
      "interim": 7185,
      "comprehensive": 7186,
      "Leg": 7187,
      "application": 7188,
      "clin": 7189,
      "icken": 7190,
      "ACTION": 7191,
      "ields": 7192,
      "Brazilian": 7193,
      "exploration": 7194,
      "Insight": 7195,
      "200810": 7196,
      "continent": 7197,
      "iconduct": 7198,
      "BAL": 7199,
      "shak": 7200,
      "servers": 7201,
      "older": 7202,
      "refused": 7203,
      "shrank": 7204,
      "generic": 7205,
      "memory": 7206,
      "Delphi": 7207,
      "stated": 7208,
      "iang": 7209,
      "differences": 7210,
      "Open": 7211,
      "Daily": 7212,
      "lus": 7213,
      "inberg": 7214,
      "north": 7215,
      "sneft": 7216,
      "gment": 7217,
      "fashion": 7218,
      "perspect": 7219,
      "Adam": 7220,
      "Gra": 7221,
      "Wang": 7222,
      "coast": 7223,
      "demanded": 7224,
      "participate": 7225,
      "dramatically": 7226,
      "covering": 7227,
      "Virginia": 7228,
      "antas": 7229,
      "junk": 7230,
      "UF": 7231,
      "Rodrig": 7232,
      "A380": 7233,
      "Atlanta": 7234,
      "Abu": 7235,
      "ses": 7236,
      "2016": 7237,
      "RED": 7238,
      "weaken": 7239,
      "presented": 7240,
      "deepening": 7241,
      "Iceland": 7242,
      "hef": 7243,
      "neutral": 7244,
      "thr": 7245,
      "prolong": 7246,
      "Belgium": 7247,
      "Santander": 7248,
      "interbank": 7249,
      "201109": 7250,
      "African": 7251,
      "Millan": 7252,
      "border": 7253,
      "nel": 7254,
      "facts": 7255,
      "Factbox": 7256,
      "Hend": 7257,
      "Wu": 7258,
      "END": 7259,
      "none": 7260,
      "\"(": 7261,
      "Cola": 7262,
      "Knight": 7263,
      "Mexican": 7264,
      "batteries": 7265,
      "III": 7266,
      "Regulators": 7267,
      "hardware": 7268,
      "hefty": 7269,
      "Mah": 7270,
      "Petro": 7271,
      "tens": 7272,
      "channel": 7273,
      "Comcast": 7274,
      "scram": 7275,
      "Libya": 7276,
      "valuations": 7277,
      "FACTBOX": 7278,
      "hun": 7279,
      "plug": 7280,
      "MasterCard": 7281,
      "outnumber": 7282,
      "VA": 7283,
      "agion": 7284,
      "breaks": 7285,
      "Speaking": 7286,
      "FIC": 7287,
      "Soyoung": 7288,
      "normally": 7289,
      "Costa": 7290,
      "inflows": 7291,
      "bare": 7292,
      "constitut": 7293,
      "LLP": 7294,
      "Supply": 7295,
      "Free": 7296,
      "refinance": 7297,
      "annualized": 7298,
      "jit": 7299,
      "remove": 7300,
      "posting": 7301,
      "201107": 7302,
      "resistance": 7303,
      "CBS": 7304,
      "eb": 7305,
      "indicates": 7306,
      "Saf": 7307,
      "UAL": 7308,
      "nur": 7309,
      "clothing": 7310,
      "discussing": 7311,
      "successor": 7312,
      "demonstr": 7313,
      "vie": 7314,
      "OMC": 7315,
      "201306": 7316,
      "builder": 7317,
      "VIX": 7318,
      "Coo": 7319,
      "admitted": 7320,
      "whatever": 7321,
      "Monti": 7322,
      "Sulli": 7323,
      "Sullivan": 7324,
      "STAN": 7325,
      "rebounded": 7326,
      "adopted": 7327,
      "Pi": 7328,
      "UM": 7329,
      "emiss": 7330,
      "istant": 7331,
      "Seattle": 7332,
      "Eli": 7333,
      "iles": 7334,
      "providers": 7335,
      "witness": 7336,
      "skeptical": 7337,
      "hey": 7338,
      "suffering": 7339,
      "otech": 7340,
      "115": 7341,
      "nervous": 7342,
      "Morris": 7343,
      "upper": 7344,
      "freeze": 7345,
      "Baer": 7346,
      "Bail": 7347,
      "LY": 7348,
      "CEOs": 7349,
      "elig": 7350,
      "Fu": 7351,
      "Share": 7352,
      "corn": 7353,
      "voters": 7354,
      "category": 7355,
      "Hungary": 7356,
      "pun": 7357,
      "ray": 7358,
      "word": 7359,
      "contagion": 7360,
      "processing": 7361,
      "Kir": 7362,
      "terr": 7363,
      "Chen": 7364,
      "unveil": 7365,
      "COMMENTS": 7366,
      "emic": 7367,
      "operational": 7368,
      "ARY": 7369,
      "iffany": 7370,
      "appreciation": 7371,
      "seats": 7372,
      "words": 7373,
      "Billiton": 7374,
      "briefing": 7375,
      "coordinated": 7376,
      "intention": 7377,
      "threaten": 7378,
      "orio": 7379,
      "Malays": 7380,
      "Well": 7381,
      "reorganization": 7382,
      "holder": 7383,
      "IO": 7384,
      "ellite": 7385,
      "cycl": 7386,
      "requirement": 7387,
      "Wah": 7388,
      "apol": 7389,
      "underwriting": 7390,
      "entertainment": 7391,
      "tour": 7392,
      "living": 7393,
      "Midwest": 7394,
      "perspective": 7395,
      "Hath": 7396,
      "nings": 7397,
      "shale": 7398,
      "abr": 7399,
      "feared": 7400,
      "lusconi": 7401,
      "Domin": 7402,
      "tons": 7403,
      "Davies": 7404,
      "Volvo": 7405,
      "Bre": 7406,
      "minus": 7407,
      "relev": 7408,
      "extraordinary": 7409,
      "fly": 7410,
      "elled": 7411,
      "annually": 7412,
      "Lux": 7413,
      "Transport": 7414,
      "Hathaway": 7415,
      "KO": 7416,
      "seasonal": 7417,
      "arguing": 7418,
      "voluntary": 7419,
      "Rep": 7420,
      "adjustment": 7421,
      "Dallas": 7422,
      "aki": 7423,
      "strict": 7424,
      "intent": 7425,
      "projections": 7426,
      "idUSBRE98": 7427,
      "201307": 7428,
      "implemented": 7429,
      "hacking": 7430,
      "LSE": 7431,
      "race": 7432,
      "deliveries": 7433,
      "Sears": 7434,
      "Fair": 7435,
      "Kle": 7436,
      "Malone": 7437,
      "finish": 7438,
      "Sanofi": 7439,
      "aviation": 7440,
      "FOMC": 7441,
      "eliminate": 7442,
      "lad": 7443,
      "Anheuser": 7444,
      "umi": 7445,
      "Ern": 7446,
      "Fidelity": 7447,
      "exclusive": 7448,
      "conver": 7449,
      "Reid": 7450,
      "Davis": 7451,
      "Dhabi": 7452,
      "inquiry": 7453,
      "Sim": 7454,
      "Eastern": 7455,
      "code": 7456,
      "durable": 7457,
      "Venezuela": 7458,
      "crow": 7459,
      "Ball": 7460,
      "wing": 7461,
      "briefly": 7462,
      "Sor": 7463,
      "plent": 7464,
      "Barney": 7465,
      "201108": 7466,
      "seriously": 7467,
      "temporarily": 7468,
      "entities": 7469,
      "attend": 7470,
      "desk": 7471,
      "Howard": 7472,
      "tentative": 7473,
      "wear": 7474,
      "enterprise": 7475,
      "Key": 7476,
      "160": 7477,
      "Berlusconi": 7478,
      "education": 7479,
      "ei": 7480,
      "stan": 7481,
      "oversee": 7482,
      "Stew": 7483,
      "aving": 7484,
      "Walmart": 7485,
      "competitiveness": 7486,
      "Volcker": 7487,
      "Jeffer": 7488,
      "Sweden": 7489,
      "Las": 7490,
      "hospital": 7491,
      "drugmaker": 7492,
      "crises": 7493,
      "Hein": 7494,
      "copy": 7495,
      "worsening": 7496,
      "Rosneft": 7497,
      "failures": 7498,
      "politics": 7499,
      "commerce": 7500,
      "CVS": 7501,
      "Sem": 7502,
      "minute": 7503,
      "begins": 7504,
      "idUSBRE99": 7505,
      "repurchase": 7506,
      "actively": 7507,
      "stimulate": 7508,
      "201210": 7509,
      "prominent": 7510,
      "basically": 7511,
      "rumors": 7512,
      "Lam": 7513,
      "iest": 7514,
      "nick": 7515,
      "unk": 7516,
      "stabilizing": 7517,
      "Philipp": 7518,
      "Cook": 7519,
      "Tiffany": 7520,
      "borne": 7521,
      "investigators": 7522,
      "Chartered": 7523,
      "exception": 7524,
      "dc": 7525,
      "AIR": 7526,
      "hammer": 7527,
      "features": 7528,
      "sponsored": 7529,
      "winter": 7530,
      "independence": 7531,
      "subpo": 7532,
      "sentence": 7533,
      "UBSN": 7534,
      "corner": 7535,
      "outnumbered": 7536,
      "RIS": 7537,
      "contracted": 7538,
      "discretion": 7539,
      "Max": 7540,
      "farmers": 7541,
      "Mus": 7542,
      "electricity": 7543,
      "assume": 7544,
      "gallon": 7545,
      "Bure": 7546,
      "UPS": 7547,
      "Gray": 7548,
      "Fur": 7549,
      "Tony": 7550,
      "Carew": 7551,
      "diver": 7552,
      "comfort": 7553,
      "divisions": 7554,
      "meanwhile": 7555,
      "FI": 7556,
      "lap": 7557,
      "subsequ": 7558,
      "experienced": 7559,
      "Hollande": 7560,
      "WN": 7561,
      "minim": 7562,
      "iction": 7563,
      "bureau": 7564,
      "irates": 7565,
      "aiming": 7566,
      "Bureau": 7567,
      "Mik": 7568,
      "Nort": 7569,
      "resulted": 7570,
      "representative": 7571,
      "uff": 7572,
      "),\"": 7573,
      "claimed": 7574,
      "guaranteed": 7575,
      "responded": 7576,
      "announcing": 7577,
      "Jefferies": 7578,
      "Ack": 7579,
      "aig": 7580,
      "Third": 7581,
      "ultra": 7582,
      "lai": 7583,
      "promising": 7584,
      "controlling": 7585,
      "bow": 7586,
      "jur": 7587,
      "conspir": 7588,
      "estle": 7589,
      "shared": 7590,
      "halted": 7591,
      "barr": 7592,
      "GOO": 7593,
      "reshold": 7594,
      "formally": 7595,
      "Dud": 7596,
      "knock": 7597,
      "vital": 7598,
      "gry": 7599,
      "Lawder": 7600,
      "recalls": 7601,
      "PRI": 7602,
      "unfair": 7603,
      "merging": 7604,
      "identify": 7605,
      "idUSTRE79": 7606,
      "zens": 7607,
      "threshold": 7608,
      "marketplace": 7609,
      "hurting": 7610,
      "TIM": 7611,
      "200804": 7612,
      "ideas": 7613,
      "Pon": 7614,
      "sle": 7615,
      "Thanks": 7616,
      "Only": 7617,
      "career": 7618,
      "island": 7619,
      "beer": 7620,
      "counts": 7621,
      "hotel": 7622,
      "FBI": 7623,
      "explain": 7624,
      "manipulation": 7625,
      "MBIA": 7626,
      "Wahba": 7627,
      "andre": 7628,
      "Corporate": 7629,
      "ricane": 7630,
      "Rachelle": 7631,
      "Stewart": 7632,
      "tre": 7633,
      "instance": 7634,
      "agues": 7635,
      "helm": 7636,
      "odak": 7637,
      "valuable": 7638,
      "refining": 7639,
      "update": 7640,
      "inski": 7641,
      "depends": 7642,
      "surveys": 7643,
      "posing": 7644,
      "gypt": 7645,
      "giants": 7646,
      "carefully": 7647,
      "participation": 7648,
      "Rupert": 7649,
      "Ped": 7650,
      "Security": 7651,
      "convers": 7652,
      "crown": 7653,
      "damp": 7654,
      "throw": 7655,
      "amend": 7656,
      "lowering": 7657,
      "Younglai": 7658,
      "buoy": 7659,
      "recru": 7660,
      "conflict": 7661,
      "GRE": 7662,
      "ua": 7663,
      "idUSTRE50": 7664,
      "smoo": 7665,
      "imbalances": 7666,
      "BoE": 7667,
      "brokerages": 7668,
      "attribut": 7669,
      "ONE": 7670,
      "ADP": 7671,
      "Harris": 7672,
      "south": 7673,
      "magn": 7674,
      "uting": 7675,
      "Commissioner": 7676,
      "recommended": 7677,
      "7203": 7678,
      "Gill": 7679,
      "tally": 7680,
      "connection": 7681,
      "SCO": 7682,
      "kowski": 7683,
      "cean": 7684,
      "regulated": 7685,
      "Strauss": 7686,
      "Te": 7687,
      "201204": 7688,
      "gel": 7689,
      "syn": 7690,
      "inv": 7691,
      "gradual": 7692,
      "secondary": 7693,
      "pattern": 7694,
      "Broad": 7695,
      "alongside": 7696,
      "TW": 7697,
      "Rome": 7698,
      "historic": 7699,
      "surrounding": 7700,
      "PUS": 7701,
      "ramp": 7702,
      "yce": 7703,
      "strikes": 7704,
      "intends": 7705,
      "OMX": 7706,
      "registered": 7707,
      "Rus": 7708,
      "mines": 7709,
      "traditionally": 7710,
      "adopt": 7711,
      "upgrade": 7712,
      "Monte": 7713,
      "APO": 7714,
      "aro": 7715,
      "ecurit": 7716,
      "implications": 7717,
      "plummet": 7718,
      "tru": 7719,
      "accur": 7720,
      "201106": 7721,
      "Ackman": 7722,
      "courts": 7723,
      "entirely": 7724,
      "hasn": 7725,
      "purchased": 7726,
      "201205": 7727,
      "flix": 7728,
      "oversees": 7729,
      "105": 7730,
      "Di": 7731,
      "image": 7732,
      "keeps": 7733,
      "Kohl": 7734,
      "Dish": 7735,
      "Harry": 7736,
      "201208": 7737,
      "Play": 7738,
      "CIAL": 7739,
      "Raymond": 7740,
      "Krol": 7741,
      "200806": 7742,
      "repair": 7743,
      "franchise": 7744,
      "voice": 7745,
      "BARC": 7746,
      "Nord": 7747,
      "requiring": 7748,
      "Roth": 7749,
      "attempts": 7750,
      "WS": 7751,
      "ole": 7752,
      "unrest": 7753,
      "physical": 7754,
      "Tax": 7755,
      "iman": 7756,
      "123": 7757,
      "Industries": 7758,
      "rescu": 7759,
      "adds": 7760,
      "surveyed": 7761,
      "pulling": 7762,
      "Pandit": 7763,
      "Vict": 7764,
      "erse": 7765,
      "EURO": 7766,
      "walk": 7767,
      "Krolicki": 7768,
      "student": 7769,
      "argument": 7770,
      "pursuing": 7771,
      "Win": 7772,
      "idUSBRE96": 7773,
      "asser": 7774,
      "mental": 7775,
      "preserve": 7776,
      "pretax": 7777,
      "shifting": 7778,
      "implementation": 7779,
      "downgrades": 7780,
      "pensions": 7781,
      "persu": 7782,
      "ambitious": 7783,
      "ali": 7784,
      "200904": 7785,
      "highlights": 7786,
      "Defense": 7787,
      "Lake": 7788,
      "ione": 7789,
      "capt": 7790,
      "appointment": 7791,
      "Without": 7792,
      "supervisory": 7793,
      "penalties": 7794,
      "Luxem": 7795,
      "Egypt": 7796,
      "Kur": 7797,
      "medi": 7798,
      "spreading": 7799,
      "201304": 7800,
      "threatening": 7801,
      "persistent": 7802,
      "deeply": 7803,
      "A350": 7804,
      "crop": 7805,
      "perip": 7806,
      "gang": 7807,
      "negotiated": 7808,
      "VIEW": 7809,
      "Zhou": 7810,
      "shadow": 7811,
      "Gas": 7812,
      "weap": 7813,
      "complicated": 7814,
      "maintaining": 7815,
      "gear": 7816,
      "drawing": 7817,
      "TPG": 7818,
      "allies": 7819,
      "iba": 7820,
      "POIN": 7821,
      "Prem": 7822,
      "oma": 7823,
      "Deepa": 7824,
      "frozen": 7825,
      "contained": 7826,
      "promises": 7827,
      "tablets": 7828,
      "dates": 7829,
      "tsu": 7830,
      "entry": 7831,
      "decis": 7832,
      "measured": 7833,
      "highlighted": 7834,
      "ventional": 7835,
      "politically": 7836,
      "introduce": 7837,
      "Clearwire": 7838,
      "cloud": 7839,
      "picking": 7840,
      "insured": 7841,
      "impossible": 7842,
      "knows": 7843,
      "choose": 7844,
      "CAR": 7845,
      "compact": 7846,
      "idUSTRE78": 7847,
      "correction": 7848,
      "occurred": 7849,
      "pharmaceutical": 7850,
      "Slater": 7851,
      "activist": 7852,
      "resignation": 7853,
      "payouts": 7854,
      "Geller": 7855,
      "idUSBRE95": 7856,
      "Dar": 7857,
      "asion": 7858,
      "ples": 7859,
      "eva": 7860,
      "comparable": 7861,
      "recy": 7862,
      "speculative": 7863,
      "CPI": 7864,
      "EM": 7865,
      "heating": 7866,
      "orderly": 7867,
      "initiatives": 7868,
      "Oli": 7869,
      "hint": 7870,
      "shi": 7871,
      "issuing": 7872,
      "201007": 7873,
      "Blue": 7874,
      "friendly": 7875,
      "Ol": 7876,
      "wond": 7877,
      "ITH": 7878,
      "Valley": 7879,
      "restaurant": 7880,
      "Food": 7881,
      "HEAD": 7882,
      "Nestle": 7883,
      "bin": 7884,
      "consideration": 7885,
      "baugh": 7886,
      "ofirst": 7887,
      "dub": 7888,
      "kev": 7889,
      "pressing": 7890,
      "deteriorating": 7891,
      "Israel": 7892,
      "temper": 7893,
      "Luxembourg": 7894,
      "Conference": 7895,
      "depreci": 7896,
      "replacement": 7897,
      "jew": 7898,
      "ume": 7899,
      "advice": 7900,
      "FX": 7901,
      "panic": 7902,
      "Henderson": 7903,
      "ka": 7904,
      "SEO": 7905,
      "consultancy": 7906,
      "graphic": 7907,
      "disruptions": 7908,
      "colleagues": 7909,
      "SAP": 7910,
      "cup": 7911,
      "winding": 7912,
      "studio": 7913,
      "Nicolas": 7914,
      "Coca": 7915,
      "passing": 7916,
      "Susan": 7917,
      "character": 7918,
      "trum": 7919,
      "express": 7920,
      "Fac": 7921,
      "zo": 7922,
      "biotech": 7923,
      "etkev": 7924,
      "rental": 7925,
      "Der": 7926,
      "Kodak": 7927,
      "erb": 7928,
      "Dudley": 7929,
      "comply": 7930,
      "Anna": 7931,
      "LM": 7932,
      "tier": 7933,
      "notch": 7934,
      "expire": 7935,
      "Bullard": 7936,
      "iconductor": 7937,
      "Ret": 7938,
      "seized": 7939,
      "debted": 7940,
      "SECUR": 7941,
      "tenance": 7942,
      "repeat": 7943,
      "acceptable": 7944,
      "judgment": 7945,
      "etkevitch": 7946,
      "master": 7947,
      "Instant": 7948,
      "essim": 7949,
      "financials": 7950,
      "andreou": 7951,
      "SING": 7952,
      "losser": 7953,
      "fails": 7954,
      "climb": 7955,
      "comparison": 7956,
      "Gar": 7957,
      "Tata": 7958,
      "proved": 7959,
      "1997": 7960,
      "dragged": 7961,
      "mad": 7962,
      "neither": 7963,
      "Papandreou": 7964,
      "Victor": 7965,
      "percept": 7966,
      "Georg": 7967,
      "awarded": 7968,
      "Bailey": 7969,
      "Sir": 7970,
      "fier": 7971,
      "applied": 7972,
      "Netflix": 7973,
      "tender": 7974,
      "Kelly": 7975,
      "underwrit": 7976,
      "modestly": 7977,
      "encies": 7978,
      "gence": 7979,
      "104": 7980,
      "duty": 7981,
      "recommendations": 7982,
      "Rober": 7983,
      "attracted": 7984,
      "relevant": 7985,
      "3M": 7986,
      "conventional": 7987,
      "indicate": 7988,
      "CT": 7989,
      "killed": 7990,
      "variety": 7991,
      "indebted": 7992,
      "expir": 7993,
      "polls": 7994,
      "Cooper": 7995,
      "viable": 7996,
      "prepare": 7997,
      "Fortis": 7998,
      "depending": 7999,
      "zyme": 8000,
      "stemming": 8001,
      "AK": 8002,
      "GLO": 8003,
      "idUSTRE76": 8004,
      "sooner": 8005,
      "inding": 8006,
      "IVE": 8007,
      "FAA": 8008,
      "Ha": 8009,
      "Kare": 8010,
      "essor": 8011,
      "Information": 8012,
      "exporter": 8013,
      "aves": 8014,
      "developers": 8015,
      "technologies": 8016,
      "swift": 8017,
      "rush": 8018,
      "Vegas": 8019,
      "Qantas": 8020,
      "dens": 8021,
      "Martha": 8022,
      "locations": 8023,
      "victims": 8024,
      "istan": 8025,
      "boards": 8026,
      "Valetkevitch": 8027,
      "esbank": 8028,
      "Jane": 8029,
      "Cut": 8030,
      "Kansas": 8031,
      "discipline": 8032,
      "predec": 8033,
      "200907": 8034,
      "understanding": 8035,
      "spectrum": 8036,
      "omerville": 8037,
      "innovation": 8038,
      "riskier": 8039,
      "guidelines": 8040,
      "violations": 8041,
      "Holmes": 8042,
      "Call": 8043,
      "200909": 8044,
      "200906": 8045,
      "bailed": 8046,
      "drops": 8047,
      "drinks": 8048,
      "FS": 8049,
      "father": 8050,
      "apiro": 8051,
      "bln": 8052,
      "Kahn": 8053,
      "Slo": 8054,
      "headwinds": 8055,
      "Greenspan": 8056,
      "FDA": 8057,
      "fighter": 8058,
      "alco": 8059,
      "iane": 8060,
      "Clin": 8061,
      "kr": 8062,
      "pays": 8063,
      "sank": 8064,
      "vowed": 8065,
      "handful": 8066,
      "201308": 8067,
      "Noble": 8068,
      "EBIT": 8069,
      "inf": 8070,
      "iking": 8071,
      "cush": 8072,
      "northern": 8073,
      "securit": 8074,
      "30s": 8075,
      "competitor": 8076,
      "Robinson": 8077,
      "accident": 8078,
      "recognize": 8079,
      "Pedro": 8080,
      "Trou": 8081,
      "counting": 8082,
      "willingness": 8083,
      "650": 8084,
      "royal": 8085,
      "overcome": 8086,
      "pock": 8087,
      "Maria": 8088,
      "Turkey": 8089,
      "loo": 8090,
      "emb": 8091,
      "likeli": 8092,
      "plenty": 8093,
      "oco": 8094,
      "ibilities": 8095,
      "Somerville": 8096,
      "ais": 8097,
      "McCo": 8098,
      "Ponzi": 8099,
      "Nich": 8100,
      "MacMillan": 8101,
      "Kin": 8102,
      "pessim": 8103,
      "maintenance": 8104,
      "Boeh": 8105,
      "touched": 8106,
      "emissions": 8107,
      "CN": 8108,
      "publisher": 8109,
      "Hum": 8110,
      "elli": 8111,
      "ombard": 8112,
      "pilots": 8113,
      "Jacobs": 8114,
      "prolonged": 8115,
      "eligible": 8116,
      "Karey": 8117,
      "zed": 8118,
      "proportion": 8119,
      "Indeed": 8120,
      "complained": 8121,
      "Poorn": 8122,
      "broken": 8123,
      "solutions": 8124,
      "Peterson": 8125,
      "SAL": 8126,
      "fers": 8127,
      "Inflation": 8128,
      "flexible": 8129,
      "depressed": 8130,
      "akr": 8131,
      "Ericsson": 8132,
      "Poornima": 8133,
      "Thail": 8134,
      "enz": 8135,
      "ula": 8136,
      "operated": 8137,
      "Thailand": 8138,
      "networking": 8139,
      "nami": 8140,
      "MARKETS": 8141,
      "Alister": 8142,
      "defended": 8143,
      "HD": 8144,
      "pson": 8145,
      "unsecured": 8146,
      "Janet": 8147,
      "wells": 8148,
      "demanding": 8149,
      "painful": 8150,
      "Jackson": 8151,
      "Hedge": 8152,
      "Kind": 8153,
      "PORT": 8154,
      "toll": 8155,
      "ours": 8156,
      "presentation": 8157,
      "imminent": 8158,
      "Hans": 8159,
      "wife": 8160,
      "urofirst": 8161,
      "devast": 8162,
      "Until": 8163,
      "FTSEurofirst": 8164,
      "everybody": 8165,
      "Martinne": 8166,
      "IRS": 8167,
      "Bancorp": 8168,
      "refineries": 8169,
      "Q1": 8170,
      "hang": 8171,
      "urgent": 8172,
      "Mulally": 8173,
      "method": 8174,
      "EMENT": 8175,
      "Facility": 8176,
      "reference": 8177,
      "dispo": 8178,
      "signing": 8179,
      "Phill": 8180,
      "Manufacturing": 8181,
      "boeing": 8182,
      "Sher": 8183,
      "affairs": 8184,
      "ibery": 8185,
      "tsunami": 8186,
      "Boerse": 8187,
      "organized": 8188,
      "Earnings": 8189,
      "Ricci": 8190,
      "Viv": 8191,
      "forum": 8192,
      "badly": 8193,
      "Greenberg": 8194,
      "iPod": 8195,
      "neighbor": 8196,
      "likelihood": 8197,
      "enorm": 8198,
      "ceived": 8199,
      "likes": 8200,
      "Walter": 8201,
      "achieved": 8202,
      "barely": 8203,
      "eager": 8204,
      "tions": 8205,
      "200903": 8206,
      "tracking": 8207,
      "Soft": 8208,
      "grand": 8209,
      "cedes": 8210,
      "Ado": 8211,
      "century": 8212,
      "accusing": 8213,
      "Prosecut": 8214,
      "credible": 8215,
      "recapitalization": 8216,
      "peg": 8217,
      "Markit": 8218,
      "Mattel": 8219,
      "Ballmer": 8220,
      "Book": 8221,
      "CUR": 8222,
      "reliance": 8223,
      "itosh": 8224,
      "rolet": 8225,
      "Shir": 8226,
      "zing": 8227,
      "explos": 8228,
      "widened": 8229,
      "exceeded": 8230,
      "Medicare": 8231,
      "Kuwait": 8232,
      "aming": 8233,
      "covers": 8234,
      "stabilization": 8235,
      "Wohl": 8236,
      "Bry": 8237,
      "ulty": 8238,
      "marking": 8239,
      "proprietary": 8240,
      "prin": 8241,
      "supports": 8242,
      "idUSBRE94": 8243,
      "Abe": 8244,
      "Kaz": 8245,
      "Len": 8246,
      "nic": 8247,
      "resource": 8248,
      "steadily": 8249,
      "positioned": 8250,
      "Automotive": 8251,
      "gathering": 8252,
      "Year": 8253,
      "wip": 8254,
      "conting": 8255,
      "forecasting": 8256,
      "Thompson": 8257,
      "Northwest": 8258,
      "Right": 8259,
      "dimin": 8260,
      "cleared": 8261,
      "FTEU": 8262,
      "Thanksgiving": 8263,
      "idUSTRE77": 8264,
      "36pm": 8265,
      "IONS": 8266,
      "Chevrolet": 8267,
      "STOCKS": 8268,
      "frame": 8269,
      "elected": 8270,
      "Representative": 8271,
      "Bansal": 8272,
      "outp": 8273,
      "200811": 8274,
      "worker": 8275,
      "factbox": 8276,
      "FTEU3": 8277,
      "Sha": 8278,
      "affirmed": 8279,
      "45pm": 8280,
      "successfully": 8281,
      "locked": 8282,
      "Herb": 8283,
      "topping": 8284,
      "Though": 8285,
      "undervalued": 8286,
      "DuPont": 8287,
      "meaningful": 8288,
      "Found": 8289,
      "Paritosh": 8290,
      "arbitration": 8291,
      "grocer": 8292,
      "incomes": 8293,
      "Chuck": 8294,
      "bidder": 8295,
      "traday": 8296,
      "Finland": 8297,
      "TVs": 8298,
      "influential": 8299,
      "spurred": 8300,
      "Others": 8301,
      "defect": 8302,
      "200704": 8303,
      "HOUS": 8304,
      "BONDS": 8305,
      "Avi": 8306,
      "DIS": 8307,
      "eastern": 8308,
      "rees": 8309,
      "urch": 8310,
      "surging": 8311,
      "engaged": 8312,
      "adjustments": 8313,
      "FINANCIAL": 8314,
      "merge": 8315,
      "bribery": 8316,
      "seller": 8317,
      "junction": 8318,
      "Diane": 8319,
      "chemicals": 8320,
      "xim": 8321,
      "permits": 8322,
      "prescrip": 8323,
      "tops": 8324,
      "disappointment": 8325,
      "114": 8326,
      "oon": 8327,
      "Channel": 8328,
      "Exclusive": 8329,
      "germany": 8330,
      "Graham": 8331,
      "smooth": 8332,
      "wins": 8333,
      "anya": 8334,
      "iko": 8335,
      "Blank": 8336,
      "CDO": 8337,
      "Fal": 8338,
      "MORE": 8339,
      "injection": 8340,
      "Plosser": 8341,
      "Xin": 8342,
      "scow": 8343,
      "ranged": 8344,
      "idUSBRE83": 8345,
      "pullback": 8346,
      "Men": 8347,
      "agreeing": 8348,
      "Walgreen": 8349,
      "idUSTRE52": 8350,
      "Funds": 8351,
      "disruption": 8352,
      "Boehner": 8353,
      "MX": 8354,
      "enable": 8355,
      "ounced": 8356,
      "Tosh": 8357,
      "201104": 8358,
      "33pm": 8359,
      "Laz": 8360,
      "stalled": 8361,
      "Potter": 8362,
      "Sharp": 8363,
      "Hall": 8364,
      "ARCH": 8365,
      "MSFT": 8366,
      "attorneys": 8367,
      "Nortel": 8368,
      "conspiracy": 8369,
      "dum": 8370,
      "warnings": 8371,
      "Lex": 8372,
      "anned": 8373,
      "Moscow": 8374,
      "buyouts": 8375,
      "Louisiana": 8376,
      "dozens": 8377,
      "Eurogroup": 8378,
      "inevit": 8379,
      "entering": 8380,
      "Alexei": 8381,
      "quiet": 8382,
      "club": 8383,
      "midday": 8384,
      "AMD": 8385,
      "turbul": 8386,
      "modern": 8387,
      "nurr": 8388,
      "Kan": 8389,
      "sink": 8390,
      "satellite": 8391,
      "heimer": 8392,
      "IP": 8393,
      "Pier": 8394,
      "munications": 8395,
      "37pm": 8396,
      "Draw": 8397,
      "deliber": 8398,
      "Alexand": 8399,
      "ader": 8400,
      "47pm": 8401,
      "damaged": 8402,
      "Bruce": 8403,
      "udson": 8404,
      "Juncker": 8405,
      "specifically": 8406,
      "roy": 8407,
      "traction": 8408,
      "Nigeria": 8409,
      "Lind": 8410,
      "tin": 8411,
      "ensing": 8412,
      "roles": 8413,
      "CDS": 8414,
      "movie": 8415,
      "slack": 8416,
      "findings": 8417,
      "convertible": 8418,
      "agricultural": 8419,
      ",'": 8420,
      "airport": 8421,
      "Liberty": 8422,
      "ashed": 8423,
      "28pm": 8424,
      "struggles": 8425,
      "59pm": 8426,
      "56pm": 8427,
      "revision": 8428,
      "tomor": 8429,
      "idUSBRE90": 8430,
      "launching": 8431,
      "48pm": 8432,
      "201006": 8433,
      "52pm": 8434,
      "motion": 8435,
      "tanker": 8436,
      "tomorrow": 8437,
      "Ga": 8438,
      "manner": 8439,
      "disputes": 8440,
      "JAL": 8441,
      "LCD": 8442,
      "legally": 8443,
      "Northrop": 8444,
      "LOW": 8445,
      "ihan": 8446,
      "mig": 8447,
      "irl": 8448,
      "103": 8449,
      "brink": 8450,
      "signaling": 8451,
      "isers": 8452,
      "audience": 8453,
      "Wut": 8454,
      "dor": 8455,
      "aples": 8456,
      "reviews": 8457,
      "threatens": 8458,
      "42pm": 8459,
      "sea": 8460,
      "learned": 8461,
      "Lockhart": 8462,
      "SYD": 8463,
      "Cru": 8464,
      "unnamed": 8465,
      "trip": 8466,
      "Stat": 8467,
      "Schnurr": 8468,
      "diversified": 8469,
      "1980s": 8470,
      "faith": 8471,
      "elevated": 8472,
      "utilities": 8473,
      "modif": 8474,
      "probes": 8475,
      "55pm": 8476,
      "initiative": 8477,
      "Troubled": 8478,
      "Jam": 8479,
      "leman": 8480,
      "roller": 8481,
      "03pm": 8482,
      "34pm": 8483,
      "poly": 8484,
      "ONTO": 8485,
      "Costco": 8486,
      "Belgian": 8487,
      "NR": 8488,
      "PL": 8489,
      "bound": 8490,
      "strom": 8491,
      "alleon": 8492,
      "53pm": 8493,
      "jail": 8494,
      "burton": 8495,
      "bearish": 8496,
      "Wutkowski": 8497,
      "Yang": 8498,
      "ider": 8499,
      "liquidation": 8500,
      "201004": 8501,
      "MANAGEMENT": 8502,
      "ecb": 8503,
      "lasting": 8504,
      "201110": 8505,
      "responding": 8506,
      "absence": 8507,
      "esterday": 8508,
      "fate": 8509,
      "fthan": 8510,
      "Anth": 8511,
      "OME": 8512,
      "silver": 8513,
      "Relief": 8514,
      "Rig": 8515,
      "vies": 8516,
      "arian": 8517,
      "toys": 8518,
      "Lim": 8519,
      "Mir": 8520,
      "Sub": 8521,
      "ange": 8522,
      "carmakers": 8523,
      "missions": 8524,
      "purpose": 8525,
      "Deal": 8526,
      "careful": 8527,
      "burst": 8528,
      "WD": 8529,
      "trimmed": 8530,
      "tranche": 8531,
      "04pm": 8532,
      "handset": 8533,
      "avoided": 8534,
      "41pm": 8535,
      "TORONTO": 8536,
      "connected": 8537,
      "SECURITIES": 8538,
      "fthansa": 8539,
      "-$": 8540,
      "Pic": 8541,
      "stations": 8542,
      "fined": 8543,
      "Campos": 8544,
      "Init": 8545,
      "berger": 8546,
      "oneywell": 8547,
      "difficulty": 8548,
      "Austria": 8549,
      "----------------": 8550,
      "procedures": 8551,
      "diesel": 8552,
      "Gates": 8553,
      "seal": 8554,
      "50pm": 8555,
      "Shop": 8556,
      "passengers": 8557,
      "oust": 8558,
      "Rodrigo": 8559,
      "Roberts": 8560,
      "agrees": 8561,
      "launches": 8562,
      "simple": 8563,
      "Duke": 8564,
      "IGHT": 8565,
      "troika": 8566,
      "virtually": 8567,
      "employs": 8568,
      "issuers": 8569,
      "02pm": 8570,
      "57pm": 8571,
      "Seetharaman": 8572,
      "fein": 8573,
      "View": 8574,
      "ars": 8575,
      "wei": 8576,
      "32pm": 8577,
      "51pm": 8578,
      "OB": 8579,
      "brit": 8580,
      "idUSBRE93": 8581,
      "dynam": 8582,
      "aret": 8583,
      "abama": 8584,
      "addressed": 8585,
      "201310": 8586,
      "Class": 8587,
      "Nicola": 8588,
      "Prosecutors": 8589,
      "looming": 8590,
      "Hudson": 8591,
      "SEARCH": 8592,
      "40pm": 8593,
      "penalty": 8594,
      "CURRE": 8595,
      "Based": 8596,
      "Tier": 8597,
      "deploy": 8598,
      "Emirates": 8599,
      "shifted": 8600,
      "label": 8601,
      "Budget": 8602,
      "tics": 8603,
      "removed": 8604,
      "pressured": 8605,
      "Club": 8606,
      "machin": 8607,
      "GLOBAL": 8608,
      "bounce": 8609,
      "108": 8610,
      "15pm": 8611,
      "dall": 8612,
      "olog": 8613,
      "REACTION": 8614,
      "launder": 8615,
      "odds": 8616,
      "numer": 8617,
      "CAL": 8618,
      "Gord": 8619,
      "ayne": 8620,
      "salaries": 8621,
      "Wealth": 8622,
      "16pm": 8623,
      "22pm": 8624,
      "46pm": 8625,
      "44pm": 8626,
      "outright": 8627,
      "Anthony": 8628,
      "Pul": 8629,
      "01pm": 8630,
      "Current": 8631,
      "atherine": 8632,
      "ratios": 8633,
      "Lowe": 8634,
      "hub": 8635,
      "exist": 8636,
      "drivers": 8637,
      "underpin": 8638,
      "Proper": 8639,
      "Christine": 8640,
      "historically": 8641,
      "izuho": 8642,
      "DIREC": 8643,
      "Das": 8644,
      "ux": 8645,
      "competes": 8646,
      "idUSBRE92": 8647,
      "dued": 8648,
      "49pm": 8649,
      "prohib": 8650,
      "109": 8651,
      "grid": 8652,
      "Ki": 8653,
      "pal": 8654,
      "conven": 8655,
      "outlined": 8656,
      "credited": 8657,
      "film": 8658,
      "06pm": 8659,
      "catast": 8660,
      "Seven": 8661,
      "patch": 8662,
      "whel": 8663,
      "crime": 8664,
      "clarity": 8665,
      ".)": 8666,
      "score": 8667,
      "Traders": 8668,
      "flying": 8669,
      "brings": 8670,
      "13pm": 8671,
      "35pm": 8672,
      "Century": 8673,
      "lobbying": 8674,
      "Larry": 8675,
      "depreciation": 8676,
      "Hers": 8677,
      "Sci": 8678,
      "Vale": 8679,
      "baba": 8680,
      "19pm": 8681,
      "Spic": 8682,
      "Barnes": 8683,
      "association": 8684,
      "hir": 8685,
      "tron": 8686,
      "liber": 8687,
      "170": 8688,
      "Conoco": 8689,
      "Mercedes": 8690,
      "lifting": 8691,
      "Alibaba": 8692,
      "Summers": 8693,
      "uki": 8694,
      "Lilly": 8695,
      "Ris": 8696,
      "amped": 8697,
      "43pm": 8698,
      "McCool": 8699,
      "Spicer": 8700,
      "igned": 8701,
      "Andy": 8702,
      "roads": 8703,
      "platforms": 8704,
      "FORE": 8705,
      "Schwab": 8706,
      "DX": 8707,
      "Mach": 8708,
      "Yum": 8709,
      "201211": 8710,
      "Small": 8711,
      "nom": 8712,
      "acerb": 8713,
      "overseeing": 8714,
      "landing": 8715,
      "05pm": 8716,
      "Parliament": 8717,
      "sustainability": 8718,
      "Klein": 8719,
      "subdued": 8720,
      "Dublin": 8721,
      "categories": 8722,
      "liners": 8723,
      "intraday": 8724,
      "enig": 8725,
      "Ally": 8726,
      "Volume": 8727,
      "54pm": 8728,
      "HA": 8729,
      "encing": 8730,
      "grain": 8731,
      "Alabama": 8732,
      "din": 8733,
      "aspect": 8734,
      "poised": 8735,
      "Ant": 8736,
      "OLD": 8737,
      "administrative": 8738,
      "Malaysia": 8739,
      "reak": 8740,
      "liburton": 8741,
      "HN": 8742,
      "evol": 8743,
      "mund": 8744,
      "ride": 8745,
      "27pm": 8746,
      "considerable": 8747,
      "Southwest": 8748,
      "Gil": 8749,
      "perfect": 8750,
      "23pm": 8751,
      "Prot": 8752,
      "Lawrence": 8753,
      "ibe": 8754,
      "acock": 8755,
      "combat": 8756,
      "ZUR": 8757,
      "mess": 8758,
      "liances": 8759,
      "38pm": 8760,
      "County": 8761,
      "Palmer": 8762,
      "guess": 8763,
      "bellwe": 8764,
      "Bell": 8765,
      "itate": 8766,
      "exercise": 8767,
      "blood": 8768,
      "restricted": 8769,
      "cooperate": 8770,
      "DUB": 8771,
      "deemed": 8772,
      "conclusion": 8773,
      "Die": 8774,
      "nut": 8775,
      "anz": 8776,
      "200803": 8777,
      "maturing": 8778,
      "cushion": 8779,
      "Blankfein": 8780,
      "Case": 8781,
      "fare": 8782,
      "ias": 8783,
      "exacerb": 8784,
      "ewski": 8785,
      "ifications": 8786,
      "Resources": 8787,
      "Todd": 8788,
      "39pm": 8789,
      "tracks": 8790,
      "RIO": 8791,
      "weapons": 8792,
      "jee": 8793,
      "mir": 8794,
      "agg": 8795,
      "14pm": 8796,
      "Ever": 8797,
      "Mizuho": 8798,
      "wall": 8799,
      "evasion": 8800,
      "Peacock": 8801,
      "Toshiba": 8802,
      "726": 8803,
      "globe": 8804,
      "175": 8805,
      "thinks": 8806,
      "stepping": 8807,
      "emails": 8808,
      "EMI": 8809,
      "pile": 8810,
      "verdict": 8811,
      "31pm": 8812,
      "Herbert": 8813,
      "feld": 8814,
      "Further": 8815,
      "Fink": 8816,
      "obvious": 8817,
      "200908": 8818,
      "25pm": 8819,
      "testify": 8820,
      "enterprises": 8821,
      "medicines": 8822,
      "adverse": 8823,
      "12pm": 8824,
      "axo": 8825,
      "201303": 8826,
      "Cas": 8827,
      "HBO": 8828,
      "tor": 8829,
      "lop": 8830,
      "debit": 8831,
      "26pm": 8832,
      "Ambac": 8833,
      "Ellis": 8834,
      "BY": 8835,
      "gate": 8836,
      "aher": 8837,
      "Sandy": 8838,
      "N0": 8839,
      "101": 8840,
      "idUSTRE66": 8841,
      "550": 8842,
      "aste": 8843,
      "italia": 8844,
      "idUSBRE87": 8845,
      "yielding": 8846,
      "jointly": 8847,
      "expertise": 8848,
      "composite": 8849,
      "Nike": 8850,
      "RR": 8851,
      "acre": 8852,
      "30pm": 8853,
      "spoken": 8854,
      "depth": 8855,
      "approached": 8856,
      "entit": 8857,
      "wey": 8858,
      "officers": 8859,
      "leads": 8860,
      "PCs": 8861,
      "anticipate": 8862,
      "ju": 8863,
      "thes": 8864,
      "underperforming": 8865,
      "insisted": 8866,
      "Clinton": 8867,
      "merged": 8868,
      "finalized": 8869,
      "prosecutor": 8870,
      "remind": 8871,
      "canceled": 8872,
      "kovic": 8873,
      "Dy": 8874,
      "Kent": 8875,
      "illa": 8876,
      "scape": 8877,
      "AIA": 8878,
      "examine": 8879,
      "insp": 8880,
      "24pm": 8881,
      "charging": 8882,
      "violated": 8883,
      "lease": 8884,
      "200708": 8885,
      "syner": 8886,
      "gotten": 8887,
      "premiums": 8888,
      "Helen": 8889,
      "Phillips": 8890,
      "imf": 8891,
      "Rehn": 8892,
      "1995": 8893,
      "undermine": 8894,
      "Motion": 8895,
      "58pm": 8896,
      "asonic": 8897,
      "FCC": 8898,
      "Hard": 8899,
      "kom": 8900,
      "luster": 8901,
      "crete": 8902,
      "viel": 8903,
      "calend": 8904,
      "Genzyme": 8905,
      "suspic": 8906,
      "FRE": 8907,
      "Hep": 8908,
      "10pm": 8909,
      "evening": 8910,
      "divest": 8911,
      "Go": 8912,
      "RESEARCH": 8913,
      "29pm": 8914,
      "Seoul": 8915,
      "glit": 8916,
      "aum": 8917,
      "movement": 8918,
      "symbol": 8919,
      "GOOG": 8920,
      "LD": 8921,
      "idUSTRE80": 8922,
      "201009": 8923,
      "blocked": 8924,
      "CBOE": 8925,
      "vigor": 8926,
      "predecessor": 8927,
      "sens": 8928,
      "outs": 8929,
      "echo": 8930,
      "benefic": 8931,
      "Lufthansa": 8932,
      "spotlight": 8933,
      "hedging": 8934,
      "discretionary": 8935,
      "soc": 8936,
      "102": 8937,
      "releases": 8938,
      "convicted": 8939,
      "treasury": 8940,
      "enormous": 8941,
      "Honeywell": 8942,
      "interesting": 8943,
      "averaged": 8944,
      "201008": 8945,
      "heightened": 8946,
      "acom": 8947,
      "Miche": 8948,
      "reviewed": 8949,
      "nationwide": 8950,
      "journalists": 8951,
      "Bartz": 8952,
      "Money": 8953,
      "realized": 8954,
      "idUSTRE56": 8955,
      "briefed": 8956,
      "column": 8957,
      "declared": 8958,
      "stretch": 8959,
      "GER": 8960,
      "deferred": 8961,
      "117": 8962,
      "ATHENS": 8963,
      "DIRECTOR": 8964,
      "LU": 8965,
      "Show": 8966,
      "Pharm": 8967,
      "generating": 8968,
      "Macau": 8969,
      "citizens": 8970,
      "uese": 8971,
      "incur": 8972,
      "udy": 8973,
      "17pm": 8974,
      "Portuguese": 8975,
      "affordable": 8976,
      "SEOUL": 8977,
      "GT": 8978,
      "Lash": 8979,
      "illi": 8980,
      "07pm": 8981,
      "08pm": 8982,
      "hopeful": 8983,
      "typical": 8984,
      "TNK": 8985,
      "EP": 8986,
      "oni": 8987,
      "oph": 8988,
      "miners": 8989,
      "metric": 8990,
      "201203": 8991,
      "favored": 8992,
      "Commercial": 8993,
      "ori": 8994,
      "stell": 8995,
      "1970": 8996,
      "Prince": 8997,
      "parag": 8998,
      "Brands": 8999,
      "acceleration": 9000,
      "Look": 9001,
      "vard": 9002,
      "conce": 9003,
      "Levin": 9004,
      "shortage": 9005,
      "friends": 9006,
      "Pit": 9007,
      "centre": 9008,
      "107": 9009,
      "grip": 9010,
      "desire": 9011,
      "borrowed": 9012,
      "hourly": 9013,
      "raph": 9014,
      "explore": 9015,
      "decrease": 9016,
      "len": 9017,
      "Uni": 9018,
      "valuing": 9019,
      "ravel": 9020,
      "SHAN": 9021,
      "ZURICH": 9022,
      "PET": 9023,
      "ques": 9024,
      "contest": 9025,
      "21pm": 9026,
      "potash": 9027,
      "Klay": 9028,
      "None": 9029,
      "taper": 9030,
      "concrete": 9031,
      "ORS": 9032,
      "supposed": 9033,
      "Lin": 9034,
      "20pm": 9035,
      "extensive": 9036,
      "investigate": 9037,
      "paragraph": 9038,
      "olls": 9039,
      "longest": 9040,
      "Iranian": 9041,
      "POINTS": 9042,
      "Opp": 9043,
      "hes": 9044,
      "pared": 9045,
      "perceived": 9046,
      "Schapiro": 9047,
      "ieminski": 9048,
      "Bundesbank": 9049,
      "Square": 9050,
      "sitting": 9051,
      "hole": 9052,
      "idUSTRE75": 9053,
      "routes": 9054,
      "surprisingly": 9055,
      "affiliate": 9056,
      "yesterday": 9057,
      "soph": 9058,
      "MetLife": 9059,
      "zine": 9060,
      "levy": 9061,
      "steam": 9062,
      "holidays": 9063,
      "casual": 9064,
      "aide": 9065,
      "fu": 9066,
      "acquiring": 9067,
      "Klayman": 9068,
      "training": 9069,
      "grim": 9070,
      "Week": 9071,
      "divided": 9072,
      "contributions": 9073,
      "recalled": 9074,
      "matching": 9075,
      "Ag": 9076,
      "Crit": 9077,
      "Camp": 9078,
      "yes": 9079,
      "stages": 9080,
      "1930s": 9081,
      "Congressional": 9082,
      "membership": 9083,
      "Countries": 9084,
      "Edmund": 9085,
      "escap": 9086,
      "tri": 9087,
      "outflows": 9088,
      "00pm": 9089,
      "200707": 9090,
      "impair": 9091,
      "Halliburton": 9092,
      "dangerous": 9093,
      "diplomat": 9094,
      "Catherine": 9095,
      "OUT": 9096,
      "vine": 9097,
      "oppose": 9098,
      "indict": 9099,
      "idUSTRE69": 9100,
      "Strup": 9101,
      "casino": 9102,
      "intervene": 9103,
      "MU": 9104,
      "uty": 9105,
      "aka": 9106,
      "112": 9107,
      "damaging": 9108,
      "Osborne": 9109,
      "Bir": 9110,
      "Press": 9111,
      "dles": 9112,
      "idUSBRE97": 9113,
      "derivative": 9114,
      "ps": 9115,
      "accus": 9116,
      "NEY": 9117,
      "certainty": 9118,
      "approxim": 9119,
      "arguments": 9120,
      "AU": 9121,
      "gren": 9122,
      "mild": 9123,
      "backdrop": 9124,
      "CES": 9125,
      "smalle": 9126,
      "Demand": 9127,
      "enhance": 9128,
      "smallest": 9129,
      "675": 9130,
      "Wi": 9131,
      "dating": 9132,
      "11pm": 9133,
      "Strupcz": 9134,
      "DBK": 9135,
      "cold": 9136,
      "umbo": 9137,
      "Unlike": 9138,
      "goldman": 9139,
      "narrowed": 9140,
      "warrants": 9141,
      "Dickson": 9142,
      "calendar": 9143,
      "LNG": 9144,
      "118": 9145,
      "booming": 9146,
      "201305": 9147,
      "teams": 9148,
      "Jamie": 9149,
      "compares": 9150,
      "200709": 9151,
      "feature": 9152,
      "Clearly": 9153,
      "Premier": 9154,
      "Strupczewski": 9155,
      "reassure": 9156,
      "Busch": 9157,
      "reversed": 9158,
      "Braden": 9159,
      "britain": 9160,
      "Ores": 9161,
      "ensuring": 9162,
      "survival": 9163,
      "gaming": 9164,
      "tep": 9165,
      "timeline": 9166,
      "totaling": 9167,
      "stayed": 9168,
      "agoner": 9169,
      "UAE": 9170,
      "DBKGn": 9171,
      "Oreskovic": 9172,
      "Hun": 9173,
      "sam": 9174,
      "sourcing": 9175,
      "secrecy": 9176,
      "affecting": 9177,
      "RC": 9178,
      "sport": 9179,
      "revisions": 9180,
      "laundering": 9181,
      "Much": 9182,
      "ids": 9183,
      "urban": 9184,
      "apt": 9185,
      "credits": 9186,
      "Gun": 9187,
      "trem": 9188,
      "inch": 9189,
      "istol": 9190,
      "Drawbaugh": 9191,
      "Q4": 9192,
      "VIS": 9193,
      "aland": 9194,
      "construct": 9195,
      "constant": 9196,
      "APORE": 9197,
      "SINGAPORE": 9198,
      "Gordon": 9199,
      "meat": 9200,
      "udi": 9201,
      "Construction": 9202,
      "idUSBRE82": 9203,
      "Corzine": 9204,
      "Zieminski": 9205,
      "propose": 9206,
      "Southeast": 9207,
      "restrict": 9208,
      "A320": 9209,
      "informed": 9210,
      "burgh": 9211,
      "Harvard": 9212,
      "Silicon": 9213,
      "objective": 9214,
      "Reddall": 9215,
      "suspected": 9216,
      "slowest": 9217,
      "rets": 9218,
      "repayment": 9219,
      "vency": 9220,
      "Francois": 9221,
      "SHA": 9222,
      "Waterman": 9223,
      "Ash": 9224,
      "Sue": 9225,
      "sue": 9226,
      "18pm": 9227,
      "remainder": 9228,
      "hawk": 9229,
      "Q2": 9230,
      "XOM": 9231,
      "00000": 9232,
      "exploring": 9233,
      "proceedings": 9234,
      "NH": 9235,
      "dial": 9236,
      "unique": 9237,
      "powered": 9238,
      "fluct": 9239,
      "ATT": 9240,
      "MEX": 9241,
      "Network": 9242,
      "recapitalize": 9243,
      "fluctu": 9244,
      "district": 9245,
      "itol": 9246,
      "roso": 9247,
      "aked": 9248,
      "111": 9249,
      "publishing": 9250,
      "handed": 9251,
      "Bernie": 9252,
      "Q3": 9253,
      "lived": 9254,
      "photo": 9255,
      "brewer": 9256,
      "warns": 9257,
      "113": 9258,
      "regime": 9259,
      "INS": 9260,
      "Networks": 9261,
      "Cypri": 9262,
      "TRAD": 9263,
      "Giann": 9264,
      "nav": 9265,
      "beats": 9266,
      "shocks": 9267,
      "PepsiCo": 9268,
      "Cast": 9269,
      "cure": 9270,
      "Cho": 9271,
      "awards": 9272,
      "automatic": 9273,
      "severance": 9274,
      "financed": 9275,
      "settlements": 9276,
      "located": 9277,
      "principle": 9278,
      "vea": 9279,
      "involves": 9280,
      "widening": 9281,
      "ticket": 9282,
      "Panasonic": 9283,
      "Gard": 9284,
      "bilateral": 9285,
      "delivering": 9286,
      "absorb": 9287,
      "suko": 9288,
      "Moon": 9289,
      "Rajoy": 9290,
      "cooperating": 9291,
      "maturity": 9292,
      "apolis": 9293,
      "Fis": 9294,
      "wers": 9295,
      "124": 9296,
      "09pm": 9297,
      "realistic": 9298,
      "idUSTRE72": 9299,
      "ila": 9300,
      "lins": 9301,
      "contend": 9302,
      "flaw": 9303,
      "periods": 9304,
      "GROW": 9305,
      "Sin": 9306,
      "wild": 9307,
      "200808": 9308,
      "talked": 9309,
      "rolled": 9310,
      "branded": 9311,
      "NOT": 9312,
      "Kaiser": 9313,
      "Stern": 9314,
      "cement": 9315,
      "annels": 9316,
      "imported": 9317,
      "tested": 9318,
      "implementing": 9319,
      "nomine": 9320,
      "Borders": 9321,
      "va": 9322,
      "elabor": 9323,
      "supportive": 9324,
      "Rit": 9325,
      "ancers": 9326,
      "Shin": 9327,
      "201103": 9328,
      "IAN": 9329,
      "Ul": 9330,
      "Up": 9331,
      "wich": 9332,
      "doct": 9333,
      "idUSTRE8": 9334,
      "Regulatory": 9335,
      "Gibbs": 9336,
      "Herbst": 9337,
      ")(": 9338,
      "endi": 9339,
      "axy": 9340,
      "misleading": 9341,
      "LEH": 9342,
      "Chemical": 9343,
      "Berkowitz": 9344,
      "ries": 9345,
      "europe": 9346,
      "extreme": 9347,
      "province": 9348,
      "respondents": 9349,
      "telecommunications": 9350,
      "DVD": 9351,
      "PER": 9352,
      "ithium": 9353,
      "INA": 9354,
      "relax": 9355,
[...]
